<unk>	0
<s>	0
</s>	0
ال	-0
▁ال	-1
▁و	-2
▁م	-3
▁ل	-4
ات	-5
▁الم	-6
▁ب	-7
▁ت	-8
ية	-9
▁ا	-10
▁ي	-11
ار	-12
ان	-13
▁أ	-14
را	-15
ين	-16
▁وال	-17
▁ع	-18
▁س	-19
▁ف	-20
▁ن	-21
ري	-22
ام	-23
▁ك	-24
▁لل	-25
▁الت	-26
ول	-27
اد	-28
▁ح	-29
ست	-30
ير	-31
▁ر	-32
ها	-33
▁الأ	-34
▁ق	-35
▁ج	-36
ون	-37
اب	-38
▁د	-39
نا	-40
ور	-41
لا	-42
وا	-43
▁ش	-44
لي	-45
يد	-46
▁إ	-47
▁الع	-48
اع	-49
يا	-50
▁خ	-51
ائ	-52
يل	-53
▁ه	-54
▁الس	-55
اء	-56
▁الح	-57
▁ص	-58
▁بال	-59
▁الب	-60
▁ط	-61
▁الا	-62
▁لم	-63
وم	-64
يم	-65
▁الإ	-66
اف	-67
▁الف	-68
▁وت	-69
▁الج	-70
▁الق	-71
رة	-72
بي	-73
نت	-74
ما	-75
▁الن	-76
لة	-77
ود	-78
▁الك	-79
رو	-80
▁ز	-81
▁الش	-82
▁a	-83
▁غ	-84
رب	-85
رك	-86
عة	-87
وق	-88
▁الد	-89
مة	-90
▁(	-91
عل	-92
▁الص	-93
هم	-94
اح	-95
يف	-96
بة	-97
▁i	-98
تم	-99
قة	-100
20	-101
▁وم	-102
عد	-103
ني	-104
مل	-105
▁الخ	-106
قد	-107
▁ض	-108
▁را	-109
سي	-110
▁"	-111
▁o	-112
بر	-113
▁الر	-114
دي	-115
وج	-116
▁وأ	-117
▁1	-118
اس	-119
دا	-120
دة	-121
قي	-122
وي	-123
اج	-124
حت	-125
رف	-126
▁وي	-127
رت	-128
▁الل	-129
وب	-130
وس	-131
▁e	-132
مي	-133
▁مت	-134
▁ث	-135
▁يت	-136
▁است	-137
اه	-138
▁لت	-139
سب	-140
وف	-141
▁المت	-142
سل	-143
كر	-144
▁ذ	-145
ارة	-146
..	-147
خت	-148
▁مع	-149
▁والم	-150
حة	-151
كت	-152
▁الط	-153
كن	-154
مر	-155
▁ول	-156
▁-	-157
▁من	-158
▁وب	-159
رج	-160
اق	-161
من	-162
يات	-163
صل	-164
وض	-165
▁ان	-166
اط	-167
وت	-168
▁مح	-169
لف	-170
▁20	-171
ارات	-172
سم	-173
▁ري	-174
از	-175
وع	-176
اض	-177
اً	-178
قت	-179
وز	-180
▁تع	-181
ند	-182
▁:	-183
يت	-184
ًا	-185
▁تح	-186
لب	-187
مت	-188
يب	-189
رات	-190
رض	-191
فت	-192
هد	-193
▁المح	-194
يك	-195
▁r	-196
▁والت	-197
اص	-198
اني	-199
▁للم	-200
er	-201
عت	-202
يز	-203
َّ	-204
▁/	-205
▁تت	-206
لق	-207
نة	-208
انية	-209
جم	-210
عم	-211
▁ست	-212
▁p	-213
اك	-214
خص	-215
يس	-216
▁A	-217
ادة	-218
▁بم	-219
▁الث	-220
بل	-221
قل	-222
▁الان	-223
شر	-224
عب	-225
في	-226
لك	-227
جه	-228
حد	-229
طة	-230
▁آ	-231
اري	-232
▁ون	-233
رد	-234
وك	-235
يج	-236
دم	-237
ــ	-238
لم	-239
راء	-240
▁بت	-241
▁ظ	-242
▁ات	-243
▁مس	-244
▁الز	-245
▁الاست	-246
▁أن	-247
▁وق	-248
▁الغ	-249
▁اله	-250
خر	-251
وص	-252
وية	-253
يرة	-254
▁المن	-255
سة	-256
▁2	-257
الي	-258
▁ين	-259
▁اب	-260
▁مش	-261
رح	-262
فض	-263
هر	-264
يع	-265
الة	-266
▁وع	-267
▁للت	-268
▁المع	-269
00	-270
بار	-271
ولة	-272
▁ائ	-273
وح	-274
▁u	-275
ديد	-276
▁وك	-277
بد	-278
در	-279
ذا	-280
▁ّ	-281
بات	-282
لات	-283
وات	-284
▁سي	-285
▁لا	-286
▁وس	-287
الية	-288
صر	-289
لت	-290
ئة	-291
فس	-292
يه	-293
ادي	-294
▁تص	-295
▁وح	-296
▁المست	-297
وط	-298
▁3	-299
ورة	-300
▁تج	-301
▁وف	-302
خل	-303
ذه	-304
رق	-305
▁ئ	-306
وري	-307
▁بد	-308
▁تق	-309
▁تن	-310
▁المس	-311
كة	-312
▁s	-313
▁أم	-314
▁بأ	-315
▁مق	-316
▁201	-317
▁المق	-318
اش	-319
حي	-320
زي	-321
يو	-322
▁m	-323
▁تم	-324
▁الض	-325
▁وإ	-326
▁مست	-327
▁المش	-328
▁والأ	-329
in	-330
on	-331
جر	-332
لس	-333
▁C	-334
▁S	-335
افة	-336
دين	-337
▁لأ	-338
▁ور	-339
▁بالم	-340
بح	-341
فة	-342
▁.	-343
▁8	-344
ابة	-345
رائ	-346
عات	-347
▁أس	-348
▁بر	-349
عي	-350
فع	-351
وى	-352
كان	-353
▁وج	-354
▁الأم	-355
فر	-356
▁P	-357
بية	-358
▁عم	-359
▁مص	-360
▁ها	-361
▁انت	-362
ته	-363
ثر	-364
كم	-365
نس	-366
وة	-367
▁4	-368
▁c	-369
▁«	-370
لاق	-371
نية	-372
▁اد	-373
▁تد	-374
▁وا	-375
▁الآ	-376
صد	-377
كس	-378
يض	-379
▁َ	-380
امة	-381
▁تش	-382
▁مج	-383
زة	-384
عا	-385
كل	-386
▁5	-387
▁h	-388
▁لي	-389
▁مؤ	-390
▁المص	-391
▁9	-392
الب	-393
ليم	-394
وان	-395
▁يع	-396
▁الأس	-397
es	-398
ثل	-399
فق	-400
▁ِ	-401
راج	-402
رار	-403
كون	-404
لاح	-405
▁تس	-406
▁يح	-407
▁يق	-408
▁التح	-409
رس	-410
طل	-411
كي	-412
▁6	-413
▁M	-414
الم	-415
راق	-416
▁مب	-417
▁يس	-418
▁المج	-419
أس	-420
فا	-421
▁7	-422
لام	-423
▁in	-424
▁بح	-425
▁بل	-426
▁ود	-427
▁وص	-428
▁الي	-429
بط	-430
بع	-431
خد	-432
طر	-433
عر	-434
له	-435
▁I	-436
امل	-437
راض	-438
رام	-439
ريق	-440
مار	-441
▁كت	-442
▁وش	-443
▁يد	-444
ظر	-445
▁l	-446
الت	-447
وار	-448
ولي	-449
▁ام	-450
▁بإ	-451
▁بي	-452
▁مد	-453
▁مل	-454
▁النا	-455
▁الانت	-456
هي	-457
اعة	-458
▁بع	-459
▁في	-460
▁لإ	-461
or	-462
اة	-463
به	-464
ثة	-465
حم	-466
صة	-467
▁%	-468
ائل	-469
ركة	-470
عية	-471
ناء	-472
وقع	-473
يدة	-474
▁19	-475
▁بن	-476
▁يم	-477
الات	-478
te	-479
بت	-480
خط	-481
رون	-482
فات	-483
قدم	-484
▁إن	-485
▁اح	-486
▁بق	-487
▁تك	-488
▁فر	-489
▁لق	-490
▁مض	-491
▁مو	-492
▁احت	-493
▁العم	-494
al	-495
an	-496
اذ	-497
جة	-498
حق	-499
دد	-500
رم	-501
▁w	-502
اعد	-503
رية	-504
شار	-505
عود	-506
وائ	-507
يلة	-508
▁با	-509
▁سب	-510
▁مط	-511
▁مي	-512
▁وض	-513
▁المد	-514
ti	-515
هل	-516
يط	-517
▁E	-518
▁T	-519
201	-520
ثير	-521
غير	-522
ولا	-523
▁أج	-524
▁أع	-525
▁اج	-526
▁تب	-527
▁عل	-528
▁نت	-529
....	-530
▁المنا	-531
ar	-532
نظ	-533
نه	-534
نى	-535
▁ؤ	-536
انة	-537
راد	-538
رين	-539
قيق	-540
يار	-541
▁تأ	-542
▁جم	-543
▁سم	-544
▁مك	-545
▁مه	-546
▁وخ	-547
ادات	-548
ارية	-549
▁منا	-550
مس	-551
نب	-552
وث	-553
▁b	-554
يين	-555
▁ar	-556
▁أب	-557
▁اش	-558
▁اط	-559
▁تف	-560
▁فت	-561
▁لس	-562
▁ما	-563
▁وه	-564
▁يج	-565
▁يش	-566
انات	-567
ورية	-568
▁الذ	-569
▁رائ	-570
▁يست	-571
▁بالت	-572
▁والإ	-573
▁والع	-574
--	-575
21	-576
بق	-577
زل	-578
ضر	-579
لاء	-580
يفة	-581
▁أح	-582
▁ار	-583
▁اس	-584
▁حق	-585
▁خص	-586
▁خط	-587
▁قد	-588
▁لح	-589
▁مم	-590
▁وط	-591
▁اعت	-592
▁الام	-593
▁المؤ	-594
ch	-595
it	-596
بن	-597
فظ	-598
نع	-599
يش	-600
يق	-601
▁)	-602
▁0	-603
▁t	-604
ئيس	-605
ائر	-606
خدم	-607
راط	-608
كية	-609
ليل	-610
واق	-611
وجه	-612
ومة	-613
▁أخ	-614
▁اه	-615
▁بش	-616
▁رج	-617
▁وز	-618
ائية	-619
انيا	-620
تماع	-621
ختلف	-622
▁التع	-623
▁المخ	-624
le	-625
nt	-626
تي	-627
رش	-628
ضة	-629
كا	-630
وظ	-631
▁B	-632
▁v	-633
ارك	-634
اعت	-635
راف	-636
راً	-637
ريب	-638
ريد	-639
علم	-640
ينة	-641
▁أص	-642
▁حس	-643
▁عب	-644
▁مخ	-645
▁هد	-646
tion	-647
سلام	-648
▁علي	-649
▁وان	-650
▁التج	-651
▁التق	-652
▁المط	-653
▁والح	-654
ic	-655
om	-656
ظم	-657
قب	-658
قر	-659
كد	-660
▁؟	-661
▁ـ	-662
ائي	-663
ذهب	-664
فضل	-665
نتج	-666
ورد	-667
وقف	-668
وين	-669
يني	-670
▁بط	-671
▁دا	-672
▁رس	-673
▁عد	-674
▁فا	-675
▁كل	-676
▁لك	-677
▁له	-678
▁مز	-679
▁ند	-680
ابات	-681
ربية	-682
▁للأ	-683
▁موا	-684
▁واح	-685
▁الجم	-686
▁الري	-687
▁المز	-688
us	-689
ئي	-690
حن	-691
غة	-692
غل	-693
▁O	-694
▁d	-695
▁y	-696
ارت	-697
ذكر	-698
روف	-699
سية	-700
مان	-701
وعة	-702
وله	-703
يمة	-704
▁اع	-705
▁بك	-706
▁دي	-707
▁فق	-708
▁قط	-709
▁نش	-710
▁وَ	-711
▁ير	-712
▁يف	-713
▁َّ	-714
▁اخت	-715
▁فال	-716
▁الات	-717
▁والد	-718
▁والس	-719
__	-720
جد	-721
خذ	-722
شف	-723
َا	-724
▁D	-725
▁g	-726
▁n	-727
▁ُ	-728
ائق	-729
ابع	-730
حدث	-731
ديث	-732
ربي	-733
سات	-734
ظهر	-735
عار	-736
فاع	-737
وال	-738
ويل	-739
ياء	-740
▁or	-741
▁أد	-742
▁اف	-743
▁تط	-744
▁جز	-745
▁جه	-746
▁حم	-747
▁سن	-748
▁عن	-749
▁لد	-750
▁مف	-751
▁نق	-752
▁وث	-753
ادية	-754
اريخ	-755
داول	-756
▁تست	-757
▁البل	-758
▁التص	-759
ct	-760
et	-761
pp	-762
أن	-763
زم	-764
غي	-765
وه	-766
يص	-767
▁G	-768
ابت	-769
افظ	-770
الح	-771
اول	-772
بير	-773
بيع	-774
رير	-775
سلم	-776
ضاء	-777
قات	-778
مية	-779
واب	-780
▁an	-781
▁at	-782
▁er	-783
▁أق	-784
▁ته	-785
▁خل	-786
▁رب	-787
▁سل	-788
▁نس	-789
▁ني	-790
▁للإ	-791
▁ولي	-792
▁يوم	-793
▁التن	-794
▁الرا	-795
▁الصح	-796
▁اللا	-797
▁المغ	-798
▁المك	-799
▁المه	-800
▁الموا	-801
أة	-802
اث	-803
رر	-804
رى	-805
سر	-806
ضي	-807
▁U	-808
▁f	-809
انت	-810
ذلك	-811
راك	-812
كثر	-813
كري	-814
لاً	-815
نين	-816
هاب	-817
ودة	-818
ينا	-819
▁ou	-820
▁pr	-821
▁ra	-822
▁أش	-823
▁أف	-824
▁اق	-825
▁حد	-826
▁حص	-827
▁شي	-828
▁صد	-829
▁ــ	-830
▁فع	-831
▁مث	-832
▁مر	-833
▁نج	-834
▁وظ	-835
▁يص	-836
▁يل	-837
انون	-838
ديدة	-839
ركات	-840
سرائ	-841
عمال	-842
ومات	-843
يران	-844
▁أيض	-845
▁ارت	-846
▁عام	-847
▁للح	-848
▁الاج	-849
▁السي	-850
▁العق	-851
▁المب	-852
▁المف	-853
▁الأول	-854
▁الاحت	-855
!!	-856
is	-857
ow	-858
شة	-859
فل	-860
نج	-861
يح	-862
▁R	-863
ادر	-864
است	-865
داء	-866
ركز	-867
رنت	-868
روع	-869
عرف	-870
لاف	-871
لسط	-872
ميع	-873
هور	-874
واء	-875
وسط	-876
ويت	-877
▁إل	-878
▁اض	-879
▁تخ	-880
▁رق	-881
▁فل	-882
▁قي	-883
خبار	-884
وضوع	-885
▁اقت	-886
▁دول	-887
▁كال	-888
▁للع	-889
كترون	-890
▁الأح	-891
▁التد	-892
▁التش	-893
▁الفر	-894
▁الوا	-895
▁السيا	-896
at	-897
qu	-898
st	-899
اي	-900
ضم	-901
لَ	-902
▁L	-903
▁[	-904
▁١	-905
احة	-906
جاج	-907
خرى	-908
داد	-909
زام	-910
طاع	-911
قبل	-912
لاث	-913
هدف	-914
ونا	-915
ونة	-916
وير	-917
▁إِ	-918
▁اص	-919
▁تل	-920
▁حك	-921
▁حل	-922
▁حي	-923
▁شه	-924
▁عق	-925
▁قت	-926
▁كس	-927
▁كم	-928
▁لج	-929
▁لن	-930
▁نظ	-931
▁يُ	-932
خدام	-933
علام	-934
▁بري	-935
▁ترك	-936
▁وات	-937
▁واج	-938
▁-201	-939
▁الأج	-940
▁البح	-941
▁التأ	-942
▁التس	-943
▁الجز	-944
▁الرو	-945
▁السل	-946
▁النق	-947
ll	-948
ou	-949
ve	-950
خب	-951
ذي	-952
رص	-953
رط	-954
ضع	-955
طع	-956
مو	-957
▁,	-958
▁N	-959
▁W	-960
ئية	-961
ارج	-962
الف	-963
اهد	-964
اية	-965
برا	-966
تمع	-967
جار	-968
داً	-969
ضاف	-970
طاء	-971
عيد	-972
فاء	-973
ميز	-974
نان	-975
هما	-976
وبة	-977
ياه	-978
▁en	-979
▁re	-980
▁إد	-981
▁بص	-982
▁جد	-983
▁دع	-984
▁رت	-985
▁رح	-986
▁رم	-987
▁زي	-988
▁صب	-989
▁عش	-990
▁فس	-991
▁قص	-992
▁لط	-993
▁لف	-994
▁نف	-995
▁يخ	-996
▁يط	-997
اسية	-998
اعات	-999
طلاق	-1000
قيقة	-1001
ملكة	-1002
ولوج	-1003
ولية	-1004
يرات	-1005
▁اري	-1006
▁الظ	-1007
▁تقد	-1008
▁تنا	-1009
▁سيا	-1010
▁عمل	-1011
▁للس	-1012
▁ملي	-1013
▁الاس	-1014
▁البط	-1015
▁الفت	-1016
tt	-1017
جز	-1018
جل	-1019
ذة	-1020
غط	-1021
وء	-1022
▁F	-1023
▁H	-1024
▁٢	-1025
ئات	-1026
ائد	-1027
ابق	-1028
ادل	-1029
ارس	-1030
الد	-1031
ايا	-1032
حية	-1033
خصص	-1034
راب	-1035
ربع	-1036
روط	-1037
عمل	-1038
فال	-1039
قية	-1040
نام	-1041
وبا	-1042
وجد	-1043
ياة	-1044
▁أَ	-1045
▁بج	-1046
▁بس	-1047
▁تز	-1048
▁جن	-1049
▁رد	-1050
▁رك	-1051
▁سا	-1052
▁صف	-1053
▁قل	-1054
▁لش	-1055
▁لص	-1056
▁هي	-1057
▁يك	-1058
اعدة	-1059
حتاج	-1060
ضافة	-1061
عداد	-1062
واصل	-1063
▁199	-1064
▁200	-1065
▁إلي	-1066
▁الو	-1067
▁بين	-1068
▁دائ	-1069
▁شخص	-1070
▁لاح	-1071
▁للد	-1072
▁مال	-1073
▁منت	-1074
▁هنا	-1075
▁....	-1076
▁الأخ	-1077
▁الإم	-1078
▁الار	-1079
▁التط	-1080
▁الخط	-1081
▁الكت	-1082
▁الله	-1083
▁المل	-1084
▁المو	-1085
▁الوز	-1086
▁الوق	-1087
▁والش	-1088
▁والص	-1089
▁والن	-1090
▁الماض	-1091
▁اليوم	-1092
▁الرياض	-1093
10	-1094
ab	-1095
ad	-1096
lo	-1097
ub	-1098
لى	-1099
مع	-1100
▁،	-1101
اصة	-1102
افي	-1103
امي	-1104
انا	-1105
باط	-1106
حاب	-1107
روس	-1108
طقة	-1109
فاق	-1110
فيف	-1111
قاء	-1112
كار	-1113
لية	-1114
ميم	-1115
هرب	-1116
وبي	-1117
وضح	-1118
وما	-1119
ياً	-1120
يلي	-1121
يما	-1122
▁:3	-1123
▁:4	-1124
▁:5	-1125
▁on	-1126
▁qu	-1127
▁ri	-1128
▁أغ	-1129
▁رأ	-1130
▁رش	-1131
▁شع	-1132
▁عَ	-1133
▁فأ	-1134
▁فإ	-1135
▁قض	-1136
▁نا	-1137
▁نز	-1138
املة	-1139
دينة	-1140
نتاج	-1141
ورات	-1142
وريا	-1143
ولات	-1144
يلية	-1145
▁اني	-1146
▁بعد	-1147
▁عبد	-1148
▁كري	-1149
▁للش	-1150
▁مرت	-1151
▁وار	-1152
▁/201	-1153
▁2021	-1154
▁الأن	-1155
▁البي	-1156
▁الحك	-1157
▁العب	-1158
▁المث	-1159
▁المر	-1160
▁الوط	-1161
▁واست	-1162
▁والق	-1163
▁المعل	-1164
▁السعود	-1165
▁العالم	-1166
8%	-1167
ai	-1168
am	-1169
ce	-1170
de	-1171
ew	-1172
oo	-1173
ot	-1174
re	-1175
se	-1176
بس	-1177
ذب	-1178
سن	-1179
طن	-1180
عى	-1181
هة	-1182
ِّ	-1183
٠٠	-1184
...	-1185
ent	-1186
ائع	-1187
ائف	-1188
اتب	-1189
اسة	-1190
اقة	-1191
الى	-1192
امت	-1193
باب	-1194
بيق	-1195
تما	-1196
تها	-1197
تين	-1198
جمع	-1199
حنة	-1200
خفض	-1201
راع	-1202
راه	-1203
ربة	-1204
رها	-1205
زمة	-1206
ساء	-1207
سبب	-1208
شرة	-1209
عرض	-1210
قال	-1211
قول	-1212
كتب	-1213
لاج	-1214
لال	-1215
ليف	-1216
مال	-1217
ميل	-1218
مين	-1219
نات	-1220
واح	-1221
وبر	-1222
وضع	-1223
ونس	-1224
يوب	-1225
▁-0	-1226
▁-1	-1227
▁/0	-1228
▁1.	-1229
▁10	-1230
▁:0	-1231
▁:1	-1232
▁al	-1233
▁أو	-1234
▁إح	-1235
▁إم	-1236
▁اث	-1237
▁تي	-1238
▁حض	-1239
▁دم	-1240
▁رف	-1241
▁شف	-1242
▁صح	-1243
▁فض	-1244
▁فن	-1245
▁قب	-1246
▁كث	-1247
▁مغ	-1248
▁نص	-1249
▁يب	-1250
▁يز	-1251
ادرة	-1252
امات	-1253
صرية	-1254
عادة	-1255
ــــ	-1256
فاوض	-1257
ليات	-1258
ويات	-1259
يجاب	-1260
▁أول	-1261
▁اشت	-1262
▁امت	-1263
▁بار	-1264
▁لات	-1265
▁للف	-1266
▁محم	-1267
▁معت	-1268
▁نفس	-1269
▁نوع	-1270
▁وتح	-1271
▁وتش	-1272
▁وجه	-1273
▁يتم	-1274
▁ينت	-1275
ation	-1276
راتيج	-1277
ريقيا	-1278
▁الاع	-1279
▁الجن	-1280
▁الشه	-1281
▁العن	-1282
▁الفق	-1283
▁القد	-1284
▁القص	-1285
▁اللي	-1286
▁والث	-1287
كنولوج	-1288
▁الاقت	-1289
▁المحت	-1290
▁المنت	-1291
▁الأمري	-1292
▁الرئيس	-1293
%8	-1294
//	-1295
22	-1296
50	-1297
ay	-1298
ld	-1299
ss	-1300
ur	-1301
؟؟	-1302
اا	-1303
جي	-1304
سط	-1305
طب	-1306
طق	-1307
فص	-1308
مَ	-1309
مْ	-1310
نْ	-1311
يي	-1312
ّة	-1313
▁V	-1314
▁]	-1315
▁»	-1316
000	-1317
ats	-1318
ttp	-1319
ارب	-1320
افر	-1321
الا	-1322
الج	-1323
اما	-1324
اهر	-1325
اوز	-1326
بحث	-1327
تمد	-1328
ثلة	-1329
حات	-1330
حمد	-1331
خيص	-1332
رفة	-1333
روض	-1334
ريف	-1335
زية	-1336
زيز	-1337
سيق	-1338
صار	-1339
صول	-1340
ضيف	-1341
طار	-1342
طلق	-1343
ظام	-1344
عله	-1345
على	-1346
كرة	-1347
لاك	-1348
ندا	-1349
نها	-1350
هات	-1351
ومي	-1352
وني	-1353
يام	-1354
يدي	-1355
▁!!	-1356
▁14	-1357
▁am	-1358
▁et	-1359
▁it	-1360
▁أك	-1361
▁إق	-1362
▁اء	-1363
▁اغ	-1364
▁اك	-1365
▁تر	-1366
▁تُ	-1367
▁ثق	-1368
▁خب	-1369
▁خد	-1370
▁خي	-1371
▁در	-1372
▁ذه	-1373
▁طب	-1374
▁طل	-1375
▁عض	-1376
▁عي	-1377
▁قر	-1378
▁قَ	-1379
▁لع	-1380
▁لغ	-1381
▁نب	-1382
▁وغ	-1383
▁يا	-1384
▁ية	-1385
▁يه	-1386
▁ِّ	-1387
ابعة	-1388
اقات	-1389
جراء	-1390
جهزة	-1391
ريات	-1392
صلاح	-1393
عدين	-1394
لاحظ	-1395
لبات	-1396
نامج	-1397
نظيم	-1398
واقع	-1399
يديو	-1400
يلات	-1401
ينية	-1402
▁pro	-1403
▁آخر	-1404
▁اسم	-1405
▁افت	-1406
▁تحت	-1407
▁ترا	-1408
▁جان	-1409
▁داع	-1410
▁درا	-1411
▁دور	-1412
▁زوج	-1413
▁قائ	-1414
▁لاع	-1415
▁لاف	-1416
▁لان	-1417
▁للج	-1418
▁للص	-1419
▁مرا	-1420
▁معد	-1421
▁ناق	-1422
▁يات	-1423
▁ينا	-1424
ورونا	-1425
▁http	-1426
▁الأد	-1427
▁الأع	-1428
▁الأف	-1429
▁الإل	-1430
▁الاش	-1431
▁الثق	-1432
▁الحس	-1433
▁الحم	-1434
▁الدا	-1435
▁الدم	-1436
▁الشي	-1437
▁الور	-1438
▁اليم	-1439
▁جديد	-1440
▁لاست	-1441
▁مكان	-1442
▁والخ	-1443
▁والف	-1444
▁وغير	-1445
▁يمكن	-1446
▁الاخت	-1447
▁الاعت	-1448
▁القاد	-1449
▁المتح	-1450
▁المشت	-1451
▁الهند	-1452
▁دولار	-1453
▁الفلسط	-1454
gh	-1455
أل	-1456
جب	-1457
حك	-1458
ذر	-1459
طم	-1460
فذ	-1461
قا	-1462
قق	-1463
هج	-1464
هه	-1465
وذ	-1466
وو	-1467
يْ	-1468
ِي	-1469
▁*	-1470
▁|	-1471
▁ى	-1472
9%8	-1473
://	-1474
com	-1475
ook	-1476
ter	-1477
ush	-1478
ابل	-1479
احث	-1480
افع	-1481
اقت	-1482
الع	-1483
بدأ	-1484
بلغ	-1485
بين	-1486
ثمر	-1487
جاز	-1488
جيل	-1489
حاد	-1490
خول	-1491
دية	-1492
ذية	-1493
رجة	-1494
روب	-1495
روج	-1496
ريض	-1497
ريل	-1498
زيد	-1499
ستر	-1500
سكر	-1501
صبح	-1502
طات	-1503
طيع	-1504
علق	-1505
فاض	-1506
لاع	-1507
هاز	-1508
ودي	-1509
وفر	-1510
ولى	-1511
يزة	-1512
▁-2	-1513
▁/1	-1514
▁:2	-1515
▁Pr	-1516
▁le	-1517
▁ro	-1518
▁أت	-1519
▁أث	-1520
▁از	-1521
▁به	-1522
▁تغ	-1523
▁حت	-1524
▁حز	-1525
▁رؤ	-1526
▁رغ	-1527
▁زم	-1528
▁شر	-1529
▁كر	-1530
▁لَ	-1531
▁مَ	-1532
▁هم	-1533
▁هن	-1534
▁وآ	-1535
▁يأ	-1536
▁يؤ	-1537
▁يغ	-1538
----	-1539
ائدة	-1540
افظة	-1541
امعة	-1542
امين	-1543
بنان	-1544
حديد	-1545
لبية	-1546
هداف	-1547
واجه	-1548
وافق	-1549
وجود	-1550
ودية	-1551
يدات	-1552
يروس	-1553
يكية	-1554
▁اكت	-1555
▁الْ	-1556
▁برو	-1557
▁بيت	-1558
▁خلا	-1559
▁ذات	-1560
▁ذلك	-1561
▁رات	-1562
▁عرض	-1563
▁غير	-1564
▁قال	-1565
▁لأن	-1566
▁لكن	-1567
▁للغ	-1568
▁للن	-1569
▁مار	-1570
▁مخت	-1571
▁مصر	-1572
▁نائ	-1573
▁نها	-1574
▁هدف	-1575
▁وائ	-1576
▁واض	-1577
▁وتس	-1578
▁وسي	-1579
▁وقت	-1580
▁ولا	-1581
▁وني	-1582
▁ويت	-1583
▁وين	-1584
ختلفة	-1585
مارسة	-1586
نتجات	-1587
نترنت	-1588
▁2016	-1589
▁2020	-1590
▁الأش	-1591
▁الأق	-1592
▁البر	-1593
▁التك	-1594
▁الحض	-1595
▁الحل	-1596
▁الرق	-1597
▁الشر	-1598
▁العل	-1599
▁القر	-1600
▁القض	-1601
▁المض	-1602
▁المم	-1603
▁النص	-1604
▁النف	-1605
▁بالد	-1606
▁تدري	-1607
▁تعلي	-1608
▁حيات	-1609
▁الإنس	-1610
▁الرائ	-1611
▁السود	-1612
▁العمل	-1613
▁المرت	-1614
▁المسل	-1615
▁المعد	-1616
▁الاجتماع	-1617
▁الإلكترون	-1618
30	-1619
ck	-1620
ed	-1621
nd	-1622
ww	-1623
ثم	-1624
جن	-1625
خة	-1626
ده	-1627
دى	-1628
رز	-1629
طي	-1630
لغ	-1631
هُ	-1632
▁J	-1633
▁Y	-1634
▁k	-1635
200	-1636
App	-1637
ess	-1638
ine	-1639
ing	-1640
ارض	-1641
ارف	-1642
اسم	-1643
اعي	-1644
الث	-1645
الس	-1646
الك	-1647
برز	-1648
حيح	-1649
داث	-1650
راز	-1651
رعة	-1652
ريا	-1653
ريط	-1654
ريع	-1655
سبة	-1656
سبق	-1657
سمى	-1658
شاء	-1659
شاف	-1660
صاد	-1661
صال	-1662
صور	-1663
ضمن	-1664
طلع	-1665
طور	-1666
عيش	-1667
فية	-1668
فيذ	-1669
قلت	-1670
لائ	-1671
لفة	-1672
هار	-1673
هيل	-1674
واد	-1675
وتر	-1676
وصل	-1677
ياب	-1678
يال	-1679
يمق	-1680
▁(1	-1681
▁12	-1682
▁Ar	-1683
▁ab	-1684
▁ag	-1685
▁el	-1686
▁إب	-1687
▁إش	-1688
▁بغ	-1689
▁تا	-1690
▁ثم	-1691
▁دو	-1692
▁رض	-1693
▁شت	-1694
▁صل	-1695
▁ضع	-1696
▁طف	-1697
▁عا	-1698
▁عت	-1699
▁فه	-1700
▁كا	-1701
▁كب	-1702
▁كي	-1703
▁لب	-1704
▁لر	-1705
▁مِ	-1706
▁نح	-1707
▁َة	-1708
▁٢٠	-1709
____	-1710
ابقة	-1711
ازات	-1712
افية	-1713
اليا	-1714
اهرة	-1715
اولة	-1716
تماد	-1717
تمام	-1718
خصصة	-1719
دارة	-1720
دمات	-1721
راجع	-1722
راحة	-1723
راسة	-1724
رويد	-1725
ريقة	-1726
سبوع	-1727
ستان	-1728
شرين	-1729
صدار	-1730
عاية	-1731
عتبر	-1732
علان	-1733
غيير	-1734
لاقة	-1735
ماية	-1736
ناعة	-1737
وبات	-1738
وبية	-1739
يمات	-1740
يمان	-1741
▁أور	-1742
▁بأن	-1743
▁بان	-1744
▁بدا	-1745
▁بعض	-1746
▁بلا	-1747
▁بها	-1748
▁تلق	-1749
▁حمل	-1750
▁رفي	-1751
▁روا	-1752
▁روس	-1753
▁عند	-1754
▁فيه	-1755
▁قاد	-1756
▁لام	-1757
▁لتح	-1758
▁للط	-1759
▁للق	-1760
▁مثل	-1761
▁محت	-1762
▁مسؤ	-1763
▁مسل	-1764
▁ممت	-1765
▁موس	-1766
▁هات	-1767
▁وتق	-1768
▁وخص	-1769
▁ومع	-1770
جموعة	-1771
▁الأص	-1772
▁الأغ	-1773
▁الاح	-1774
▁الاد	-1775
▁الاص	-1776
▁البع	-1777
▁البن	-1778
▁التب	-1779
▁التف	-1780
▁التم	-1781
▁الحد	-1782
▁الحق	-1783
▁الرب	-1784
▁الرح	-1785
▁الرس	-1786
▁الرم	-1787
▁السم	-1788
▁الشع	-1789
▁الصغ	-1790
▁القي	-1791
▁النز	-1792
▁الها	-1793
▁الوس	-1794
▁الوف	-1795
▁بالأ	-1796
▁بالع	-1797
▁بالف	-1798
▁بالق	-1799
▁والط	-1800
▁وبال	-1801
▁ولكن	-1802
atsApp	-1803
سرائيل	-1804
يمقراط	-1805
▁الآخر	-1806
▁الأرض	-1807
▁الأور	-1808
▁الترك	-1809
▁الحجر	-1810
▁الخلي	-1811
▁الصين	-1812
▁الطبي	-1813
▁المخت	-1814
▁المعت	-1815
▁الملك	-1816
▁المنش	-1817
▁للمست	-1818
▁العراق	-1819
▁العربي	-1820
▁الإسلام	-1821
0%	-1822
ag	-1823
en	-1824
ip	-1825
ng	-1826
ph	-1827
th	-1828
ut	-1829
آن	-1830
ؤس	-1831
اخ	-1832
با	-1833
خم	-1834
ذج	-1835
زا	-1836
صب	-1837
غم	-1838
قط	-1839
كب	-1840
نق	-1841
هِ	-1842
ّا	-1843
▁'	-1844
▁+	-1845
▁j	-1846
▁}	-1847
▁ة	-1848
▁ْ	-1849
▁ی	-1850
▁”	-1851
▁‬	-1852
ail	-1853
ers	-1854
ted	-1855
ئلة	-1856
ائج	-1857
اجر	-1858
احت	-1859
ادق	-1860
اسي	-1861
الغ	-1862
امن	-1863
انع	-1864
اهم	-1865
باع	-1866
بيه	-1867
تمر	-1868
تمل	-1869
جاب	-1870
جلس	-1871
حين	-1872
خاص	-1873
خلص	-1874
خير	-1875
ديق	-1876
راث	-1877
روة	-1878
روح	-1879
رول	-1880
ريم	-1881
زين	-1882
سام	-1883
سين	-1884
صاص	-1885
صلة	-1886
ظمة	-1887
علن	-1888
عيم	-1889
غال	-1890
فين	-1891
قتل	-1892
ليا	-1893
مبر	-1894
ملك	-1895
منة	-1896
ناع	-1897
نَّ	-1898
واج	-1899
واع	-1900
وحة	-1901
وصف	-1902
ولد	-1903
ويس	-1904
ياس	-1905
يدا	-1906
▁18	-1907
▁Ch	-1908
▁Co	-1909
▁Se	-1910
▁US	-1911
▁cr	-1912
▁em	-1913
▁es	-1914
▁ic	-1915
▁if	-1916
▁is	-1917
▁ow	-1918
▁th	-1919
▁vi	-1920
▁أر	-1921
▁أل	-1922
▁أه	-1923
▁أي	-1924
▁اخ	-1925
▁اي	-1926
▁اً	-1927
▁بف	-1928
▁بِ	-1929
▁تؤ	-1930
▁تض	-1931
▁جل	-1932
▁حف	-1933
▁زا	-1934
▁سف	-1935
▁سو	-1936
▁شا	-1937
▁شك	-1938
▁شن	-1939
▁صغ	-1940
▁ضي	-1941
▁طم	-1942
▁عص	-1943
▁عط	-1944
▁غس	-1945
▁فَ	-1946
▁كن	-1947
▁كُ	-1948
▁لخ	-1949
▁مظ	-1950
▁هج	-1951
▁هُ	-1952
▁ًا	-1953
▁َر	-1954
اديم	-1955
اربة	-1956
اريع	-1957
اشرة	-1958
اصيل	-1959
اهدة	-1960
بناء	-1961
تمبر	-1962
تميز	-1963
ثمار	-1964
جهيز	-1965
حيان	-1966
خدمة	-1967
ديات	-1968
راءة	-1969
راضي	-1970
روات	-1971
رياض	-1972
ريبة	-1973
زيون	-1974
سباب	-1975
سكري	-1976
شروع	-1977
صادي	-1978
طفال	-1979
عامل	-1980
عتقد	-1981
عديل	-1982
عليم	-1983
عمار	-1984
قبال	-1985
منية	-1986
ناول	-1987
ندية	-1988
نسية	-1989
نيين	-1990
همية	-1991
واجد	-1992
وارد	-1993
وجيه	-1994
وحدة	-1995
وريت	-1996
وزيع	-1997
وليو	-1998
ومية	-1999
ونات	-2000
يفون	-2001
يفية	-2002
يميا	-2003
▁...	-2004
▁100	-2005
▁ألم	-2006
▁ابت	-2007
▁اته	-2008
▁اند	-2009
▁اول	-2010
▁بات	-2011
▁برا	-2012
▁ترت	-2013
▁ترف	-2014
▁تعت	-2015
▁تمت	-2016
▁تنت	-2017
▁تها	-2018
▁تهد	-2019
▁توق	-2020
▁جاه	-2021
▁جني	-2022
▁خلي	-2023
▁ذكر	-2024
▁راج	-2025
▁راف	-2026
▁سام	-2027
▁سين	-2028
▁طبي	-2029
▁طحن	-2030
▁عائ	-2031
▁عقد	-2032
▁علم	-2033
▁على	-2034
▁عنه	-2035
▁فار	-2036
▁فاع	-2037
▁قبل	-2038
▁قدم	-2039
▁كام	-2040
▁كيل	-2041
▁لاب	-2042
▁لتج	-2043
▁لدي	-2044
▁لفت	-2045
▁للك	-2046
▁لمح	-2047
▁ليز	-2048
▁ماس	-2049
▁مبي	-2050
▁مفت	-2051
▁مقد	-2052
▁مكت	-2053
▁مها	-2054
▁موج	-2055
▁موظ	-2056
▁ميز	-2057
▁وأف	-2058
▁واز	-2059
▁واف	-2060
▁واك	-2061
▁وتج	-2062
▁وحد	-2063
▁وري	-2064
▁وقد	-2065
▁ومت	-2066
▁ومن	-2067
▁ووز	-2068
▁ووف	-2069
▁ياس	-2070
▁يان	-2071
▁يحت	-2072
▁يدر	-2073
▁يرت	-2074
▁يلي	-2075
خابات	-2076
شاركة	-2077
صادية	-2078
ليمية	-2079
نائية	-2080
وائية	-2081
يارات	-2082
▁2017	-2083
▁2018	-2084
▁2019	-2085
▁أكثر	-2086
▁استش	-2087
▁الأز	-2088
▁الأك	-2089
▁الأو	-2090
▁الإج	-2091
▁الإف	-2092
▁الإق	-2093
▁البد	-2094
▁الجد	-2095
▁الجل	-2096
▁الخص	-2097
▁الرؤ	-2098
▁السب	-2099
▁السج	-2100
▁السف	-2101
▁الصف	-2102
▁العد	-2103
▁العش	-2104
▁الفع	-2105
▁القب	-2106
▁القط	-2107
▁الكل	-2108
▁اللح	-2109
▁المذ	-2110
▁النج	-2111
▁النش	-2112
▁الوظ	-2113
▁بالإ	-2114
▁بالش	-2115
▁خصوص	-2116
▁رئيس	-2117
▁صباح	-2118
▁عالم	-2119
▁عليه	-2120
▁قرار	-2121
▁كبير	-2122
▁محطم	-2123
▁موقع	-2124
▁واحد	-2125
▁والج	-2126
▁ومات	-2127
▁الأرد	-2128
▁الإنج	-2129
▁الإير	-2130
▁الابت	-2131
▁الافت	-2132
▁البار	-2133
▁التنا	-2134
▁الدول	-2135
▁الذهب	-2136
▁العلم	-2137
▁الكرة	-2138
▁اللبن	-2139
▁المتط	-2140
▁المرك	-2141
▁المسؤ	-2142
▁المصن	-2143
▁المفت	-2144
▁المقب	-2145
▁الممت	-2146
▁الهيد	-2147
▁للبيع	-2148
▁مطحنة	-2149
▁اجتماع	-2150
▁الأمير	-2151
▁الانتق	-2152
▁الثاني	-2153
▁الثلاث	-2154
▁المبار	-2155
▁الموقع	-2156
▁والاست	-2157
▁الموضوع	-2158
▁الرئيسية	-2159
▁السعودية	-2160
%0	-2161
/2	-2162
1,	-2163
du	-2164
eb	-2165
el	-2166
آت	-2167
تح	-2168
تز	-2169
حب	-2170
حص	-2171
دت	-2172
دث	-2173
ذن	-2174
رع	-2175
رّ	-2176
زب	-2177
صف	-2178
كو	-2179
هن	-2180
وغ	-2181
وَ	-2182
ُّ	-2183
ّل	-2184
ّم	-2185
▁!	-2186
▁=	-2187
▁>	-2188
▁@	-2189
▁z	-2190
▁{	-2191
▁ء	-2192
▁ً	-2193
ice	-2194
ind	-2195
log	-2196
ore	-2197
ؤون	-2198
ئين	-2199
ائة	-2200
ابه	-2201
اجة	-2202
ادئ	-2203
ادت	-2204
ارع	-2205
اضي	-2206
اطع	-2207
اكل	-2208
الإ	-2209
الق	-2210
بطة	-2211
بيت	-2212
ثار	-2213
ثرة	-2214
جاه	-2215
جلة	-2216
جين	-2217
حكم	-2218
خاذ	-2219
خرج	-2220
خطط	-2221
دخل	-2222
راة	-2223
راح	-2224
زاء	-2225
ساب	-2226
سطس	-2227
سمع	-2228
سيس	-2229
سيط	-2230
صدق	-2231
عاء	-2232
عاد	-2233
عدد	-2234
غرب	-2235
غيل	-2236
فاظ	-2237
قرأ	-2238
قوم	-2239
قيم	-2240
كات	-2241
كنة	-2242
كيل	-2243
ليب	-2244
ماً	-2245
نائ	-2246
ناف	-2247
نيع	-2248
هير	-2249
واة	-2250
ورت	-2251
وقت	-2252
ونغ	-2253
ويد	-2254
ويض	-2255
ياج	-2256
يان	-2257
يجة	-2258
يكا	-2259
يله	-2260
يون	-2261
َّى	-2262
▁15	-2263
▁2.	-2264
▁24	-2265
▁25	-2266
▁82	-2267
▁Al	-2268
▁De	-2269
▁In	-2270
▁ad	-2271
▁as	-2272
▁ex	-2273
▁gr	-2274
▁id	-2275
▁mi	-2276
▁ob	-2277
▁of	-2278
▁oo	-2279
▁pl	-2280
▁st	-2281
▁ur	-2282
▁إث	-2283
▁إج	-2284
▁إخ	-2285
▁إص	-2286
▁إف	-2287
▁بث	-2288
▁بو	-2289
▁بَ	-2290
▁جي	-2291
▁حر	-2292
▁حظ	-2293
▁خت	-2294
▁دة	-2295
▁دف	-2296
▁دل	-2297
▁ذك	-2298
▁رة	-2299
▁رَ	-2300
▁سج	-2301
▁سك	-2302
▁شب	-2303
▁صن	-2304
▁ضح	-2305
▁ضر	-2306
▁ضم	-2307
▁طع	-2308
▁فج	-2309
▁فص	-2310
▁فك	-2311
▁كو	-2312
▁لة	-2313
▁لز	-2314
▁لِ	-2315
▁مة	-2316
▁نن	-2317
▁نه	-2318
▁وذ	-2319
▁يض	-2320
▁َب	-2321
▁َد	-2322
ادلة	-2323
اكرة	-2324
البة	-2325
المي	-2326
ثناء	-2327
جموع	-2328
درسة	-2329
راعة	-2330
ربين	-2331
ردشة	-2332
رهاب	-2333
ريدة	-2334
ستمر	-2335
سلوب	-2336
سمبر	-2337
سمنت	-2338
سمية	-2339
شيات	-2340
طبيق	-2341
طوير	-2342
عاون	-2343
عدات	-2344
فعول	-2345
قترح	-2346
قيام	-2347
كتاب	-2348
كوين	-2349
لاثة	-2350
لفات	-2351
لمان	-2352
ملات	-2353
ميزة	-2354
ناية	-2355
نبية	-2356
نظمة	-2357
نوات	-2358
والي	-2359
وعية	-2360
يانة	-2361
يجار	-2362
يمكن	-2363
يموق	-2364
يوان	-2365
▁198	-2366
▁821	-2367
▁You	-2368
▁ing	-2369
▁أحد	-2370
▁أنش	-2371
▁امر	-2372
▁انس	-2373
▁بدء	-2374
▁بمن	-2375
▁بوت	-2376
▁بير	-2377
▁بيع	-2378
▁ترح	-2379
▁توف	-2380
▁تين	-2381
▁جام	-2382
▁جزء	-2383
▁جعل	-2384
▁جيد	-2385
▁حاس	-2386
▁حال	-2387
▁حدث	-2388
▁حين	-2389
▁خاص	-2390
▁خرج	-2391
▁خلف	-2392
▁دين	-2393
▁رأس	-2394
▁رفض	-2395
▁رية	-2396
▁ريم	-2397
▁سعر	-2398
▁سنة	-2399
▁سنت	-2400
▁سيد	-2401
▁شري	-2402
▁شعب	-2403
▁شهد	-2404
▁صاح	-2405
▁صار	-2406
▁طائ	-2407
▁طبق	-2408
▁طلب	-2409
▁ظاه	-2410
▁عاش	-2411
▁عدد	-2412
▁علا	-2413
▁عمر	-2414
▁عين	-2415
▁غرب	-2416
▁فإن	-2417
▁فاض	-2418
▁فقط	-2419
▁قيم	-2420
▁كار	-2421
▁كان	-2422
▁لتش	-2423
▁لعب	-2424
▁للا	-2425
▁للخ	-2426
▁لمس	-2427
▁لها	-2428
▁لهم	-2429
▁لوك	-2430
▁لية	-2431
▁ليف	-2432
▁ليم	-2433
▁مؤس	-2434
▁مؤك	-2435
▁ماك	-2436
▁مان	-2437
▁ماه	-2438
▁مرك	-2439
▁مري	-2440
▁مسب	-2441
▁مصن	-2442
▁معل	-2443
▁ملك	-2444
▁مما	-2445
▁منش	-2446
▁منظ	-2447
▁مود	-2448
▁موض	-2449
▁مون	-2450
▁ميت	-2451
▁ميد	-2452
▁مين	-2453
▁ناد	-2454
▁ناس	-2455
▁نسي	-2456
▁نظر	-2457
▁نقل	-2458
▁نيس	-2459
▁هذا	-2460
▁وأم	-2461
▁واس	-2462
▁واش	-2463
▁واق	-2464
▁وبد	-2465
▁وتأ	-2466
▁وتت	-2467
▁وتع	-2468
▁وتم	-2469
▁وسل	-2470
▁وصل	-2471
▁وضع	-2472
▁وفي	-2473
▁وكل	-2474
▁ومح	-2475
▁ونت	-2476
▁ويج	-2477
▁ويش	-2478
▁ويك	-2479
▁ياً	-2480
▁يدي	-2481
▁يشت	-2482
▁يفت	-2483
▁يمت	-2484
▁يمن	-2485
▁يني	-2486
▁َّة	-2487
اليات	-2488
براير	-2489
سلمين	-2490
لاقات	-2491
ليزية	-2492
هرباء	-2493
وبايل	-2494
وفمبر	-2495
▁أخرى	-2496
▁أفضل	-2497
▁أيضا	-2498
▁ائية	-2499
▁الآن	-2500
▁الأل	-2501
▁الأه	-2502
▁الإث	-2503
▁الإخ	-2504
▁الإس	-2505
▁الإش	-2506
▁الإن	-2507
▁الاخ	-2508
▁الال	-2509
▁الجس	-2510
▁الجه	-2511
▁الخب	-2512
▁الخش	-2513
▁الخض	-2514
▁الذه	-2515
▁الرئ	-2516
▁الرج	-2517
▁الرك	-2518
▁الست	-2519
▁الشب	-2520
▁الشم	-2521
▁الطب	-2522
▁العض	-2523
▁الفك	-2524
▁القت	-2525
▁الكر	-2526
▁اللج	-2527
▁اللغ	-2528
▁المي	-2529
▁النب	-2530
▁النس	-2531
▁النظ	-2532
▁الوج	-2533
▁الوص	-2534
▁الول	-2535
▁اليد	-2536
▁اليه	-2537
▁الَّ	-2538
▁بالط	-2539
▁بالك	-2540
▁بريط	-2541
▁تعرض	-2542
▁جميع	-2543
▁حديث	-2544
▁سابق	-2545
▁ساعة	-2546
▁طالب	-2547
▁عَلَ	-2548
▁فلسط	-2549
▁فيها	-2550
▁لافت	-2551
▁للات	-2552
▁للمس	-2553
▁مشار	-2554
▁منها	-2555
▁هناك	-2556
▁والك	-2557
▁وسلم	-2558
خبارية	-2559
فاوضات	-2560
▁2021-	-2561
▁أيضاً	-2562
▁أيضًا	-2563
▁الأرج	-2564
▁الاشت	-2565
▁الاكت	-2566
▁الالت	-2567
▁البلا	-2568
▁التلف	-2569
▁الجام	-2570
▁الحوث	-2571
▁الخلا	-2572
▁الدائ	-2573
▁الدرا	-2574
▁الدست	-2575
▁الروم	-2576
▁الساح	-2577
▁السما	-2578
▁السوق	-2579
▁السين	-2580
▁الشخص	-2581
▁الصنا	-2582
▁الطائ	-2583
▁العام	-2584
▁العمر	-2585
▁الفات	-2586
▁اللَّ	-2587
▁المؤس	-2588
▁المتب	-2589
▁المرج	-2590
▁المقد	-2591
▁الملا	-2592
▁الملي	-2593
▁المها	-2594
▁الموج	-2595
▁الموس	-2596
▁النها	-2597
▁اليون	-2598
▁تاريخ	-2599
▁تحقيق	-2600
▁جديدة	-2601
▁دقيقة	-2602
▁سوريا	-2603
▁عبدال	-2604
▁عليها	-2605
▁كسارة	-2606
▁لبنان	-2607
▁للاست	-2608
▁موضوع	-2609
hatsApp	-2610
سرائيلي	-2611
يموقراط	-2612
▁الأولى	-2613
▁الإرها	-2614
▁التقلي	-2615
▁الجديد	-2616
▁الحديد	-2617
▁الخارج	-2618
▁السابق	-2619
▁المقبل	-2620
▁كورونا	-2621
▁والسيا	-2622
كنولوجيا	-2623
▁أفريقيا	-2624
▁استخدام	-2625
▁الإعلام	-2626
▁التاريخ	-2627
▁التعدين	-2628
▁الجديدة	-2629
▁العربية	-2630
▁القانون	-2631
▁المتحدة	-2632
▁المملكة	-2633
▁الإنترنت	-2634
▁الانترنت	-2635
▁المستقبل	-2636
▁الأمريكية	-2637
19	-2638
di	-2639
ik	-2640
ir	-2641
iv	-2642
la	-2643
os	-2644
pt	-2645
أت	-2646
أَ	-2647
ؤل	-2648
بو	-2649
تَ	-2650
جح	-2651
حو	-2652
خي	-2653
زن	-2654
شد	-2655
شق	-2656
شل	-2657
صى	-2658
ضح	-2659
ظة	-2660
ظل	-2661
عو	-2662
غب	-2663
قى	-2664
كَ	-2665
لح	-2666
لل	-2667
مج	-2668
مح	-2669
ّر	-2670
ّه	-2671
▁#	-2672
▁?	-2673
▁K	-2674
▁Q	-2675
▁؛	-2676
▁“	-2677
Tub	-2678
ach	-2679
act	-2680
ark	-2681
ery	-2682
ews	-2683
ity	-2684
orm	-2685
ote	-2686
آخر	-2687
ؤال	-2688
ائط	-2689
ائن	-2690
ابط	-2691
اتل	-2692
ادث	-2693
اشة	-2694
اطئ	-2695
اعر	-2696
اعم	-2697
اقم	-2698
اكم	-2699
الأ	-2700
الص	-2701
الن	-2702
الَ	-2703
امر	-2704
انب	-2705
اند	-2706
باء	-2707
برت	-2708
بقى	-2709
بوب	-2710
بيض	-2711
تاح	-2712
جرى	-2713
جهة	-2714
جير	-2715
حقق	-2716
خاب	-2717
خرة	-2718
داع	-2719
دان	-2720
دوج	-2721
دير	-2722
ذاء	-2723
ذار	-2724
ذور	-2725
ذين	-2726
ران	-2727
رته	-2728
رجل	-2729
ردد	-2730
رشح	-2731
رفع	-2732
رفي	-2733
روك	-2734
ريت	-2735
ريس	-2736
زيل	-2737
سيا	-2738
شرق	-2739
صيد	-2740
ضور	-2741
طان	-2742
طنا	-2743
ظار	-2744
ظاه	-2745
ظيم	-2746
عبة	-2747
عدة	-2748
عون	-2749
عين	-2750
فاف	-2751
فيد	-2752
قاد	-2753
قرة	-2754
قشة	-2755
قًا	-2756
كال	-2757
كتر	-2758
كرر	-2759
كيد	-2760
لاة	-2761
لقى	-2762
ليس	-2763
ليه	-2764
مات	-2765
متع	-2766
ناة	-2767
ندق	-2768
نسي	-2769
نون	-2770
نيا	-2771
هاء	-2772
هذا	-2773
هرت	-2774
هلك	-2775
هيم	-2776
وام	-2777
وته	-2778
ورا	-2779
وره	-2780
وسع	-2781
وسي	-2782
وطن	-2783
ولت	-2784
ويق	-2785
ويم	-2786
ياط	-2787
يته	-2788
يضا	-2789
يكل	-2790
يكي	-2791
يمن	-2792
ينَ	-2793
يوم	-2794
▁".	-2795
▁%0	-2796
▁).	-2797
▁**	-2798
▁..	-2799
▁/7	-2800
▁0.	-2801
▁11	-2802
▁16	-2803
▁17	-2804
▁3.	-2805
▁36	-2806
▁On	-2807
▁Pl	-2808
▁Sh	-2809
▁Th	-2810
▁Tr	-2811
▁ac	-2812
▁co	-2813
▁eu	-2814
▁il	-2815
▁ol	-2816
▁ov	-2817
▁pd	-2818
▁ph	-2819
▁sh	-2820
▁un	-2821
▁us	-2822
▁؟!	-2823
▁؟؟	-2824
▁آن	-2825
▁أز	-2826
▁أض	-2827
▁أط	-2828
▁إس	-2829
▁إع	-2830
▁اذ	-2831
▁بب	-2832
▁بخ	-2833
▁تث	-2834
▁جب	-2835
▁جس	-2836
▁حا	-2837
▁حن	-2838
▁خز	-2839
▁خس	-2840
▁خش	-2841
▁ذا	-2842
▁رع	-2843
▁زع	-2844
▁سط	-2845
▁سق	-2846
▁سه	-2847
▁شئ	-2848
▁شم	-2849
▁صر	-2850
▁طر	-2851
▁طق	-2852
▁طن	-2853
▁طو	-2854
▁طي	-2855
▁عة	-2856
▁عج	-2857
▁عُ	-2858
▁عْ	-2859
▁غض	-2860
▁غي	-2861
▁فِ	-2862
▁قة	-2863
▁قف	-2864
▁قُ	-2865
▁كأ	-2866
▁لذ	-2867
▁لض	-2868
▁لو	-2869
▁مأ	-2870
▁مُ	-2871
▁نط	-2872
▁نع	-2873
▁هز	-2874
▁هش	-2875
▁هو	-2876
▁يث	-2877
▁يَ	-2878
▁ِر	-2879
▁ّة	-2880
▁ْر	-2881
abic	-2882
book	-2883
load	-2884
ment	-2885
ower	-2886
ابلة	-2887
اجات	-2888
احات	-2889
اصمة	-2890
اعية	-2891
الجة	-2892
امرة	-2893
اهمة	-2894
بعاد	-2895
تمكن	-2896
جارة	-2897
جتمع	-2898
جهات	-2899
جهود	-2900
حقيق	-2901
حميل	-2902
خفاض	-2903
خفيف	-2904
دريب	-2905
درية	-2906
ديقة	-2907
راقي	-2908
راكز	-2909
رامة	-2910
رامج	-2911
ربات	-2912
ربعة	-2913
رسال	-2914
رقية	-2915
ريبي	-2916
ريعة	-2917
ريقي	-2918
زالة	-2919
زمات	-2920
سبوك	-2921
ستاذ	-2922
سجيل	-2923
سعار	-2924
سماء	-2925
شرات	-2926
صميم	-2927
طنين	-2928
عرفة	-2929
عودة	-2930
غلاق	-2931
فاءة	-2932
فادة	-2933
فقات	-2934
قديم	-2935
قرار	-2936
قيات	-2937
قييم	-2938
كتور	-2939
كومة	-2940
لاسي	-2941
ليزي	-2942
ماذا	-2943
ماكن	-2944
نائي	-2945
ندات	-2946
نظام	-2947
نظيف	-2948
نفيذ	-2949
نمية	-2950
نيوم	-2951
هيئة	-2952
وائد	-2953
وحيد	-2954
ودها	-2955
وركس	-2956
وقات	-2957
ولون	-2958
ولين	-2959
يجاد	-2960
يراد	-2961
▁!!!	-2962
▁-20	-2963
▁/20	-2964
▁144	-2965
▁ach	-2966
▁com	-2967
▁man	-2968
▁our	-2969
▁out	-2970
▁per	-2971
▁wit	-2972
▁آلة	-2973
▁أرد	-2974
▁ألف	-2975
▁أهل	-2976
▁ارك	-2977
▁اسب	-2978
▁الّ	-2979
▁امي	-2980
▁انع	-2981
▁انق	-2982
▁اهد	-2983
▁اوب	-2984
▁باب	-2985
▁باط	-2986
▁باه	-2987
▁بحث	-2988
▁بشر	-2989
▁بمج	-2990
▁بوا	-2991
▁بور	-2992
▁بول	-2993
▁بيض	-2994
▁تتح	-2995
▁تخت	-2996
▁ترب	-2997
▁تصف	-2998
▁تفت	-2999
▁تقت	-3000
▁تلف	-3001
▁تمث	-3002
▁تمه	-3003
▁توص	-3004
▁ثان	-3005
▁جاز	-3006
▁جدا	-3007
▁جري	-3008
▁جمع	-3009
▁جنا	-3010
▁جنب	-3011
▁جور	-3012
▁حبي	-3013
▁حصل	-3014
▁حوا	-3015
▁خام	-3016
▁خري	-3017
▁خصص	-3018
▁دبي	-3019
▁دفع	-3020
▁دون	-3021
▁ديك	-3022
▁راء	-3023
▁راض	-3024
▁ربي	-3025
▁رحم	-3026
▁روح	-3027
▁روم	-3028
▁رون	-3029
▁زام	-3030
▁زين	-3031
▁سات	-3032
▁سلم	-3033
▁سود	-3034
▁سيب	-3035
▁سيط	-3036
▁سيم	-3037
▁شار	-3038
▁شرك	-3039
▁شعر	-3040
▁شكل	-3041
▁شهر	-3042
▁شيئ	-3043
▁صنا	-3044
▁طاح	-3045
▁طار	-3046
▁طرح	-3047
▁طوي	-3048
▁عات	-3049
▁عرف	-3050
▁عقل	-3051
▁غان	-3052
▁فات	-3053
▁فقد	-3054
▁فيك	-3055
▁قار	-3056
▁قام	-3057
▁قدر	-3058
▁قلب	-3059
▁قلي	-3060
▁كتب	-3061
▁كرب	-3062
▁كند	-3063
▁كول	-3064
▁كون	-3065
▁لاز	-3066
▁لاس	-3067
▁لتأ	-3068
▁لذي	-3069
▁لسط	-3070
▁لعم	-3071
▁لقي	-3072
▁للب	-3073
▁للث	-3074
▁لله	-3075
▁لما	-3076
▁لمت	-3077
▁لمش	-3078
▁لمص	-3079
▁لمط	-3080
▁لمع	-3081
▁لمم	-3082
▁لمن	-3083
▁لند	-3084
▁لوم	-3085
▁لون	-3086
▁ليب	-3087
▁مات	-3088
▁ماج	-3089
▁ماز	-3090
▁ماع	-3091
▁متأ	-3092
▁متح	-3093
▁متك	-3094
▁مجد	-3095
▁محد	-3096
▁مدا	-3097
▁مرح	-3098
▁مرس	-3099
▁مسئ	-3100
▁مشد	-3101
▁مقب	-3102
▁ملا	-3103
▁ملح	-3104
▁منز	-3105
▁منس	-3106
▁منه	-3107
▁مهم	-3108
▁مور	-3109
▁موز	-3110
▁مير	-3111
▁ميل	-3112
▁ناب	-3113
▁نات	-3114
▁ناج	-3115
▁ناف	-3116
▁نام	-3117
▁نان	-3118
▁نست	-3119
▁نمو	-3120
▁نوا	-3121
▁نين	-3122
▁هما	-3123
▁وأن	-3124
▁وإن	-3125
▁وبح	-3126
▁وبع	-3127
▁وبي	-3128
▁وجد	-3129
▁ودي	-3130
▁وصف	-3131
▁وقر	-3132
▁ومس	-3133
▁ومش	-3134
▁ونا	-3135
▁ووس	-3136
▁وية	-3137
▁ويح	-3138
▁ويد	-3139
▁وير	-3140
▁ويس	-3141
▁ويع	-3142
▁ياط	-3143
▁يتح	-3144
▁يحي	-3145
▁يقت	-3146
▁يوف	-3147
▁يون	-3148
ادرات	-3149
اركات	-3150
املات	-3151
بيعات	-3152
بيقات	-3153
حافظة	-3154
ختيار	-3155
خدمات	-3156
راءات	-3157
راجعة	-3158
راقبة	-3159
راقية	-3160
ريبية	-3161
سكرية	-3162
صالات	-3163
عودية	-3164
كانية	-3165
كتابة	-3166
كتوبر	-3167
هورية	-3168
▁2014	-3169
▁2015	-3170
▁2022	-3171
▁quot	-3172
▁أمام	-3173
▁أمري	-3174
▁أمير	-3175
▁إبرا	-3176
▁إليه	-3177
▁استئ	-3178
▁استخ	-3179
▁الأب	-3180
▁الأر	-3181
▁الإب	-3182
▁الإد	-3183
▁الائ	-3184
▁الاث	-3185
▁الاض	-3186
▁الاف	-3187
▁الاه	-3188
▁البت	-3189
▁التغ	-3190
▁الته	-3191
▁الجغ	-3192
▁الخز	-3193
▁الدع	-3194
▁الرأ	-3195
▁الزب	-3196
▁الزه	-3197
▁الزي	-3198
▁السن	-3199
▁الضع	-3200
▁العج	-3201
▁العص	-3202
▁الكب	-3203
▁اللق	-3204
▁المُ	-3205
▁النت	-3206
▁الهج	-3207
▁الهد	-3208
▁الود	-3209
▁الوض	-3210
▁الوك	-3211
▁انته	-3212
▁باست	-3213
▁باعت	-3214
▁بالب	-3215
▁بالح	-3216
▁بالس	-3217
▁بالن	-3218
▁بذلك	-3219
▁بلاد	-3220
▁بلوم	-3221
▁بنفس	-3222
▁تجاه	-3223
▁تصاد	-3224
▁تقلي	-3225
▁تمام	-3226
▁ثلاث	-3227
▁جنيه	-3228
▁حاول	-3229
▁خاصة	-3230
▁داخل	-3231
▁صلاح	-3232
▁عنها	-3233
▁غالب	-3234
▁فران	-3235
▁قريب	-3236
▁كثير	-3237
▁للتأ	-3238
▁للمر	-3239
▁للمن	-3240
▁لمست	-3241
▁مارس	-3242
▁مركز	-3243
▁مصنع	-3244
▁مضيف	-3245
▁معنا	-3246
▁مفاج	-3247
▁مكاف	-3248
▁ممار	-3249
▁موضح	-3250
▁موقف	-3251
▁نشاط	-3252
▁نفسه	-3253
▁نقطة	-3254
▁نيوز	-3255
▁نيوي	-3256
▁واعت	-3257
▁والر	-3258
▁واله	-3259
▁وقال	-3260
▁ولات	-3261
▁ولوج	-3262
▁يجعل	-3263
▁يعرف	-3264
▁يقدم	-3265
ارتفاع	-3266
برنامج	-3267
تماعية	-3268
جراءات	-3269
سلامية	-3270
عدادات	-3271
علومات	-3272
كندرية	-3273
ولايات	-3274
▁crush	-3275
▁https	-3276
▁أعمال	-3277
▁إليها	-3278
▁الأسط	-3279
▁الألم	-3280
▁الأنب	-3281
▁الارد	-3282
▁الانس	-3283
▁البرت	-3284
▁البرو	-3285
▁البشر	-3286
▁البيت	-3287
▁الترج	-3288
▁الثان	-3289
▁الجسم	-3290
▁الزوج	-3291
▁السعر	-3292
▁الشعب	-3293
▁العرب	-3294
▁العين	-3295
▁الفائ	-3296
▁الفاع	-3297
▁الفرا	-3298
▁القائ	-3299
▁القدم	-3300
▁اللات	-3301
▁اللاج	-3302
▁المال	-3303
▁المثل	-3304
▁المحد	-3305
▁المخد	-3306
▁المرض	-3307
▁المسئ	-3308
▁المسي	-3309
▁المفر	-3310
▁المكت	-3311
▁المنص	-3312
▁الموت	-3313
▁المور	-3314
▁الميد	-3315
▁الميل	-3316
▁النات	-3317
▁الناس	-3318
▁الوجه	-3319
▁الوسط	-3320
▁الوطن	-3321
▁الوقت	-3322
▁الياب	-3323
▁بالات	-3324
▁تحميل	-3325
▁تركيا	-3326
▁تصميم	-3327
▁تقريب	-3328
▁خدمات	-3329
▁راتيج	-3330
▁سنوات	-3331
▁عالية	-3332
▁فيديو	-3333
▁كبيرة	-3334
▁ملاحظ	-3335
▁واحدة	-3336
▁والات	-3337
▁والاج	-3338
▁والبح	-3339
▁والثق	-3340
▁والسل	-3341
▁والمت	-3342
▁والمس	-3343
▁والمش	-3344
▁والمص	-3345
▁وبالت	-3346
▁وخصوص	-3347
▁يحتاج	-3348
راتيجية	-3349
▁YouTub	-3350
▁أوروبا	-3351
▁احتجاج	-3352
▁الأخرى	-3353
▁الأربع	-3354
▁البريط	-3355
▁البلاد	-3356
▁التشري	-3357
▁الجزائ	-3358
▁الحالي	-3359
▁الحياة	-3360
▁الخاصة	-3361
▁الدولة	-3362
▁الدولي	-3363
▁السلام	-3364
▁الشركة	-3365
▁العامة	-3366
▁القطاع	-3367
▁الكويت	-3368
▁الماضي	-3369
▁المزيد	-3370
▁المصري	-3371
▁المنتج	-3372
▁المنزل	-3373
▁النبات	-3374
▁ــــــ	-3375
▁للغاية	-3376
▁مباشرة	-3377
▁مختلفة	-3378
▁وغيرها	-3379
سرائيلية	-3380
يمقراطية	-3381
▁إلكترون	-3382
▁الآخرين	-3383
▁الأخيرة	-3384
▁الإنسان	-3385
▁البحرين	-3386
▁التداول	-3387
▁التنظيم	-3388
▁الجزائر	-3389
▁الدولية	-3390
▁العالمي	-3391
▁الماضية	-3392
▁المالية	-3393
▁المجتمع	-3394
▁المدينة	-3395
▁المقبلة	-3396
▁المنطقة	-3397
▁الإمارات	-3398
▁العالمية	-3399
▁المختلفة	-3400
▁الإلكتروني	-3401
3,	-3402
ap	-3403
ec	-3404
ft	-3405
gn	-3406
me	-3407
py	-3408
td	-3409
إن	-3410
ئل	-3411
اؤ	-3412
اظ	-3413
تش	-3414
جع	-3415
حل	-3416
ذل	-3417
سى	-3418
صح	-3419
ضل	-3420
طى	-3421
عَ	-3422
فف	-3423
فى	-3424
قش	-3425
لط	-3426
لْ	-3427
مث	-3428
مد	-3429
مم	-3430
مُ	-3431
نَ	-3432
وْ	-3433
يذ	-3434
َل	-3435
ّد	-3436
ّن	-3437
ّى	-3438
▁<	-3439
▁\	-3440
▁x	-3441
▁·	-3442
▁ٌ	-3443
▁ٍ	-3444
▁٣	-3445
▁٥	-3446
▁٬	-3447
▁ک	-3448
▁—	-3449
▁•	-3450
▁←	-3451
---	-3452
aba	-3453
ber	-3454
chn	-3455
deo	-3456
ern	-3457
est	-3458
ght	-3459
ish	-3460
one	-3461
ont	-3462
ort	-3463
oup	-3464
tic	-3465
أنا	-3466
ؤكد	-3467
ؤية	-3468
اءة	-3469
ائب	-3470
ائص	-3471
ابر	-3472
ابس	-3473
احن	-3474
ادن	-3475
اسب	-3476
اشر	-3477
اصر	-3478
اضر	-3479
اطة	-3480
اكن	-3481
الش	-3482
اله	-3483
اور	-3484
باس	-3485
بدء	-3486
بدو	-3487
برى	-3488
بعض	-3489
بهة	-3490
بوت	-3491
بيا	-3492
بيل	-3493
ثوذ	-3494
جاح	-3495
جيع	-3496
حاق	-3497
حدى	-3498
خال	-3499
خام	-3500
خلي	-3501
داة	-3502
درس	-3503
ذاب	-3504
رجع	-3505
رجو	-3506
رفض	-3507
روق	-3508
روي	-3509
ريح	-3510
زاب	-3511
زون	-3512
ساد	-3513
سيت	-3514
شاب	-3515
شاط	-3516
شفت	-3517
شفى	-3518
شيا	-3519
صلح	-3520
صيل	-3521
ضغط	-3522
ضير	-3523
ضيع	-3524
طرا	-3525
طنة	-3526
عاب	-3527
عنى	-3528
غرق	-3529
غوط	-3530
غية	-3531
فعة	-3532
فوظ	-3533
قاً	-3534
قته	-3535
قلة	-3536
قيب	-3537
كمل	-3538
كير	-3539
كين	-3540
لفل	-3541
لول	-3542
ليك	-3543
ماش	-3544
ماع	-3545
ملت	-3546
ميس	-3547
ناس	-3548
ناك	-3549
نتم	-3550
ندس	-3551
ندي	-3552
نسا	-3553
نوب	-3554
نيف	-3555
هية	-3556
وجب	-3557
ورك	-3558
وسف	-3559
وصى	-3560
وصي	-3561
وعي	-3562
وقة	-3563
ونَ	-3564
ويا	-3565
ويج	-3566
يدر	-3567
يرا	-3568
يغة	-3569
يقة	-3570
يمه	-3571
َّا	-3572
ُوا	-3573
٠٠٠	-3574
▁(9	-3575
▁/3	-3576
▁/4	-3577
▁00	-3578
▁01	-3579
▁22	-3580
▁26	-3581
▁27	-3582
▁28	-3583
▁29	-3584
▁30	-3585
▁4.	-3586
▁44	-3587
▁:-	-3588
▁AM	-3589
▁AP	-3590
▁Ad	-3591
▁Am	-3592
▁CO	-3593
▁GM	-3594
▁IS	-3595
▁Ju	-3596
▁Mo	-3597
▁No	-3598
▁Sa	-3599
▁St	-3600
▁Su	-3601
▁Te	-3602
▁Un	-3603
▁ai	-3604
▁ap	-3605
▁av	-3606
▁be	-3607
▁ch	-3608
▁cl	-3609
▁du	-3610
▁ed	-3611
▁ha	-3612
▁he	-3613
▁ht	-3614
▁iP	-3615
▁ia	-3616
▁ib	-3617
▁ip	-3618
▁ir	-3619
▁iv	-3620
▁iz	-3621
▁mp	-3622
▁od	-3623
▁sp	-3624
▁su	-3625
▁uf	-3626
▁ul	-3627
▁wa	-3628
▁we	-3629
▁،،	-3630
▁أظ	-3631
▁إت	-3632
▁إذ	-3633
▁او	-3634
▁بة	-3635
▁بض	-3636
▁بُ	-3637
▁تو	-3638
▁ثُ	-3639
▁جث	-3640
▁جر	-3641
▁جع	-3642
▁جو	-3643
▁حب	-3644
▁حذ	-3645
▁حَ	-3646
▁خَ	-3647
▁دب	-3648
▁دت	-3649
▁دخ	-3650
▁دق	-3651
▁ده	-3652
▁دى	-3653
▁رز	-3654
▁رط	-3655
▁زب	-3656
▁زل	-3657
▁سر	-3658
▁سع	-3659
▁سُ	-3660
▁شج	-3661
▁شَ	-3662
▁صع	-3663
▁صم	-3664
▁ضد	-3665
▁طا	-3666
▁ظل	-3667
▁عث	-3668
▁عف	-3669
▁عِ	-3670
▁غا	-3671
▁غز	-3672
▁فح	-3673
▁فز	-3674
▁فو	-3675
▁فى	-3676
▁قذ	-3677
▁قم	-3678
▁قِ	-3679
▁كَ	-3680
▁لآ	-3681
▁لث	-3682
▁لظ	-3683
▁لى	-3684
▁مئ	-3685
▁مذ	-3686
▁نة	-3687
▁نك	-3688
▁نم	-3689
▁نو	-3690
▁نَ	-3691
▁هب	-3692
▁هر	-3693
▁هَ	-3694
▁وو	-3695
▁ُر	-3696
ghai	-3697
isor	-3698
lass	-3699
otel	-3700
أنها	-3701
ؤسسة	-3702
ؤلاء	-3703
ئاسة	-3704
اءات	-3705
ائحة	-3706
ائزة	-3707
ابية	-3708
ابير	-3709
احية	-3710
ادثة	-3711
اديث	-3712
ارضة	-3713
ارنة	-3714
ارير	-3715
اضرة	-3716
اكات	-3717
اكمة	-3718
الحة	-3719
الما	-3720
اليب	-3721
امية	-3722
اوية	-3723
بحاث	-3724
بداع	-3725
بديل	-3726
برات	-3727
بلاد	-3728
بلوم	-3729
تزاز	-3730
تلاف	-3731
تمثل	-3732
تمنى	-3733
ثبيت	-3734
حكام	-3735
خزين	-3736
خطيط	-3737
داعش	-3738
داية	-3739
ديثة	-3740
دينا	-3741
راقب	-3742
راكة	-3743
رتها	-3744
رتيب	-3745
رجات	-3746
رجال	-3747
رجان	-3748
ردية	-3749
رفين	-3750
رفيه	-3751
رقام	-3752
ركان	-3753
رونة	-3754
رويج	-3755
ريضة	-3756
سارة	-3757
ستير	-3758
سلات	-3759
شارك	-3760
شرطة	-3761
صابة	-3762
صدير	-3763
صفات	-3764
صلحة	-3765
صلية	-3766
صنيع	-3767
ضمام	-3768
طراب	-3769
طلاب	-3770
طلاع	-3771
طلقت	-3772
عبير	-3773
عداء	-3774
عدام	-3775
عددة	-3776
عديد	-3777
علنت	-3778
علوم	-3779
عملة	-3780
غطية	-3781
غلال	-3782
غلقة	-3783
فتاء	-3784
فسية	-3785
فسير	-3786
فعيل	-3787
فيين	-3788
قامة	-3789
قدير	-3790
كرية	-3791
كسير	-3792
كمال	-3793
لمات	-3794
لندا	-3795
ليمي	-3796
مارس	-3797
متاع	-3798
مرار	-3799
مراض	-3800
مرين	-3801
مسين	-3802
مكان	-3803
ملية	-3804
ميات	-3805
ناصر	-3806
نبول	-3807
نجاح	-3808
ندوق	-3809
نسان	-3810
نسبة	-3811
نقلة	-3812
نوعة	-3813
نيات	-3814
وائح	-3815
وائل	-3816
وائي	-3817
وابط	-3818
واتف	-3819
واعد	-3820
وامل	-3821
وانة	-3822
وحات	-3823
وسطة	-3824
وسيع	-3825
وصول	-3826
وضاع	-3827
وظبي	-3828
وعات	-3829
وفير	-3830
وقعة	-3831
ولها	-3832
ويتر	-3833
يبيد	-3834
يداع	-3835
يداً	-3836
يراً	-3837
يريا	-3838
يرية	-3839
يزيا	-3840
يسيا	-3841
يفور	-3842
يكان	-3843
َّمَ	-3844
▁/14	-3845
▁196	-3846
▁197	-3847
▁250	-3848
▁Ali	-3849
▁App	-3850
▁Com	-3851
▁Dur	-3852
▁Int	-3853
▁all	-3854
▁enc	-3855
▁ent	-3856
▁ers	-3857
▁ets	-3858
▁her	-3859
▁ind	-3860
▁int	-3861
▁ion	-3862
▁ore	-3863
▁ote	-3864
▁oth	-3865
▁own	-3866
▁pdf	-3867
▁pic	-3868
▁ran	-3869
▁use	-3870
▁wor	-3871
▁www	-3872
▁؟؟؟	-3873
▁أبد	-3874
▁أجن	-3875
▁أخذ	-3876
▁أخط	-3877
▁أرض	-3878
▁أسط	-3879
▁أكد	-3880
▁أما	-3881
▁أمر	-3882
▁أمل	-3883
▁أنف	-3884
▁أنه	-3885
▁أني	-3886
▁أوب	-3887
▁أوس	-3888
▁أون	-3889
▁إجم	-3890
▁إست	-3891
▁إلى	-3892
▁إنش	-3893
▁إير	-3894
▁إيط	-3895
▁ااا	-3896
▁ارد	-3897
▁ارض	-3898
▁اعد	-3899
▁افظ	-3900
▁اكس	-3901
▁الة	-3902
▁اما	-3903
▁امل	-3904
▁امن	-3905
▁انا	-3906
▁اور	-3907
▁اون	-3908
▁باس	-3909
▁باف	-3910
▁باك	-3911
▁ببط	-3912
▁بتش	-3913
▁بتك	-3914
▁بته	-3915
▁بخط	-3916
▁بدع	-3917
▁بدل	-3918
▁برز	-3919
▁بزي	-3920
▁بفت	-3921
▁بقد	-3922
▁بقي	-3923
▁بكل	-3924
▁بمر	-3925
▁بمس	-3926
▁بنت	-3927
▁بند	-3928
▁بني	-3929
▁بوك	-3930
▁بيد	-3931
▁بيه	-3932
▁تأس	-3933
▁تام	-3934
▁تتأ	-3935
▁تجم	-3936
▁تحذ	-3937
▁ترم	-3938
▁تري	-3939
▁تسي	-3940
▁تشت	-3941
▁تضم	-3942
▁تعا	-3943
▁تعد	-3944
▁تقل	-3945
▁تقي	-3946
▁تمن	-3947
▁تنش	-3948
▁تهم	-3949
▁توا	-3950
▁تول	-3951
▁تيم	-3952
▁جاء	-3953
▁جهة	-3954
▁جوا	-3955
▁جوز	-3956
▁جون	-3957
▁جيج	-3958
▁جير	-3959
▁جيم	-3960
▁حاف	-3961
▁حام	-3962
▁حجم	-3963
▁حدد	-3964
▁حسب	-3965
▁حسن	-3966
▁حضر	-3967
▁حقق	-3968
▁حكا	-3969
▁حكم	-3970
▁حما	-3971
▁حيث	-3972
▁خات	-3973
▁خوا	-3974
▁خوف	-3975
▁داد	-3976
▁داف	-3977
▁دخل	-3978
▁دست	-3979
▁دعم	-3980
▁دوا	-3981
▁ديف	-3982
▁راب	-3983
▁راح	-3984
▁راص	-3985
▁راق	-3986
▁ربة	-3987
▁ربح	-3988
▁ربع	-3989
▁رسم	-3990
▁رقم	-3991
▁رمض	-3992
▁روب	-3993
▁روج	-3994
▁ريت	-3995
▁ريد	-3996
▁رين	-3997
▁زال	-3998
▁زيت	-3999
▁زيد	-4000
▁زيم	-4001
▁ساخ	-4002
▁ساد	-4003
▁سبب	-4004
▁سبح	-4005
▁ستق	-4006
▁سحق	-4007
▁سكا	-4008
▁سمي	-4009
▁سيج	-4010
▁سير	-4011
▁سيس	-4012
▁سيع	-4013
▁سيك	-4014
▁سيل	-4015
▁شام	-4016
▁شوف	-4017
▁شيء	-4018
▁شير	-4019
▁صلة	-4020
▁صنع	-4021
▁صوت	-4022
▁صور	-4023
▁ضرب	-4024
▁ضمن	-4025
▁ضيف	-4026
▁طمئ	-4027
▁عاج	-4028
▁عاص	-4029
▁عان	-4030
▁عدة	-4031
▁عدم	-4032
▁عرّ	-4033
▁عمي	-4034
▁عود	-4035
▁غال	-4036
▁غام	-4037
▁غزة	-4038
▁غني	-4039
▁ـــ	-4040
▁فائ	-4041
▁فاز	-4042
▁فاق	-4043
▁فان	-4044
▁فرا	-4045
▁فسي	-4046
▁فضل	-4047
▁فعل	-4048
▁فلت	-4049
▁فهم	-4050
▁فوز	-4051
▁فيت	-4052
▁فير	-4053
▁فيز	-4054
▁فيل	-4055
▁قاب	-4056
▁قطر	-4057
▁قلت	-4058
▁قول	-4059
▁قوم	-4060
▁قيا	-4061
▁قيق	-4062
▁قيل	-4063
▁كاب	-4064
▁كاز	-4065
▁كرا	-4066
▁كرت	-4067
▁كرك	-4068
▁كرو	-4069
▁كله	-4070
▁كوب	-4071
▁كوت	-4072
▁كور	-4073
▁كوف	-4074
▁كوك	-4075
▁كير	-4076
▁كين	-4077
▁لاج	-4078
▁لاق	-4079
▁لبن	-4080
▁لبي	-4081
▁لتع	-4082
▁لتق	-4083
▁لحق	-4084
▁لقب	-4085
▁لكس	-4086
▁للذ	-4087
▁للز	-4088
▁لمج	-4089
▁لمخ	-4090
▁لمف	-4091
▁لمك	-4092
▁لمل	-4093
▁لمه	-4094
▁لنا	-4095
▁لوا	-4096
▁لوز	-4097
▁لوس	-4098
▁ليا	-4099
▁ليس	-4100
▁ليك	-4101
▁ليل	-4102
▁لين	-4103
▁مأس	-4104
▁مؤخ	-4105
▁مئة	-4106
▁مبر	-4107
▁متس	-4108
▁متط	-4109
▁مجه	-4110
▁مخد	-4111
▁مخل	-4112
▁مدي	-4113
▁مذه	-4114
▁مرة	-4115
▁مرد	-4116
▁مرض	-4117
▁مرف	-4118
▁مشت	-4119
▁مشك	-4120
▁مطل	-4121
▁معق	-4122
▁مقا	-4123
▁مكث	-4124
▁مكن	-4125
▁ملت	-4126
▁ملع	-4127
▁ملم	-4128
▁ممث	-4129
▁ممد	-4130
▁ممل	-4131
▁ممن	-4132
▁منح	-4133
▁منص	-4134
▁موب	-4135
▁موت	-4136
▁موث	-4137
▁مول	-4138
▁موم	-4139
▁موه	-4140
▁ناع	-4141
▁ناه	-4142
▁نسب	-4143
▁نشر	-4144
▁نصر	-4145
▁نعم	-4146
▁نفذ	-4147
▁نون	-4148
▁نية	-4149
▁نيك	-4150
▁هاد	-4151
▁هار	-4152
▁هام	-4153
▁هذه	-4154
▁هرب	-4155
▁هند	-4156
▁هوت	-4157
▁هول	-4158
▁هون	-4159
▁هيد	-4160
▁هيك	-4161
▁وأش	-4162
▁وأص	-4163
▁وأع	-4164
▁واب	-4165
▁واص	-4166
▁واع	-4167
▁وبا	-4168
▁وبه	-4169
▁وثق	-4170
▁وحي	-4171
▁ورب	-4172
▁ورد	-4173
▁ورس	-4174
▁وزي	-4175
▁وست	-4176
▁وشر	-4177
▁وطن	-4178
▁وعب	-4179
▁وعد	-4180
▁وفر	-4181
▁وقي	-4182
▁وكر	-4183
▁ولل	-4184
▁ولم	-4185
▁ومص	-4186
▁ومط	-4187
▁ومه	-4188
▁ونس	-4189
▁وها	-4190
▁وهي	-4191
▁ويف	-4192
▁ويق	-4193
▁ويل	-4194
▁ويم	-4195
▁يتص	-4196
▁يتك	-4197
▁يخت	-4198
▁يرا	-4199
▁يسي	-4200
▁يكت	-4201
▁يلت	-4202
▁يوح	-4203
▁يور	-4204
▁٢٠١	-4205
ction	-4206
inery	-4207
ؤسسات	-4208
املين	-4209
انيين	-4210
اولات	-4211
باراة	-4212
بيوتر	-4213
تماعي	-4214
حيانا	-4215
ذائية	-4216
رافية	-4217
روبات	-4218
روسوف	-4219
ريحات	-4220
ريقية	-4221
ستخدم	-4222
صدقاء	-4223
غيرات	-4224
هابات	-4225
وانين	-4226
وريوس	-4227
ولاية	-4228
وماسي	-4229
ينيين	-4230
▁2010	-4231
▁2013	-4232
▁____	-4233
▁rush	-4234
▁آسيا	-4235
▁أخبر	-4236
▁أراد	-4237
▁أساس	-4238
▁أشهر	-4239
▁أعلا	-4240
▁أنفس	-4241
▁أيام	-4242
▁إرها	-4243
▁إضاف	-4244
▁إِلَ	-4245
▁ابنت	-4246
▁اتها	-4247
▁احتف	-4248
▁احتم	-4249
▁استث	-4250
▁الأض	-4251
▁الأط	-4252
▁الإت	-4253
▁الإط	-4254
▁الاب	-4255
▁البخ	-4256
▁البش	-4257
▁البص	-4258
▁البق	-4259
▁التض	-4260
▁التل	-4261
▁الحر	-4262
▁الحي	-4263
▁الخت	-4264
▁الخي	-4265
▁الده	-4266
▁الرش	-4267
▁الرط	-4268
▁السط	-4269
▁السع	-4270
▁الشت	-4271
▁الشف	-4272
▁الشك	-4273
▁الصد	-4274
▁الصع	-4275
▁الضر	-4276
▁الضو	-4277
▁الطع	-4278
▁الطف	-4279
▁الطل	-4280
▁العف	-4281
▁الغس	-4282
▁الفا	-4283
▁الفج	-4284
▁الفن	-4285
▁الفي	-4286
▁القل	-4287
▁الكث	-4288
▁اللذ	-4289
▁اللس	-4290
▁اللط	-4291
▁المأ	-4292
▁المئ	-4293
▁الما	-4294
▁النخ	-4295
▁النع	-4296
▁النه	-4297
▁النو	-4298
▁الهي	-4299
▁الوب	-4300
▁الوث	-4301
▁الوح	-4302
▁الوي	-4303
▁اليس	-4304
▁امتح	-4305
▁امري	-4306
▁باخت	-4307
▁بالج	-4308
▁بالر	-4309
▁بالص	-4310
▁بانت	-4311
▁بمست	-4312
▁بناء	-4313
▁بيان	-4314
▁تابع	-4315
▁تجرب	-4316
▁تجعل	-4317
▁تحدث	-4318
▁تحمل	-4319
▁تشهد	-4320
▁تعرف	-4321
▁تقدم	-4322
▁جيدة	-4323
▁حساب	-4324
▁حقوق	-4325
▁خارج	-4326
▁خصيص	-4327
▁رياض	-4328
▁ريال	-4329
▁زيار	-4330
▁ستان	-4331
▁سعيد	-4332
▁سليم	-4333
▁شارك	-4334
▁شاهد	-4335
▁شيوع	-4336
▁صحيح	-4337
▁صلات	-4338
▁طريق	-4339
▁طلاق	-4340
▁عادة	-4341
▁عاما	-4342
▁علاج	-4343
▁علام	-4344
▁غرام	-4345
▁فقال	-4346
▁قدمت	-4347
▁قلوب	-4348
▁كتاب	-4349
▁كذلك	-4350
▁كلام	-4351
▁كلين	-4352
▁كهرب	-4353
▁لاحظ	-4354
▁لانت	-4355
▁لذلك	-4356
▁لكون	-4357
▁للاج	-4358
▁للجم	-4359
▁للصح	-4360
▁للمت	-4361
▁للوق	-4362
▁لموا	-4363
▁لموس	-4364
▁لنفس	-4365
▁ليون	-4366
▁مايو	-4367
▁مترج	-4368
▁متنا	-4369
▁متهم	-4370
▁مجان	-4371
▁محمد	-4372
▁مذكر	-4373
▁مرات	-4374
▁مساء	-4375
▁مضاع	-4376
▁معتب	-4377
▁معظم	-4378
▁مكون	-4379
▁ممثل	-4380
▁مميز	-4381
▁منزل	-4382
▁مولا	-4383
▁ميلي	-4384
▁نهائ	-4385
▁وأيض	-4386
▁واجه	-4387
▁وارد	-4388
▁واصل	-4389
▁واضح	-4390
▁واقت	-4391
▁والآ	-4392
▁والب	-4393
▁والل	-4394
▁وبعض	-4395
▁وبين	-4396
▁وترك	-4397
▁وجود	-4398
▁وكان	-4399
▁ولدي	-4400
▁ومست	-4401
▁ومنا	-4402
▁ووجد	-4403
▁ووصل	-4404
▁ووضع	-4405
▁ويلي	-4406
▁وينت	-4407
▁يتنا	-4408
▁يريد	-4409
▁يعيش	-4410
▁يقوم	-4411
▁يكون	-4412
cebook	-4413
ipment	-4414
اديمية	-4415
سبتمبر	-4416
طرابات	-4417
ظاهرات	-4418
علانات	-4419
مساعدة	-4420
يبيديا	-4421
يجابية	-4422
▁Hotel	-4423
▁ation	-4424
▁inter	-4425
▁produ	-4426
▁prote	-4427
▁أبنائ	-4428
▁أحيان	-4429
▁أصحاب	-4430
▁أموال	-4431
▁أهداف	-4432
▁إعلام	-4433
▁إمكان	-4434
▁إنتاج	-4435
▁اتباع	-4436
▁الآسي	-4437
▁الأكس	-4438
▁الألب	-4439
▁الأمر	-4440
▁الأند	-4441
▁الأهل	-4442
▁الإجم	-4443
▁الإسب	-4444
▁الإقت	-4445
▁الإله	-4446
▁الإيط	-4447
▁الارت	-4448
▁الانج	-4449
▁الاند	-4450
▁الاور	-4451
▁الاير	-4452
▁الايط	-4453
▁الباط	-4454
▁الباك	-4455
▁البرم	-4456
▁البيض	-4457
▁التاس	-4458
▁التبر	-4459
▁الترا	-4460
▁الترب	-4461
▁التعا	-4462
▁التفا	-4463
▁التوص	-4464
▁التوق	-4465
▁التون	-4466
▁الجان	-4467
▁الجاه	-4468
▁الخام	-4469
▁الخرس	-4470
▁الخلف	-4471
▁الدكت	-4472
▁الدور	-4473
▁الذات	-4474
▁الراج	-4475
▁الروا	-4476
▁الزرا	-4477
▁الساخ	-4478
▁الساد	-4479
▁السرط	-4480
▁السوف	-4481
▁الشري	-4482
▁الشعر	-4483
▁الشمس	-4484
▁الشهر	-4485
▁الشيخ	-4486
▁الشيع	-4487
▁الصاب	-4488
▁الصحي	-4489
▁الصهي	-4490
▁الصوت	-4491
▁الطاز	-4492
▁العائ	-4493
▁العاج	-4494
▁العاط	-4495
▁العمي	-4496
▁الفار	-4497
▁الفحم	-4498
▁القيا	-4499
▁الكام	-4500
▁الكرب	-4501
▁الكري	-4502
▁الليل	-4503
▁الليم	-4504
▁الماء	-4505
▁الماك	-4506
▁المبت	-4507
▁المبد	-4508
▁المخل	-4509
▁المدف	-4510
▁المذه	-4511
▁المرا	-4512
▁المرح	-4513
▁المرش	-4514
▁المري	-4515
▁المطب	-4516
▁المطل	-4517
▁المعم	-4518
▁المفض	-4519
▁المفق	-4520
▁المقا	-4521
▁المقت	-4522
▁الملت	-4523
▁الممل	-4524
▁الممن	-4525
▁المنظ	-4526
▁الموز	-4527
▁الموض	-4528
▁المول	-4529
▁المون	-4530
▁الميز	-4531
▁المين	-4532
▁الناش	-4533
▁النفط	-4534
▁النقد	-4535
▁النوا	-4536
▁الهاش	-4537
▁الهرم	-4538
▁الهول	-4539
▁الوات	-4540
▁الواق	-4541
▁اليمن	-4542
▁اليور	-4543
▁الَّذ	-4544
▁انتها	-4545
▁بأكمل	-4546
▁بالمن	-4547
▁بداخل	-4548
▁تأثير	-4549
▁تجاوز	-4550
▁تحتاج	-4551
▁تحديث	-4552
▁تحديد	-4553
▁تداول	-4554
▁تدريج	-4555
▁تطبيق	-4556
▁تعالى	-4557
▁روسيا	-4558
▁زيارة	-4559
▁صغيرة	-4560
▁طويلة	-4561
▁قالوا	-4562
▁قانون	-4563
▁قَالَ	-4564
▁كريست	-4565
▁كيلوم	-4566
▁كيميا	-4567
▁للموا	-4568
▁مجموع	-4569
▁مخروط	-4570
▁مملكة	-4571
▁موريت	-4572
▁وأضاف	-4573
▁والأد	-4574
▁والأف	-4575
▁والبي	-4576
▁والتأ	-4577
▁والتح	-4578
▁والتق	-4579
▁والمد	-4580
▁والمل	-4581
▁والمه	-4582
▁والوق	-4583
▁يناير	-4584
▁يواجه	-4585
▁يوليو	-4586
itation	-4587
▁......	-4588
▁ارتفاع	-4589
▁اعتبار	-4590
▁اعتماد	-4591
▁الأسهم	-4592
▁الاستع	-4593
▁الاسته	-4594
▁الامري	-4595
▁الامير	-4596
▁الباحث	-4597
▁البطاط	-4598
▁التالي	-4599
▁التفاع	-4600
▁الثالث	-4601
▁الجاري	-4602
▁الخصوص	-4603
▁الخليج	-4604
▁الداخل	-4605
▁الساعة	-4606
▁السوري	-4607
▁السويس	-4608
▁السيلي	-4609
▁الشباب	-4610
▁الشريف	-4611
▁العلاج	-4612
▁الفريق	-4613
▁القادم	-4614
▁الكثير	-4615
▁الكهرب	-4616
▁الكونغ	-4617
▁اللاعب	-4618
▁اللقاء	-4619
▁المجال	-4620
▁المجتم	-4621
▁المحلي	-4622
▁المخاط	-4623
▁المركز	-4624
▁المسرح	-4625
▁المشار	-4626
▁المعلم	-4627
▁المعيش	-4628
▁المفاج	-4629
▁المقيم	-4630
▁المكاف	-4631
▁المكان	-4632
▁المكون	-4633
▁الممثل	-4634
▁المميز	-4635
▁المياه	-4636
▁النظام	-4637
▁الوطني	-4638
▁انطلاق	-4639
▁برنامج	-4640
▁ديسمبر	-4641
▁سبتمبر	-4642
▁فبراير	-4643
▁مجانية	-4644
▁مشاركت	-4645
▁منتجات	-4646
▁نوفمبر	-4647
▁والابت	-4648
▁والاقت	-4649
▁وتحديد	-4650
▁يستخدم	-4651
▁YouTube	-4652
▁ألمانيا	-4653
▁الأخبار	-4654
▁الأرجنت	-4655
▁الأسبوع	-4656
▁الأسعار	-4657
▁الإطلاق	-4658
▁الإمكان	-4659
▁الاشترا	-4660
▁الاصطنا	-4661
▁الاعلام	-4662
▁التالية	-4663
▁التجارة	-4664
▁التعليم	-4665
▁التوالي	-4666
▁الثانية	-4667
▁السابقة	-4668
▁السودان	-4669
▁السياسي	-4670
▁الصغيرة	-4671
▁العراقي	-4672
▁العسكري	-4673
▁العملاء	-4674
▁الفرنسي	-4675
▁الفوركس	-4676
▁القادمة	-4677
▁القاهرة	-4678
▁الكلاسي	-4679
▁الكيميا	-4680
▁المحافظ	-4681
▁المخروط	-4682
▁المستجد	-4683
▁المستوط	-4684
▁المصرية	-4685
▁المنافس	-4686
▁باعتبار	-4687
▁........	-4688
▁WhatsApp	-4689
▁استراتيج	-4690
▁الأجنبية	-4691
▁الأمريكي	-4692
▁الأميركي	-4693
▁الأوروبي	-4694
▁الانتخاب	-4695
▁التجارية	-4696
▁المستثمر	-4697
▁الاجتماعي	-4698
▁الالكترون	-4699
▁التكنولوج	-4700
▁الفلسطيني	-4701
▁المعلومات	-4702
▁ويكيبيديا	-4703
▁الإسرائيلي	-4704
▁الاستراتيج	-4705
▁الديموقراط	-4706
▁الإلكترونية	-4707
==	-4708
ID	-4709
ak	-4710
co	-4711
dd	-4712
ff	-4713
ia	-4714
id	-4715
ly	-4716
ml	-4717
oc	-4718
pg	-4719
ri	-4720
ru	-4721
so	-4722
su	-4723
ug	-4724
xy	-4725
أغ	-4726
أي	-4727
إِ	-4728
ئت	-4729
ئذ	-4730
ئك	-4731
بْ	-4732
تع	-4733
تى	-4734
جأ	-4735
حر	-4736
حط	-4737
دأ	-4738
ذى	-4739
رأ	-4740
رخ	-4741
زر	-4742
زز	-4743
سع	-4744
سو	-4745
شي	-4746
ضى	-4747
طئ	-4748
ظى	-4749
غر	-4750
ـ"	-4751
ـ«	-4752
قص	-4753
قض	-4754
قف	-4755
كه	-4756
لث	-4757
لد	-4758
نف	-4759
هب	-4760
وخ	-4761
يخ	-4762
يَ	-4763
▁$	-4764
▁&	-4765
▁;	-4766
▁X	-4767
▁Z	-4768
▁^	-4769
▁_	-4770
▁q	-4771
▁~	-4772
▁©	-4773
▁°	-4774
▁×	-4775
▁à	-4776
▁é	-4777
▁٠	-4778
▁٤	-4779
▁٦	-4780
▁٧	-4781
▁٨	-4782
▁٩	-4783
▁٪	-4784
▁٫	-4785
▁ٱ	-4786
▁پ	-4787
▁گ	-4788
▁–	-4789
▁‪	-4790
▁‫	-4791
▁′	-4792
▁›	-4793
▁↑	-4794
▁→	-4795
▁■	-4796
▁●	-4797
▁【	-4798
▁﴾	-4799
▁﴿	-4800
all	-4801
are	-4802
art	-4803
eri	-4804
gle	-4805
ies	-4806
ink	-4807
net	-4808
own	-4809
ram	-4810
ألة	-4811
ؤدي	-4812
ئاب	-4813
ئمة	-4814
ئون	-4815
ائح	-4816
ائك	-4817
ابخ	-4818
ابد	-4819
اجز	-4820
احب	-4821
ادم	-4822
ادى	-4823
ارى	-4824
اكا	-4825
الخ	-4826
الر	-4827
الط	-4828
الْ	-4829
امه	-4830
اوي	-4831
ايت	-4832
باح	-4833
بحت	-4834
بلس	-4835
بنك	-4836
بها	-4837
بيب	-4838
ثور	-4839
جان	-4840
جري	-4841
جلت	-4842
جمة	-4843
حاء	-4844
حاس	-4845
حوق	-4846
حيل	-4847
خصة	-4848
خمة	-4849
خور	-4850
خين	-4851
داب	-4852
داي	-4853
دعي	-4854
دوز	-4855
ديب	-4856
ذات	-4857
ذيب	-4858
ذَا	-4859
راص	-4860
رال	-4861
رتا	-4862
زلة	-4863
زوج	-4864
ساس	-4865
سون	-4866
سيم	-4867
شطة	-4868
صاب	-4869
صام	-4870
ضال	-4871
طقي	-4872
ظات	-4873
عاف	-4874
عدى	-4875
غرة	-4876
غطي	-4877
غوب	-4878
فسة	-4879
فقة	-4880
فلي	-4881
فير	-4882
قدة	-4883
قلم	-4884
قوق	-4885
قيد	-4886
كاء	-4887
كاب	-4888
كام	-4889
كبر	-4890
كرا	-4891
كمة	-4892
كور	-4893
كوم	-4894
كيم	-4895
لاص	-4896
لاغ	-4897
لتا	-4898
لقب	-4899
اجد	-4900
اوف	-4901
باه	-4902
حته	-4903
شرت	-4904
طوي	-4905
كره	-4906
ليح	-4907
لين	-4908
ماج	-4909
ماح	-4910
ماط	-4911
ماغ	-4912
ماك	-4913
مثل	-4914
مرة	-4915
مرت	-4916
مسة	-4917
ممة	-4918
مون	-4919
ميذ	-4920
مير	-4921
ميك	-4922
مَا	-4923
ناط	-4924
هان	-4925
هلة	-4926
هوم	-4927
وكة	-4928
وند	-4929
ياز	-4930
يبة	-4931
يره	-4932
يسى	-4933
يفا	-4934
يفي	-4935
ينو	-4936
▁"،	-4937
▁%.	-4938
▁((	-4939
▁(2	-4940
▁(3	-4941
▁(4	-4942
▁(5	-4943
▁(6	-4944
▁(7	-4945
▁(8	-4946
▁([	-4947
▁--	-4948
▁."	-4949
▁//	-4950
▁/2	-4951
▁04	-4952
▁1)	-4953
▁1,	-4954
▁1-	-4955
▁13	-4956
▁1]	-4957
▁1،	-4958
▁2)	-4959
▁23	-4960
▁3,	-4961
▁31	-4962
▁32	-4963
▁34	-4964
▁35	-4965
▁40	-4966
▁47	-4967
▁48	-4968
▁5,	-4969
▁50	-4970
▁55	-4971
▁57	-4972
▁60	-4973
▁62	-4974
▁65	-4975
▁73	-4976
▁78	-4977
▁79	-4978
▁83	-4979
▁88	-4980
▁89	-4981
▁9,	-4982
▁92	-4983
▁96	-4984
▁:"	-4985
▁::	-4986
▁>>	-4987
▁AC	-4988
▁AD	-4989
▁AL	-4990
▁AR	-4991
▁AS	-4992
▁Ab	-4993
▁CN	-4994
▁HD	-4995
▁IN	-4996
▁IP	-4997
▁Po	-4998
▁SS	-4999
zon	-5000
اطي	-5001
ثاق	-5002
حصل	-5003
رجه	-5004
صلى	-5005
كذا	-5006
منى	-5007
وضى	-5008
يحة	-5009
▁38	-5010
▁Sn	-5011
▁TV	-5012
▁af	-5013
▁ak	-5014
▁aw	-5015
▁ay	-5016
▁bo	-5017
▁by	-5018
▁ce	-5019
▁ec	-5020
▁ee	-5021
▁ew	-5022
▁fl	-5023
▁ie	-5024
▁ig	-5025
▁im	-5026
▁li	-5027
▁me	-5028
▁oc	-5029
▁oh	-5030
▁op	-5031
▁os	-5032
▁pc	-5033
▁pm	-5034
▁sc	-5035
▁آت	-5036
▁أة	-5037
▁أذ	-5038
▁أى	-5039
▁أُ	-5040
▁ؤْ	-5041
▁إز	-5042
▁إض	-5043
▁إط	-5044
▁إك	-5045
▁إي	-5046
▁ئة	-5047
▁اأ	-5048
▁اؤ	-5049
▁اة	-5050
▁اظ	-5051
▁اى	-5052
▁اُ	-5053
▁بز	-5054
▁بى	-5055
▁بْ	-5056
▁تذ	-5057
▁تَ	-5058
▁ثر	-5059
▁ثَ	-5060
▁جا	-5061
▁جة	-5062
▁جذ	-5063
▁جَ	-5064
▁جُ	-5065
▁حة	-5066
▁حث	-5067
▁حط	-5068
▁حُ	-5069
▁حِ	-5070
▁خا	-5071
▁خذ	-5072
▁خر	-5073
▁خض	-5074
▁خف	-5075
▁خُ	-5076
▁دد	-5077
▁دن	-5078
▁دَ	-5079
▁دُ	-5080
▁ذب	-5081
▁ذر	-5082
▁ذي	-5083
▁ذَ	-5084
▁رخ	-5085
▁رص	-5086
▁ره	-5087
▁رو	-5088
▁رى	-5089
▁رُ	-5090
▁رِ	-5091
▁رّ	-5092
▁زة	-5093
▁زر	-5094
▁زه	-5095
▁سأ	-5096
▁سة	-5097
▁سخ	-5098
▁سد	-5099
ran	-5100
ازة	-5101
ازي	-5102
سمح	-5103
طلب	-5104
قتة	-5105
وتش	-5106
يتي	-5107
▁سى	-5108
▁سَ	-5109
▁سِ	-5110
▁سْ	-5111
▁شأ	-5112
▁شة	-5113
▁شح	-5114
▁شد	-5115
▁شط	-5116
▁شق	-5117
▁شو	-5118
▁شى	-5119
▁صى	-5120
▁صي	-5121
▁صَ	-5122
▁ضا	-5123
▁ضب	-5124
▁ضة	-5125
▁ضو	-5126
▁طه	-5127
▁طَ	-5128
▁ظة	-5129
▁ظه	-5130
▁عر	-5131
▁عز	-5132
▁عس	-5133
▁عظ	-5134
▁غب	-5135
▁غد	-5136
▁غر	-5137
▁غط	-5138
▁غن	-5139
▁غو	-5140
▁غَ	-5141
▁فب	-5142
▁فة	-5143
▁فخ	-5144
▁فد	-5145
▁فش	-5146
▁فط	-5147
▁فظ	-5148
▁فف	-5149
▁فُ	-5150
▁قا	-5151
▁قس	-5152
▁قن	-5153
▁قه	-5154
▁كة	-5155
▁كد	-5156
▁كش	-5157
▁كع	-5158
▁كف	-5159
▁كق	-5160
▁كه	-5161
▁كِ	-5162
▁لئ	-5163
▁لُ	-5164
▁لّ	-5165
▁مآ	-5166
▁نأ	-5167
▁نخ	-5168
▁نر	-5169
▁نغ	-5170
▁نى	-5171
▁نُ	-5172
▁نِ	-5173
▁هت	-5174
▁هض	-5175
▁هل	-5176
▁هى	-5177
▁وء	-5178
▁وة	-5179
▁وى	-5180
▁وُ	-5181
▁وْ	-5182
▁يظ	-5183
▁يو	-5184
baba	-5185
form	-5186
ئيسي	-5187
ائعة	-5188
ابيب	-5189
ابيع	-5190
ابين	-5191
ادقة	-5192
اديق	-5193
ادين	-5194
ارقة	-5195
اسبة	-5196
اضعة	-5197
اطعة	-5198
اعدت	-5199
erv	-5200
زنة	-5201
عمق	-5202
فتر	-5203
فيز	-5204
فيض	-5205
لقا	-5206
يكو	-5207
▁53	-5208
▁Ac	-5209
▁Ap	-5210
▁pe	-5211
اشات	-5212
اعيل	-5213
افحة	-5214
الثة	-5215
المة	-5216
اليف	-5217
اميم	-5218
انيت	-5219
اهير	-5220
اهيم	-5221
ايير	-5222
بقاء	-5223
بيعة	-5224
تمدة	-5225
تملة	-5226
جازة	-5227
جاوز	-5228
جمات	-5229
جمال	-5230
حتوي	-5231
خراج	-5232
دايا	-5233
دمان	-5234
ديال	-5235
ذاكر	-5236
رائط	-5237
رائم	-5238
رادة	-5239
رافي	-5240
رامب	-5241
رباح	-5242
رجاع	-5243
رشاد	-5244
رشيف	-5245
رفات	-5246
رفية	-5247
ركين	-5248
روحة	-5249
روري	-5250
روفة	-5251
ساءة	-5252
سبات	-5253
ستيك	-5254
سلحة	-5255
سموح	-5256
سواق	-5257
سيطة	-5258
سيوم	-5259
شارت	-5260
شيرة	-5261
ضاءة	-5262
طعمة	-5263
طيات	-5264
ظمات	-5265
عربي	-5266
عروف	-5267
علقة	-5268
غياب	-5269
فاوت	-5270
فتاح	-5271
فسار	-5272
فعال	-5273
قالة	-5274
قدام	-5275
قدمة	-5276
قلاب	-5277
قلال	-5278
قيبة	-5279
قيقي	-5280
كرار	-5281
كررة	-5282
كرون	-5283
كنية	-5284
لاعب	-5285
لاين	-5286
لسات	-5287
لسلة	-5288
لفاء	-5289
لقات	-5290
لياف	-5291
ليمة	-5292
ماذج	-5293
مارك	-5294
مايو	-5295
ملون	-5296
مييز	-5297
ندما	-5298
نساء	-5299
ite	-5300
ust	-5301
سطة	-5302
ـــ	-5303
موح	-5304
يجب	-5305
▁2,	-5306
▁2-	-5307
▁21	-5308
▁2،	-5309
▁3)	-5310
▁33	-5311
▁37	-5312
▁39	-5313
▁3،	-5314
▁ST	-5315
▁up	-5316
▁آب	-5317
▁آل	-5318
▁ظم	-5319
▁ظن	-5320
▁ّا	-5321
اريو	-5322
اطئة	-5323
البا	-5324
الله	-5325
بارك	-5326
خبات	-5327
دران	-5328
دمير	-5329
راوح	-5330
كيلة	-5331
لكات	-5332
نهام	-5333
نياه	-5334
نيسة	-5335
همال	-5336
هههه	-5337
هورة	-5338
هولة	-5339
واحل	-5340
وادث	-5341
وارئ	-5342
وارز	-5343
وارع	-5344
واكه	-5345
والب	-5346
وراق	-5347
ورها	-5348
وضحت	-5349
وضية	-5350
وظيف	-5351
وفرة	-5352
وكول	-5353
وماً	-5354
وميت	-5355
ياطة	-5356
ياطي	-5357
ياكل	-5358
يرًا	-5359
ينات	-5360
▁/10	-5361
▁10.	-5362
▁120	-5363
▁130	-5364
▁300	-5365
▁800	-5366
▁900	-5367
▁:00	-5368
▁Aug	-5369
▁Bit	-5370
▁Gal	-5371
▁Off	-5372
▁Ret	-5373
▁The	-5374
▁age	-5375
▁ain	-5376
▁and	-5377
▁app	-5378
▁ard	-5379
▁are	-5380
▁ark	-5381
▁ase	-5382
▁ate	-5383
▁att	-5384
▁con	-5385
▁ine	-5386
▁its	-5387
▁jpg	-5388
▁lik	-5389
▁mar	-5390
▁oin	-5391
▁ous	-5392
▁ple	-5393
▁rag	-5394
▁rie	-5395
▁tph	-5396
▁you	-5397
▁آمن	-5398
▁آمَ	-5399
أسف	-5400
اشق	-5401
بكة	-5402
خلو	-5403
رقم	-5404
يوخ	-5405
يوش	-5406
▁8,	-5407
▁8.	-5408
▁80	-5409
▁81	-5410
▁84	-5411
▁85	-5412
▁86	-5413
▁87	-5414
▁91	-5415
▁Bl	-5416
▁Cl	-5417
▁Sp	-5418
▁TM	-5419
▁sa	-5420
▁se	-5421
▁si	-5422
▁sm	-5423
▁ئِ	-5424
الفة	-5425
تراك	-5426
جابة	-5427
ذائي	-5428
رائب	-5429
رائح	-5430
عيين	-5431
كشاف	-5432
لسفة	-5433
يطان	-5434
ِينَ	-5435
▁Pro	-5436
▁min	-5437
▁أثر	-5438
▁أجر	-5439
▁أخت	-5440
▁أخص	-5441
▁أرج	-5442
▁أرق	-5443
▁أست	-5444
▁أسف	-5445
▁أطب	-5446
▁أكر	-5447
▁ألب	-5448
▁ألك	-5449
▁أمب	-5450
▁أمت	-5451
▁أمث	-5452
▁أمس	-5453
▁أمي	-5454
▁أنا	-5455
▁أنب	-5456
▁أند	-5457
▁أنط	-5458
▁أنغ	-5459
▁أنق	-5460
▁أنّ	-5461
▁أهم	-5462
▁أوا	-5463
▁أوق	-5464
▁أيق	-5465
▁أين	-5466
▁إذا	-5467
▁إسب	-5468
▁إسم	-5469
▁إلا	-5470
▁إله	-5471
▁إنت	-5472
▁إنق	-5473
▁إيا	-5474
▁إيق	-5475
▁ئية	-5476
▁ائه	-5477
▁ائي	-5478
▁ابة	-5479
▁ابح	-5480
▁ابط	-5481
▁ابل	-5482
▁ابن	-5483
▁ابي	-5484
▁اتس	-5485
▁اجت	-5486
▁اجل	-5487
▁احب	-5488
▁احث	-5489
▁اخذ	-5490
▁اخر	-5491
▁ادى	-5492
▁ادي	-5493
▁اذا	-5494
▁ارة	-5495
▁ارف	-5496
▁ازي	-5497
▁اصل	-5498
▁اعة	-5499
تهي	-5500
شكل	-5501
عاة	-5502
▁4,	-5503
▁41	-5504
▁42	-5505
▁43	-5506
▁45	-5507
▁46	-5508
▁49	-5509
▁5.	-5510
▁51	-5511
▁52	-5512
▁54	-5513
▁56	-5514
▁58	-5515
▁59	-5516
▁9-	-5517
▁9.	-5518
▁90	-5519
▁93	-5520
▁94	-5521
▁95	-5522
▁97	-5523
▁98	-5524
▁99	-5525
▁PM	-5526
▁PS	-5527
▁Ph	-5528
▁de	-5529
ؤتمر	-5530
بطال	-5531
دامة	-5532
قليم	-5533
نوان	-5534
وانب	-5535
▁400	-5536
▁500	-5537
▁les	-5538
▁pan	-5539
▁أكس	-5540
▁إنس	-5541
▁اثر	-5542
▁ادث	-5543
▁افة	-5544
▁افر	-5545
▁افي	-5546
▁اقل	-5547
▁اكل	-5548
▁الى	-5549
▁انب	-5550
▁انج	-5551
▁انط	-5552
▁انف	-5553
▁انك	-5554
▁انه	-5555
▁انو	-5556
▁اهل	-5557
▁اهم	-5558
▁اوا	-5559
▁اوت	-5560
▁اوس	-5561
▁اوف	-5562
▁اوي	-5563
▁ايا	-5564
▁اية	-5565
▁ايد	-5566
▁اير	-5567
▁ايس	-5568
▁ايض	-5569
▁ايف	-5570
▁ايق	-5571
▁اين	-5572
▁بإد	-5573
▁باح	-5574
▁باد	-5575
▁باش	-5576
▁باع	-5577
▁باق	-5578
▁بام	-5579
▁باي	-5580
▁بتج	-5581
▁بتح	-5582
▁بتس	-5583
▁بتع	-5584
▁بتق	-5585
▁بتن	-5586
▁بحت	-5587
▁بحي	-5588
▁بخص	-5589
▁بدأ	-5590
▁بدم	-5591
▁بدي	-5592
▁برت	-5593
▁برج	-5594
▁برس	-5595
▁برف	-5596
▁برك	-5597
▁برى	-5598
▁بسر	-5599
out	-5600
طلح	-5601
▁))	-5602
▁6,	-5603
▁6.	-5604
▁61	-5605
▁63	-5606
▁64	-5607
▁66	-5608
▁67	-5609
▁68	-5610
▁69	-5611
▁7,	-5612
▁7.	-5613
▁70	-5614
▁71	-5615
▁72	-5616
▁74	-5617
▁75	-5618
▁76	-5619
▁77	-5620
▁ID	-5621
▁MT	-5622
▁ِن	-5623
المع	-5624
خدمي	-5625
راجة	-5626
رسوم	-5627
طرقة	-5628
طلبة	-5629
فاية	-5630
كييف	-5631
وانئ	-5632
▁600	-5633
▁Min	-5634
▁res	-5635
▁und	-5636
▁أرس	-5637
▁ارس	-5638
▁بسط	-5639
▁بصد	-5640
▁بطل	-5641
▁بعث	-5642
▁بقى	-5643
▁بلد	-5644
▁بلغ	-5645
▁بلو	-5646
▁بلي	-5647
▁بمت	-5648
▁بمث	-5649
▁بمح	-5650
▁بمف	-5651
▁بنا	-5652
▁بهد	-5653
▁بهم	-5654
▁بوب	-5655
▁بود	-5656
▁بوز	-5657
▁بوص	-5658
▁بوم	-5659
▁بون	-5660
▁بيا	-5661
▁بيب	-5662
▁بية	-5663
▁بيس	-5664
▁بيك	-5665
▁بيل	-5666
▁تاب	-5667
▁تاج	-5668
▁تبر	-5669
▁تبع	-5670
▁تبي	-5671
▁تتص	-5672
▁تتك	-5673
▁تتم	-5674
▁تجد	-5675
▁تجس	-5676
▁تجن	-5677
▁تحط	-5678
▁تحق	-5679
▁تخص	-5680
▁تدا	-5681
▁ترج	-5682
▁ترش	-5683
▁تزي	-5684
▁تسب	-5685
▁تسع	-5686
▁تطل	-5687
▁تعب	-5688
▁تعط	-5689
▁تعل	-5690
▁تفا	-5691
▁تكت	-5692
▁تكس	-5693
▁تلت	-5694
▁تما	-5695
▁تمد	-5696
▁تمر	-5697
▁تمس	-5698
▁تمك	-5699
رمى	-5700
كاة	-5701
نطن	-5702
▁''	-5703
▁):	-5704
▁la	-5705
▁te	-5706
▁wh	-5707
9%84	-5708
اعدك	-5709
اناة	-5710
حقاق	-5711
زامن	-5712
ظرون	-5713
هيار	-5714
وائز	-5715
▁Man	-5716
▁ext	-5717
▁أحب	-5718
▁بإن	-5719
▁بقض	-5720
▁بنغ	-5721
▁تخط	-5722
▁تند	-5723
▁تنز	-5724
▁تنص	-5725
▁تنق	-5726
▁تهي	-5727
▁توت	-5728
▁تور	-5729
▁توض	-5730
▁توك	-5731
▁توم	-5732
▁تون	-5733
▁توي	-5734
▁تيب	-5735
▁تير	-5736
▁تيك	-5737
▁ثبت	-5738
▁ثور	-5739
▁جاب	-5740
▁جاد	-5741
▁جار	-5742
▁جاك	-5743
▁جال	-5744
▁جبر	-5745
▁جدة	-5746
▁جرا	-5747
▁جرت	-5748
▁جزي	-5749
▁جسم	-5750
▁جلت	-5751
▁جما	-5752
▁جمي	-5753
▁جها	-5754
▁جوم	-5755
▁جيب	-5756
▁جيل	-5757
▁جين	-5758
▁حات	-5759
▁حاد	-5760
▁حار	-5761
▁حاز	-5762
▁حان	-5763
▁حبة	-5764
▁حجر	-5765
▁حدة	-5766
▁حرا	-5767
▁حرك	-5768
▁حرم	-5769
▁حري	-5770
▁حزب	-5771
▁حفظ	-5772
▁حول	-5773
▁حية	-5774
▁خار	-5775
▁خال	-5776
▁خان	-5777
▁خبر	-5778
▁خدم	-5779
▁خدي	-5780
▁خرة	-5781
▁خرس	-5782
▁خطط	-5783
▁خفض	-5784
▁خلق	-5785
▁خلل	-5786
▁خور	-5787
▁خير	-5788
▁داء	-5789
▁دار	-5790
▁داق	-5791
▁دام	-5792
▁دان	-5793
▁داً	-5794
▁درو	-5795
▁ديا	-5796
▁ديب	-5797
▁ديد	-5798
▁دير	-5799
ary	-5800
ear	-5801
wit	-5802
طبق	-5803
ووو	-5804
▁)،	-5805
▁Ex	-5806
▁To	-5807
▁ba	-5808
▁bl	-5809
▁ؤل	-5810
arch	-5811
وائر	-5812
وائم	-5813
▁ail	-5814
▁ast	-5815
▁اسط	-5816
▁ايط	-5817
▁باغ	-5818
▁ديز	-5819
▁ديس	-5820
▁ديل	-5821
▁ديم	-5822
▁ديو	-5823
▁ذاك	-5824
▁ذرة	-5825
▁ذوق	-5826
▁ذية	-5827
▁راث	-5828
▁راز	-5829
▁راس	-5830
▁راع	-5831
▁راك	-5832
▁رام	-5833
▁راي	-5834
▁راً	-5835
▁ربط	-5836
▁ربه	-5837
▁رجع	-5838
▁رجل	-5839
▁رحي	-5840
▁ردة	-5841
▁رشد	-5842
▁رصد	-5843
▁رفع	-5844
▁ركة	-5845
▁روت	-5846
▁روي	-5847
▁ريا	-5848
▁ريب	-5849
▁ريج	-5850
▁ريح	-5851
▁ريس	-5852
▁ريط	-5853
▁ريف	-5854
▁ريق	-5855
▁ريل	-5856
▁زاب	-5857
▁زار	-5858
▁زرا	-5859
▁زعم	-5860
▁زلت	-5861
▁ساء	-5862
▁ساب	-5863
▁ساح	-5864
▁سار	-5865
▁ساس	-5866
▁ساع	-5867
▁سال	-5868
▁سان	-5869
▁سبع	-5870
▁سبق	-5871
▁سبي	-5872
▁ستا	-5873
▁ستج	-5874
▁ستر	-5875
▁ستن	-5876
▁ستي	-5877
▁سري	-5878
▁سعة	-5879
▁سكر	-5880
▁سلا	-5881
▁سلب	-5882
▁سلة	-5883
▁سما	-5884
▁سمة	-5885
▁سمع	-5886
▁سوا	-5887
▁سور	-5888
▁سوق	-5889
▁سول	-5890
▁سوم	-5891
▁سون	-5892
▁سية	-5893
▁سيخ	-5894
▁سيق	-5895
▁شاء	-5896
▁شاب	-5897
▁شات	-5898
▁شاح	-5899
ile	-5900
ous	-5901
أتي	-5902
▁to	-5903
▁yp	-5904
▁؟.	-5905
logy	-5906
براط	-5907
خفضة	-5908
روضة	-5909
عومة	-5910
فصال	-5911
كاوى	-5912
ليني	-5913
نسيق	-5914
واقف	-5915
وجهة	-5916
ويتي	-5917
▁Mic	-5918
▁ade	-5919
▁des	-5920
▁est	-5921
▁off	-5922
▁ver	-5923
▁أغل	-5924
▁حتي	-5925
▁ركز	-5926
▁شاف	-5927
▁شان	-5928
▁شاه	-5929
▁شتن	-5930
▁شدد	-5931
▁شرح	-5932
▁شرف	-5933
▁شفت	-5934
▁شفى	-5935
▁شفي	-5936
▁شمل	-5937
▁شوا	-5938
▁شور	-5939
▁شوط	-5940
▁شوق	-5941
▁شيخ	-5942
▁شين	-5943
▁صاب	-5944
▁صاف	-5945
▁صال	-5946
▁صان	-5947
▁صبح	-5948
▁صحي	-5949
▁صدر	-5950
▁صدي	-5951
▁صرف	-5952
▁صفر	-5953
▁صلي	-5954
▁صيد	-5955
▁ضاع	-5956
▁ضبط	-5957
▁ضجة	-5958
▁ضرر	-5959
▁ضعف	-5960
▁ضيق	-5961
▁طاع	-5962
▁طاق	-5963
▁طال	-5964
▁طبع	-5965
▁طرد	-5966
▁طرق	-5967
▁طلا	-5968
▁طلق	-5969
▁طهر	-5970
▁طوا	-5971
▁طور	-5972
▁طوط	-5973
▁طول	-5974
▁طيب	-5975
▁طين	-5976
▁ظلم	-5977
▁ظهر	-5978
▁ظيم	-5979
▁عاد	-5980
▁عار	-5981
▁عاط	-5982
▁عال	-5983
▁عبي	-5984
▁عدت	-5985
▁عدل	-5986
▁عشر	-5987
▁علق	-5988
▁علن	-5989
▁عنا	-5990
▁عهد	-5991
▁عوا	-5992
▁عون	-5993
▁عيب	-5994
▁عية	-5995
▁عيد	-5996
▁عيش	-5997
▁غار	-5998
▁غاف	-5999
بغي	-6000
ييي	-6001
▁gy	-6002
▁nl	-6003
ابتة	-6004
سيقى	-6005
▁act	-6006
▁ang	-6007
▁for	-6008
▁get	-6009
▁ire	-6010
▁ord	-6011
▁ترى	-6012
▁تغي	-6013
▁تهن	-6014
▁جرى	-6015
▁جهن	-6016
▁حدّ	-6017
▁حمد	-6018
▁رضي	-6019
▁سقط	-6020
▁سنو	-6021
▁صدق	-6022
▁عاث	-6023
▁غرق	-6024
▁غلب	-6025
▁غلق	-6026
▁غوج	-6027
▁غيب	-6028
▁فئة	-6029
▁فاد	-6030
▁فاط	-6031
▁فاه	-6032
▁فتح	-6033
▁فتر	-6034
▁فرش	-6035
▁فرض	-6036
▁فرع	-6037
▁فرغ	-6038
▁فري	-6039
▁فسر	-6040
▁فضي	-6041
▁فقه	-6042
▁فلا	-6043
▁فلي	-6044
▁فنز	-6045
▁فهر	-6046
▁فوا	-6047
▁فور	-6048
▁فوق	-6049
▁فون	-6050
▁فيا	-6051
▁فيس	-6052
▁فيض	-6053
▁فين	-6054
▁فِي	-6055
▁قات	-6056
▁قاص	-6057
▁قاط	-6058
▁قاف	-6059
▁قبة	-6060
▁قبر	-6061
▁قتل	-6062
▁قرأ	-6063
▁قرر	-6064
▁قري	-6065
▁قسم	-6066
▁قطب	-6067
▁قطع	-6068
▁قلة	-6069
▁قلم	-6070
▁قوا	-6071
▁قوت	-6072
▁قوس	-6073
▁قوق	-6074
▁قيد	-6075
▁كات	-6076
▁كاذ	-6077
▁كاس	-6078
▁كاش	-6079
▁كبر	-6080
▁كبي	-6081
▁كثر	-6082
▁كذا	-6083
▁كرة	-6084
▁كرد	-6085
▁كرم	-6086
▁كره	-6087
▁كسب	-6088
▁كسر	-6089
▁كشف	-6090
▁كلا	-6091
▁كلث	-6092
▁كلم	-6093
▁كما	-6094
▁كنت	-6095
▁كوا	-6096
▁كود	-6097
▁كوس	-6098
▁كوم	-6099
ill	-6100
ive	-6101
ows	-6102
ved	-6103
▁,,	-6104
▁Fa	-6105
▁Fi	-6106
▁Re	-6107
▁١٠	-6108
اتذة	-6109
بادل	-6110
عطاء	-6111
نتخب	-6112
▁150	-6113
▁Ind	-6114
▁Wor	-6115
▁oll	-6116
▁ust	-6117
▁vis	-6118
▁web	-6119
▁أضع	-6120
▁ترط	-6121
▁حرص	-6122
▁رحب	-6123
▁شنغ	-6124
▁كبس	-6125
▁كيا	-6126
▁كية	-6127
▁كيد	-6128
▁كيف	-6129
▁كيك	-6130
▁كيم	-6131
▁لأع	-6132
▁لإن	-6133
▁لاء	-6134
▁لاة	-6135
▁لاد	-6136
▁لاغ	-6137
▁لال	-6138
▁لاي	-6139
▁لاً	-6140
▁لاَ	-6141
▁لبس	-6142
▁لبط	-6143
▁لتر	-6144
▁لتس	-6145
▁لتف	-6146
▁لتك	-6147
▁لتم	-6148
▁لته	-6149
▁لجأ	-6150
▁لجم	-6151
▁لحة	-6152
▁لحم	-6153
▁لرج	-6154
▁لري	-6155
▁لزم	-6156
▁لزي	-6157
▁لست	-6158
▁لسي	-6159
▁لعد	-6160
▁لغة	-6161
▁لفة	-6162
▁لفظ	-6163
▁لقد	-6164
▁لكم	-6165
▁لكي	-6166
▁للر	-6167
▁للو	-6168
▁للي	-6169
▁لمؤ	-6170
▁لمب	-6171
▁لمد	-6172
▁لمر	-6173
▁لمض	-6174
▁لمق	-6175
▁لمو	-6176
▁لمي	-6177
▁لني	-6178
▁لوب	-6179
▁لوت	-6180
▁لوج	-6181
▁لود	-6182
▁لور	-6183
▁لوط	-6184
▁لوف	-6185
▁لوق	-6186
▁لول	-6187
▁ليت	-6188
▁ليج	-6189
▁ليح	-6190
▁ليد	-6191
▁ليص	-6192
▁ليه	-6193
▁لَا	-6194
▁لِي	-6195
▁مأن	-6196
▁ماء	-6197
▁ماد	-6198
▁ماش	-6199
lop	-6200
ree	-6201
▁#1	-6202
▁Vi	-6203
▁].	-6204
▁».	-6205
اكهة	-6206
بالإ	-6207
فصيل	-6208
قرآن	-6209
نهاء	-6210
▁(10	-6211
▁(19	-6212
▁000	-6213
▁Pre	-6214
▁alk	-6215
▁ide	-6216
▁one	-6217
▁pub	-6218
▁أوغ	-6219
▁أَي	-6220
▁ببس	-6221
▁دجن	-6222
▁ذهب	-6223
▁صلى	-6224
▁طلع	-6225
▁ماض	-6226
▁ماط	-6227
▁ماً	-6228
▁مبت	-6229
▁مبد	-6230
▁متد	-6231
▁متر	-6232
▁متع	-6233
▁متم	-6234
▁متن	-6235
▁مته	-6236
▁مثا	-6237
▁محظ	-6238
▁مخر	-6239
▁مخط	-6240
▁مدة	-6241
▁مدف	-6242
▁مذا	-6243
▁مرب	-6244
▁مرج	-6245
▁مزج	-6246
▁مزي	-6247
▁مسك	-6248
▁مصط	-6249
▁مضي	-6250
▁مطب	-6251
▁معج	-6252
▁معه	-6253
▁مفر	-6254
▁مفض	-6255
▁مفع	-6256
▁مفق	-6257
▁مفي	-6258
▁مقط	-6259
▁مقي	-6260
▁مكة	-6261
▁ملأ	-6262
▁ملب	-6263
▁ملص	-6264
▁ملف	-6265
▁ملق	-6266
▁ممر	-6267
▁ممك	-6268
▁ممي	-6269
▁مند	-6270
▁منذ	-6271
▁منع	-6272
▁منف	-6273
▁منى	-6274
▁مني	-6275
▁موح	-6276
▁موص	-6277
▁موط	-6278
▁موع	-6279
▁موف	-6280
▁موق	-6281
▁موك	-6282
▁ميا	-6283
▁مية	-6284
▁ميس	-6285
▁ميش	-6286
▁ميك	-6287
▁مَا	-6288
▁مَن	-6289
▁مِّ	-6290
▁ناح	-6291
▁ناش	-6292
▁نال	-6293
▁نبي	-6294
▁نتج	-6295
▁نتي	-6296
▁نجر	-6297
▁نحن	-6298
▁نعت	-6299
www	-6300
ههه	-6301
▁||	-6302
line	-6303
ألوف	-6304
اواة	-6305
ظهار	-6306
فاضة	-6307
لغاء	-6308
▁And	-6309
▁Jan	-6310
▁حتى	-6311
▁رضى	-6312
▁رغب	-6313
▁ضحك	-6314
▁مِن	-6315
▁نقد	-6316
▁ننت	-6317
▁نوب	-6318
▁نود	-6319
▁نيت	-6320
▁نيج	-6321
▁نيف	-6322
▁هاج	-6323
▁هاش	-6324
▁هان	-6325
▁هاي	-6326
▁هبة	-6327
▁هبط	-6328
▁هدد	-6329
▁هري	-6330
▁هلا	-6331
▁هوا	-6332
▁هوم	-6333
▁هير	-6334
▁هيل	-6335
▁وأخ	-6336
▁وأد	-6337
▁وأس	-6338
▁وأق	-6339
▁واث	-6340
▁واد	-6341
▁واط	-6342
▁وام	-6343
▁واي	-6344
▁وبة	-6345
▁وبر	-6346
▁وبك	-6347
▁وتر	-6348
▁وتط	-6349
▁وتف	-6350
▁وتك	-6351
▁وتن	-6352
▁وته	-6353
▁وجب	-6354
▁وجل	-6355
▁وخت	-6356
▁ودا	-6357
▁ودة	-6358
▁ودع	-6359
▁وذه	-6360
▁ورأ	-6361
▁ورؤ	-6362
▁ورا	-6363
▁ورة	-6364
▁ورج	-6365
▁ورح	-6366
▁ورك	-6367
▁ورو	-6368
▁وزع	-6369
▁وسب	-6370
▁وسط	-6371
▁وسع	-6372
▁وشي	-6373
▁وصح	-6374
▁وضح	-6375
▁وعا	-6376
▁وعة	-6377
▁وعض	-6378
▁وعل	-6379
▁وعي	-6380
▁وفى	-6381
▁وقا	-6382
▁وقع	-6383
▁وقف	-6384
▁وكم	-6385
▁وكن	-6386
▁ولأ	-6387
▁ولة	-6388
▁ولت	-6389
▁ولج	-6390
▁ولد	-6391
▁ولع	-6392
▁ولك	-6393
▁وله	-6394
▁ولو	-6395
▁وما	-6396
▁ومب	-6397
▁ومق	-6398
▁ومك	-6399
-19	-6400
/24	-6401
php	-6402
صفح	-6403
▁+0	-6404
▁”.	-6405
ails	-6406
cted	-6407
دئين	-6408
زايد	-6409
كبوت	-6410
نقاذ	-6411
وغان	-6412
▁Eng	-6413
▁aut	-6414
▁رَب	-6415
▁سرع	-6416
▁ضخم	-6417
▁ومي	-6418
▁ونة	-6419
▁ونج	-6420
▁ونز	-6421
▁ونظ	-6422
▁وهم	-6423
▁وهو	-6424
▁ووا	-6425
▁ووج	-6426
▁ووح	-6427
▁وود	-6428
▁وور	-6429
▁ووص	-6430
▁ووض	-6431
▁ووع	-6432
▁ووق	-6433
▁ووك	-6434
▁وول	-6435
▁ويا	-6436
▁ويب	-6437
▁ويز	-6438
▁ويه	-6439
▁وَس	-6440
▁ياء	-6441
▁ياب	-6442
▁يار	-6443
▁ياف	-6444
▁يال	-6445
▁يتأ	-6446
▁يتر	-6447
▁يتس	-6448
▁يتف	-6449
▁يته	-6450
▁يجب	-6451
▁يجد	-6452
▁يحب	-6453
▁يحد	-6454
▁يدا	-6455
▁يده	-6456
▁يرة	-6457
▁يرج	-6458
▁يزة	-6459
▁يسر	-6460
▁يسى	-6461
▁يشر	-6462
▁يعت	-6463
▁يعط	-6464
▁يفة	-6465
▁يفر	-6466
▁يفس	-6467
▁يقا	-6468
▁يقد	-6469
▁يقل	-6470
▁يقي	-6471
▁يلا	-6472
▁يما	-6473
▁ينة	-6474
▁يند	-6475
▁ينع	-6476
▁يها	-6477
▁يهد	-6478
▁يوب	-6479
▁يوت	-6480
▁يود	-6481
▁يين	-6482
▁يَا	-6483
▁يّة	-6484
▁ًّا	-6485
▁َال	-6486
▁َيْ	-6487
▁ُوا	-6488
▁ِهِ	-6489
▁٢٠٢	-6490
actur	-6491
arket	-6492
iness	-6493
ivers	-6494
visor	-6495
ائلية	-6496
ائيات	-6497
ابعين	-6498
ابقات	-6499
ign	-6500
▁Qu	-6501
lish	-6502
mber	-6503
خيصة	-6504
دوجة	-6505
▁***	-6506
▁GMT	-6507
▁Ltd	-6508
▁udi	-6509
▁فمث	-6510
power	-6511
اؤلات	-6512
ادثات	-6513
اديمي	-6514
اذبية	-6515
اضرات	-6516
اعدات	-6517
افيين	-6518
البات	-6519
الفات	-6520
المات	-6521
امعات	-6522
اميرا	-6523
انسية	-6524
انيوم	-6525
اهدات	-6526
اهدين	-6527
بارات	-6528
باكات	-6529
تمرات	-6530
تويتر	-6531
جاهات	-6532
جزائر	-6533
خباري	-6534
خدمين	-6535
خصصات	-6536
دادات	-6537
رائيل	-6538
راثية	-6539
رارية	-6540
راسات	-6541
راعات	-6542
رامية	-6543
رانيت	-6544
راهيم	-6545
ربعين	-6546
روعات	-6547
روقات	-6548
رياضة	-6549
رينتش	-6550
ستاني	-6551
سلامي	-6552
سيارة	-6553
سيطرة	-6554
سيقية	-6555
شفيات	-6556
صارات	-6557
ضرورة	-6558
طلبات	-6559
طلحات	-6560
علمون	-6561
فاتيح	-6562
فاقية	-6563
فايات	-6564
قاومة	-6565
قيقية	-6566
كريات	-6567
كسارة	-6568
لائمة	-6569
لائنا	-6570
لاحقة	-6571
لاميذ	-6572
لماني	-6573
ناسبة	-6574
ناعات	-6575
نظمات	-6576
واجهة	-6577
واحين	-6578
واريخ	-6579
وظفين	-6580
ونايت	-6581
وهرات	-6582
ويلها	-6583
ياجات	-6584
يجابي	-6585
يدرات	-6586
يمكنك	-6587
يناير	-6588
يوليو	-6589
يونيو	-6590
▁(...	-6591
▁-200	-6592
▁2008	-6593
▁2011	-6594
▁2012	-6595
▁8211	-6596
▁8217	-6597
▁Arch	-6598
▁Comp	-6599
sung	-6600
أغسطس	-6601
راميك	-6602
▁Cont	-6603
▁Copy	-6604
▁Inst	-6605
▁Link	-6606
▁Live	-6607
▁Mach	-6608
▁More	-6609
▁Trip	-6610
▁[...	-6611
▁arab	-6612
▁ator	-6613
▁cook	-6614
▁form	-6615
▁hats	-6616
▁here	-6617
▁html	-6618
▁line	-6619
▁mach	-6620
▁ment	-6621
▁midd	-6622
▁mill	-6623
▁more	-6624
▁news	-6625
▁over	-6626
▁play	-6627
▁quir	-6628
▁read	-6629
▁stru	-6630
▁tern	-6631
▁this	-6632
▁work	-6633
▁year	-6634
▁آذار	-6635
▁آلات	-6636
▁آمَن	-6637
▁أبرز	-6638
▁أبيه	-6639
▁أثبت	-6640
▁أثير	-6641
▁أحمد	-6642
▁أدرك	-6643
▁أدنا	-6644
▁أرسل	-6645
▁أصبح	-6646
▁أصدق	-6647
▁أضاف	-6648
▁أضيف	-6649
▁أطلق	-6650
▁أعرب	-6651
▁أعما	-6652
▁أقيم	-6653
▁أكبر	-6654
▁أنَّ	-6655
▁أوكر	-6656
▁أولا	-6657
▁أيدي	-6658
▁إصاب	-6659
▁إقام	-6660
▁إِلا	-6661
▁إِنْ	-6662
▁ائها	-6663
▁اتخذ	-6664
▁اتهم	-6665
▁احصل	-6666
▁اخرى	-6667
▁اداء	-6668
▁اذهب	-6669
▁اراة	-6670
▁ارات	-6671
▁ارية	-6672
▁استد	-6673
▁استط	-6674
▁استع	-6675
▁استف	-6676
▁اشتر	-6677
▁اقتح	-6678
▁اقدم	-6679
▁اقرأ	-6680
▁الأث	-6681
▁الإح	-6682
▁الإص	-6683
▁الإغ	-6684
▁الاز	-6685
▁الاط	-6686
▁البا	-6687
▁البغ	-6688
▁التت	-6689
▁التر	-6690
▁التو	-6691
▁التي	-6692
▁الثم	-6693
▁الجب	-6694
▁الجي	-6695
▁الحا	-6696
▁الحز	-6697
▁الحش	-6698
▁الحص	-6699
▁الحف	-6700
▁الخد	-6701
▁الدخ	-6702
▁الدق	-6703
▁الدن	-6704
▁الدي	-6705
▁الذي	-6706
▁الرد	-6707
▁الرز	-6708
▁الرض	-6709
▁الرغ	-6710
▁الزم	-6711
▁السر	-6712
▁السك	-6713
▁السو	-6714
▁الشج	-6715
▁الصل	-6716
▁الضح	-6717
▁العذ	-6718
▁العظ	-6719
▁الغز	-6720
▁الفئ	-6721
▁الفح	-6722
▁الفص	-6723
▁الفض	-6724
▁الفط	-6725
▁القذ	-6726
▁القف	-6727
▁القن	-6728
▁الكس	-6729
▁الكف	-6730
▁الكم	-6731
▁الكه	-6732
▁اللب	-6733
▁اللث	-6734
▁اللص	-6735
▁اللع	-6736
▁اللف	-6737
▁اللو	-6738
▁اللى	-6739
▁المآ	-6740
▁المظ	-6741
▁المَ	-6742
▁الند	-6743
▁النك	-6744
▁الني	-6745
▁الهض	-6746
▁الهم	-6747
▁الوع	-6748
▁اليق	-6749
▁اليك	-6750
▁الين	-6751
▁امام	-6752
▁امير	-6753
▁امين	-6754
▁انتق	-6755
▁انها	-6756
▁انية	-6757
▁اهتم	-6758
▁اولا	-6759
▁اوية	-6760
▁بإست	-6761
▁باحث	-6762
▁بارت	-6763
▁بارك	-6764
▁باسم	-6765
▁باقي	-6766
▁بالخ	-6767
▁بالض	-6768
▁بالل	-6769
▁بامت	-6770
▁بتوق	-6771
▁بدون	-6772
▁بذكر	-6773
▁برشل	-6774
▁بروت	-6775
▁بروك	-6776
▁بريد	-6777
▁بريس	-6778
▁بريل	-6779
▁بشار	-6780
▁بشعب	-6781
▁بشكل	-6782
▁بعيد	-6783
▁بقاء	-6784
▁بقلم	-6785
▁بقية	-6786
▁بلاغ	-6787
▁بمقد	-6788
▁بموج	-6789
▁بهدف	-6790
▁بوصف	-6791
▁بوين	-6792
▁بَيْ	-6793
▁تايم	-6794
▁تباع	-6795
▁تتنا	-6796
▁تجار	-6797
▁تحرك	-6798
▁تحلي	-6799
▁تحول	-6800
▁تراب	-6801
▁تراج	-6802
▁تريد	-6803
▁ترين	-6804
▁تزوج	-6805
▁تشار	-6806
▁تغير	-6807
▁تفاع	-6808
▁تقول	-6809
▁تمكن	-6810
▁تميز	-6811
▁تنفي	-6812
▁تنوي	-6813
▁توجه	-6814
▁توري	-6815
▁توصل	-6816
▁تونس	-6817
▁ثالث	-6818
▁ثبات	-6819
▁ثمار	-6820
▁ثمان	-6821
▁جادة	-6822
▁جداً	-6823
▁جدًا	-6824
▁جراء	-6825
▁جرام	-6826
▁جزاء	-6827
▁جعله	-6828
▁جماع	-6829
▁جهات	-6830
▁جهاز	-6831
▁جهته	-6832
▁جهود	-6833
▁جورج	-6834
▁جونس	-6835
▁حالة	-6836
▁حالي	-6837
▁حديد	-6838
▁حسان	-6839
▁حسين	-6840
▁حكام	-6841
▁حكوم	-6842
▁حمام	-6843
▁حيان	-6844
▁خاشق	-6845
▁خدمة	-6846
▁خروج	-6847
▁خلاص	-6848
▁خلال	-6849
▁خلية	-6850
▁خليج	-6851
▁دائم	-6852
▁داعش	-6853
▁دافع	-6854
▁درهم	-6855
▁دعاء	-6856
▁دمشق	-6857
▁دولة	-6858
▁ذاته	-6859
▁ذاكر	-6860
▁رائد	-6861
▁رائع	-6862
▁رابط	-6863
▁راجع	-6864
▁راحة	-6865
▁راضي	-6866
▁رامي	-6867
▁ربما	-6868
▁رتبة	-6869
▁رحمه	-6870
▁رحيل	-6871
▁رسال	-6872
▁رسمي	-6873
▁رصيد	-6874
▁روات	-6875
▁رواه	-6876
▁ريفي	-6877
▁زائر	-6878
▁زالت	-6879
▁زايد	-6880
▁زجاج	-6881
▁زميل	-6882
▁زوجة	-6883
▁سائر	-6884
▁سائل	-6885
▁سارة	-6886
▁سامح	-6887
▁ساهم	-6888
▁ستون	-6889
▁ستيف	-6890
▁ستين	-6891
▁سريع	-6892
▁سعاد	-6893
▁سعود	-6894
▁سكان	-6895
▁سكري	-6896
▁سلام	-6897
▁سواء	-6898
▁سورة	-6899
▁سويس	-6900
▁سيار	-6901
▁سياس	-6902
▁سيطر	-6903
▁سيما	-6904
▁شرطة	-6905
▁شركة	-6906
▁شقيق	-6907
▁شهاد	-6908
▁شيكا	-6909
▁صالح	-6910
▁صدرت	-6911
▁صديق	-6912
▁صغير	-6913
▁صفات	-6914
▁صورة	-6915
▁ضارة	-6916
▁ضباط	-6917
▁ضحية	-6918
▁طبيب	-6919
▁ظاهر	-6920
▁ظروف	-6921
▁ظهور	-6922
▁عائد	-6923
▁عارض	-6924
▁عارف	-6925
▁عامة	-6926
▁عامل	-6927
▁عباد	-6928
▁عباس	-6929
▁عبير	-6930
▁عداد	-6931
▁عزيز	-6932
▁عضوا	-6933
▁عطاء	-6934
▁عقدة	-6935
▁عمار	-6936
▁عمال	-6937
▁عمان	-6938
▁عملة	-6939
▁عمله	-6940
▁عمير	-6941
▁عيان	-6942
▁عْلَ	-6943
▁غالي	-6944
▁غطاء	-6945
▁غنية	-6946
▁غياب	-6947
▁غيره	-6948
▁فادي	-6949
▁فاعل	-6950
▁فحسب	-6951
▁فرقة	-6952
▁فريق	-6953
▁فساد	-6954
▁فعله	-6955
▁فقلت	-6956
▁فكان	-6957
▁فلون	-6958
▁فورت	-6959
▁فورد	-6960
▁فوري	-6961
▁فِيه	-6962
▁قائل	-6963
▁قادر	-6964
▁قالت	-6965
▁قدّم	-6966
▁قراء	-6967
▁قطار	-6968
▁قطاع	-6969
▁قطعة	-6970
▁قناع	-6971
▁قوله	-6972
▁قيمة	-6973
▁قَوْ	-6974
▁كاري	-6975
▁كاست	-6976
▁كافة	-6977
▁كالت	-6978
▁كامل	-6979
▁كانت	-6980
▁كتات	-6981
▁كريم	-6982
▁كلمت	-6983
▁كمال	-6984
▁كورة	-6985
▁كوين	-6986
▁كييف	-6987
▁لأول	-6988
▁لاخت	-6989
▁لادي	-6990
▁لاسي	-6991
▁لاعب	-6992
▁لامي	-6993
▁لاند	-6994
▁لايت	-6995
▁لاين	-6996
▁لجنة	-6997
▁لحين	-6998
▁لزام	-6999
▁لعبة	-7000
▁لعمل	-7001
▁لقاء	-7002
▁للاس	-7003
▁للاط	-7004
▁للاع	-7005
▁للام	-7006
▁للان	-7007
▁للبح	-7008
▁للبر	-7009
▁للبط	-7010
▁للتح	-7011
▁للتس	-7012
▁للتص	-7013
▁للعب	-7014
▁للعم	-7015
▁للغة	-7016
▁للمش	-7017
▁للمط	-7018
▁للوا	-7019
▁لمثل	-7020
▁لمدة	-7021
▁لمرا	-7022
▁لمرض	-7023
▁لملك	-7024
▁لمنا	-7025
▁لندن	-7026
▁لهما	-7027
▁لوان	-7028
▁لوجه	-7029
▁ليزر	-7030
▁ليلة	-7031
▁لينا	-7032
▁لَهُ	-7033
▁مؤخر	-7034
▁مؤكد	-7035
▁مئات	-7036
▁مائة	-7037
▁مادي	-7038
▁مارت	-7039
▁مارك	-7040
▁ماري	-7041
▁ماسك	-7042
▁ماكن	-7043
▁مالا	-7044
▁مالك	-7045
▁ماله	-7046
▁مالي	-7047
▁مانش	-7048
▁ماني	-7049
▁مايك	-7050
▁مبين	-7051
▁متاب	-7052
▁متعة	-7053
▁متوا	-7054
▁مثال	-7055
▁مثيل	-7056
▁مجرد	-7057
▁مجلس	-7058
▁محاك	-7059
▁محور	-7060
▁مخرج	-7061
▁مخصص	-7062
▁مدين	-7063
▁مذهب	-7064
▁مرار	-7065
▁مريض	-7066
▁مزيد	-7067
▁مساح	-7068
▁مسبق	-7069
▁مسرح	-7070
▁مسير	-7071
▁مصدر	-7072
▁مطار	-7073
▁مظهر	-7074
▁معرف	-7075
▁معها	-7076
▁معهم	-7077
▁معين	-7078
▁مقات	-7079
▁مقال	-7080
▁مقدم	-7081
▁مقيم	-7082
▁مكعب	-7083
▁ملاء	-7084
▁ملخص	-7085
▁ملعب	-7086
▁ملكة	-7087
▁ممكن	-7088
▁منتج	-7089
▁منهج	-7090
▁منهم	-7091
▁مهام	-7092
▁مهما	-7093
▁مهمة	-7094
▁موال	-7095
▁مورد	-7096
▁موري	-7097
▁موسى	-7098
▁موضة	-7099
▁موطن	-7100
▁موظف	-7101
▁موعد	-7102
▁موية	-7103
▁مياه	-7104
▁ميزة	-7105
▁ميني	-7106
▁مَنْ	-7107
▁ناصر	-7108
▁ناقش	-7109
▁نبات	-7110
▁نتاج	-7111
▁نجاح	-7112
▁نقدم	-7113
▁نقلة	-7114
▁هاتف	-7115
▁هاجم	-7116
▁هداف	-7117
▁هولة	-7118
▁هيئة	-7119
▁هُوَ	-7120
▁وأخي	-7121
▁وأرد	-7122
▁وأكد	-7123
▁وائد	-7124
▁وائل	-7125
▁وابت	-7126
▁واحت	-7127
▁واخت	-7128
▁وارت	-7129
▁وافق	-7130
▁والا	-7131
▁والز	-7132
▁والظ	-7133
▁والغ	-7134
▁والى	-7135
▁والي	-7136
▁وانا	-7137
▁وانت	-7138
▁وانه	-7139
▁وبات	-7140
▁وبعد	-7141
▁وبلغ	-7142
▁وبية	-7143
▁وتنا	-7144
▁وتنت	-7145
▁وثيق	-7146
▁وجاء	-7147
▁وجعل	-7148
▁وجهة	-7149
▁وحدة	-7150
▁وحصل	-7151
▁وحيد	-7152
▁وخرج	-7153
▁ودائ	-7154
▁وداع	-7155
▁ودية	-7156
▁ودين	-7157
▁وذكر	-7158
▁وذلك	-7159
▁وذهب	-7160
▁وراء	-7161
▁ورائ	-7162
▁وردة	-7163
▁ورية	-7164
▁وزوج	-7165
▁وزير	-7166
▁وسوف	-7167
▁وسيا	-7168
▁وسيع	-7169
▁وشدد	-7170
▁وشهد	-7171
▁وصلة	-7172
▁وصول	-7173
▁وضعت	-7174
▁وضوح	-7175
▁وطلب	-7176
▁وظيف	-7177
▁وعلا	-7178
▁وعين	-7179
▁وغان	-7180
▁وغرب	-7181
▁وفات	-7182
▁وفيت	-7183
▁وفيد	-7184
▁وقفت	-7185
▁وقيل	-7186
▁وكلا	-7187
▁ولاد	-7188
▁ولعب	-7189
▁ولفت	-7190
▁ولها	-7191
▁وليد	-7192
▁وليس	-7193
▁ومحم	-7194
▁وموا	-7195
▁وهذا	-7196
▁ووتش	-7197
▁ووجه	-7198
▁وورد	-7199
▁ووسط	-7200
▁ووقت	-7201
▁ووقع	-7202
▁ووقف	-7203
▁وولي	-7204
▁ويات	-7205
▁ويكي	-7206
▁وَلا	-7207
▁يؤمن	-7208
▁يانغ	-7209
▁يبحث	-7210
▁يتها	-7211
▁يتهم	-7212
▁يحصل	-7213
▁يدين	-7214
▁يراد	-7215
▁يرغب	-7216
▁يرون	-7217
▁يسير	-7218
▁يشار	-7219
▁يشعر	-7220
▁يعني	-7221
▁يفضل	-7222
▁يفعل	-7223
▁يقال	-7224
▁يقول	-7225
▁يمثل	-7226
▁يمين	-7227
▁ينال	-7228
▁يوسف	-7229
▁يولي	-7230
▁يومي	-7231
▁٬٠٠٠	-7232
anghai	-7233
witter	-7234
أكتوبر	-7235
امينات	-7236
اهتمام	-7237
ثمارات	-7238
ثمارية	-7239
جهيزات	-7240
خبارات	-7241
داولين	-7242
ديسمبر	-7243
روسوفت	-7244
زيونية	-7245
ستيكية	-7246
سوارات	-7247
سيارات	-7248
صدارات	-7249
صلاحات	-7250
عمليات	-7251
فاقيات	-7252
فبراير	-7253
قترحات	-7254
كورونا	-7255
نوفمبر	-7256
ونيسيا	-7257
يرادات	-7258
يوانات	-7259
▁-----	-7260
▁-2010	-7261
▁-2012	-7262
▁.....	-7263
▁/7/24	-7264
▁2016.	-7265
▁2017.	-7266
▁2018.	-7267
▁2019.	-7268
▁2020.	-7269
▁2021.	-7270
▁Class	-7271
▁Price	-7272
▁Techn	-7273
▁artic	-7274
▁grind	-7275
▁other	-7276
▁outub	-7277
▁price	-7278
▁آخرين	-7279
▁أبريل	-7280
▁أبواب	-7281
▁أخبار	-7282
▁أراضي	-7283
▁أساسي	-7284
▁أسبوع	-7285
▁أسعار	-7286
▁أطلقت	-7287
▁أعلاه	-7288
▁أعمار	-7289
▁أغسطس	-7290
▁أنواع	-7291
▁أولاً	-7292
▁أَيُّ	-7293
▁إضافة	-7294
▁إطلاق	-7295
▁إنجاز	-7296
▁إيران	-7297
▁إيمان	-7298
▁إِنَّ	-7299
▁اتخاذ	-7300
▁اخبار	-7301
▁اختلف	-7302
▁استخد	-7303
▁استمر	-7304
▁اعتمد	-7305
▁الأثر	-7306
▁الأحد	-7307
▁الأسد	-7308
▁الأطب	-7309
▁الأقل	-7310
▁الألف	-7311
▁الأما	-7312
▁الأمة	-7313
▁الأمن	-7314
▁الأنا	-7315
▁الأنس	-7316
▁الأنص	-7317
▁الأوس	-7318
▁الإبد	-7319
▁الإست	-7320
▁الإسم	-7321
▁الإنت	-7322
▁الاتح	-7323
▁الاتص	-7324
▁الاته	-7325
▁الاخر	-7326
▁الاسب	-7327
▁الاعل	-7328
▁الالم	-7329
▁الامت	-7330
▁الانح	-7331
▁الانف	-7332
▁الانق	-7333
▁الباب	-7334
▁الباز	-7335
▁البتر	-7336
▁البحث	-7337
▁البحر	-7338
▁البرا	-7339
▁البعض	-7340
▁البكت	-7341
▁البلد	-7342
▁البنت	-7343
▁البوت	-7344
▁البور	-7345
▁البوك	-7346
▁البول	-7347
▁التجم	-7348
▁التحت	-7349
▁التصف	-7350
▁التعب	-7351
▁التعد	-7352
▁التقد	-7353
▁التكت	-7354
▁التلق	-7355
▁التما	-7356
▁التنم	-7357
▁التهد	-7358
▁التوا	-7359
▁التوت	-7360
▁التيت	-7361
▁الجبل	-7362
▁الجرا	-7363
▁الجرح	-7364
▁الجري	-7365
▁الجلد	-7366
▁الجلي	-7367
▁الجما	-7368
▁الجمع	-7369
▁الجمه	-7370
▁الجنا	-7371
▁الجنس	-7372
▁الجوا	-7373
▁الجيش	-7374
▁الحار	-7375
▁الحاس	-7376
▁الحاص	-7377
▁الحاض	-7378
▁الحاف	-7379
▁الحال	-7380
▁الحرب	-7381
▁الحرم	-7382
▁الحكم	-7383
▁الحمل	-7384
▁الحوا	-7385
▁الخاص	-7386
▁الخبي	-7387
▁الخري	-7388
▁الدوا	-7389
▁الديك	-7390
▁الدين	-7391
▁الذكر	-7392
▁الراق	-7393
▁الرغم	-7394
▁الرمض	-7395
▁الزمن	-7396
▁الزيت	-7397
▁السائ	-7398
▁السبت	-7399
▁السلف	-7400
▁السلم	-7401
▁السنة	-7402
▁الشاف	-7403
▁الشرا	-7404
▁الشرك	-7405
▁الشوا	-7406
▁الشوك	-7407
▁الصار	-7408
▁الصحة	-7409
▁الصدد	-7410
▁الصوف	-7411
▁الصوم	-7412
▁الطبع	-7413
▁الطبق	-7414
▁الطرف	-7415
▁الطرق	-7416
▁الطفل	-7417
▁الظهر	-7418
▁العاب	-7419
▁العاص	-7420
▁العبر	-7421
▁العتي	-7422
▁العثم	-7423
▁العظم	-7424
▁العقل	-7425
▁العنص	-7426
▁الغاز	-7427
▁الفاض	-7428
▁الفعل	-7429
▁الفلب	-7430
▁الفني	-7431
▁الفوت	-7432
▁الفول	-7433
▁الفيز	-7434
▁الفيل	-7435
▁الفين	-7436
▁القاب	-7437
▁القحط	-7438
▁القدس	-7439
▁القدي	-7440
▁القرآ	-7441
▁القطر	-7442
▁القلب	-7443
▁القلي	-7444
▁القوم	-7445
▁الكات	-7446
▁الكار	-7447
▁الكاز	-7448
▁الكال	-7449
▁الكرد	-7450
▁الكوا	-7451
▁الكوك	-7452
▁الكون	-7453
▁اللائ	-7454
▁اللذي	-7455
▁اللعب	-7456
▁اللغة	-7457
▁اللفظ	-7458
▁اللمس	-7459
▁اللهم	-7460
▁اللوا	-7461
▁اللوج	-7462
▁اللوم	-7463
▁المأس	-7464
▁المئة	-7465
▁المبذ	-7466
▁المبر	-7467
▁المبي	-7468
▁المتق	-7469
▁المتك	-7470
▁المتم	-7471
▁المجا	-7472
▁المجر	-7473
▁المحم	-7474
▁المخر	-7475
▁المخط	-7476
▁المدا	-7477
▁المدة	-7478
▁المدر	-7479
▁المدي	-7480
▁المذا	-7481
▁المرف	-7482
▁المزي	-7483
▁المسب	-7484
▁المشك	-7485
▁المضي	-7486
▁المفس	-7487
▁المقر	-7488
▁المقي	-7489
▁المكث	-7490
▁المكر	-7491
▁المكن	-7492
▁الملح	-7493
▁الملص	-7494
▁الملف	-7495
▁الملق	-7496
▁المما	-7497
▁الممر	-7498
▁المنز	-7499
▁المنق	-7500
▁المهم	-7501
▁الموث	-7502
▁الموح	-7503
▁المود	-7504
▁الموص	-7505
▁الموف	-7506
▁الموق	-7507
▁الموك	-7508
▁الموه	-7509
▁الميا	-7510
▁المير	-7511
▁النار	-7512
▁الناز	-7513
▁النبي	-7514
▁النسب	-7515
▁النشر	-7516
▁النظر	-7517
▁النعم	-7518
▁النفس	-7519
▁النمس	-7520
▁النمو	-7521
▁النوم	-7522
▁النَّ	-7523
▁الهاد	-7524
▁الهام	-7525
▁الواف	-7526
▁الوال	-7527
▁الوجد	-7528
▁الورد	-7529
▁الوزن	-7530
▁انخفض	-7531
▁اولاد	-7532
▁ايران	-7533
▁ايفون	-7534
▁باريس	-7535
▁بالأس	-7536
▁بالإس	-7537
▁بالان	-7538
▁بالتع	-7539
▁بالدم	-7540
▁بالمر	-7541
▁بالمق	-7542
▁بدوره	-7543
▁بغداد	-7544
▁بقوله	-7545
▁بيرام	-7546
▁بيروت	-7547
▁بينما	-7548
▁تأسيس	-7549
▁تحيات	-7550
▁تخفيض	-7551
▁ترامب	-7552
▁تراوح	-7553
▁ترفيه	-7554
▁تطوير	-7555
▁تعليق	-7556
▁تعليم	-7557
▁تعويض	-7558
▁تعيين	-7559
▁تقديم	-7560
▁تقرير	-7561
▁تكلفة	-7562
▁تكوين	-7563
▁تلقائ	-7564
▁تماما	-7565
▁تناول	-7566
▁تنفيذ	-7567
▁تواجه	-7568
▁توجيه	-7569
▁ثانيا	-7570
▁ثانية	-7571
▁جانبه	-7572
▁حياته	-7573
▁دبلوم	-7574
▁دراست	-7575
▁دردشة	-7576
▁دورتم	-7577
▁دينار	-7578
▁ذاتها	-7579
▁ذاكرة	-7580
▁رائحة	-7581
▁رائعة	-7582
▁رابطة	-7583
▁رمضان	-7584
▁ريقية	-7585
▁سبحان	-7586
▁سورية	-7587
▁سيمون	-7588
▁سيناء	-7589
▁صالات	-7590
▁صفحات	-7591
▁ضرورة	-7592
▁طاقات	-7593
▁طريقة	-7594
▁طلبات	-7595
▁ظاهرة	-7596
▁عائلت	-7597
▁عاماً	-7598
▁عامًا	-7599
▁عديدة	-7600
▁عسكري	-7601
▁عليهم	-7602
▁عملية	-7603
▁غيرها	-7604
▁فرنسا	-7605
▁فنادق	-7606
▁فيروس	-7607
▁فيقول	-7608
▁قائلا	-7609
▁قائلة	-7610
▁كاملة	-7611
▁كثيرة	-7612
▁كلينت	-7613
▁كوفيد	-7614
▁كولوم	-7615
▁كيفية	-7616
▁لانكا	-7617
▁لدينا	-7618
▁لظروف	-7619
▁للاحت	-7620
▁للانت	-7621
▁للسيا	-7622
▁للمحت	-7623
▁للموس	-7624
▁لماذا	-7625
▁لموقع	-7626
▁ليبيا	-7627
▁مؤسسة	-7628
▁مالية	-7629
▁مباحث	-7630
▁مبراط	-7631
▁مجانا	-7632
▁مجتمع	-7633
▁محافظ	-7634
▁محفوظ	-7635
▁مختلف	-7636
▁مخصصة	-7637
▁مدريد	-7638
▁مساءً	-7639
▁مستحق	-7640
▁مستقب	-7641
▁مشروع	-7642
▁مشوار	-7643
▁مصالح	-7644
▁مصانع	-7645
▁مضادة	-7646
▁معالج	-7647
▁معالي	-7648
▁معدات	-7649
▁معينة	-7650
▁مغلقة	-7651
▁مفعول	-7652
▁مفيدة	-7653
▁مقراط	-7654
▁ملحوظ	-7655
▁ملفات	-7656
▁ملموس	-7657
▁مليون	-7658
▁ممثلة	-7659
▁مميزة	-7660
▁منازل	-7661
▁منافس	-7662
▁منتخب	-7663
▁منتدى	-7664
▁ميتات	-7665
▁ميزات	-7666
▁نائية	-7667
▁نتائج	-7668
▁نفسها	-7669
▁نموذج	-7670
▁نيسان	-7671
▁وأكثر	-7672
▁وائية	-7673
▁والأح	-7674
▁والأخ	-7675
▁والأن	-7676
▁والإد	-7677
▁والإق	-7678
▁والتج	-7679
▁والتس	-7680
▁والتش	-7681
▁والتط	-7682
▁والتف	-7683
▁والحق	-7684
▁والشع	-7685
▁والعد	-7686
▁والعق	-7687
▁والقد	-7688
▁والمر	-7689
▁والمن	-7690
▁وانته	-7691
▁وبالأ	-7692
▁وبالف	-7693
▁وتابع	-7694
▁وثلاث	-7695
▁وجبات	-7696
▁وخدمة	-7697
▁وخروج	-7698
▁وزارة	-7699
▁وسائل	-7700
▁وطالب	-7701
▁وظائف	-7702
▁وظروف	-7703
▁وظيفة	-7704
▁وغياب	-7705
▁وقوله	-7706
▁ولاية	-7707
▁وواصل	-7708
▁ووافق	-7709
▁ووجود	-7710
▁ووحدة	-7711
▁ووزير	-7712
▁يتحدث	-7713
▁يتعرض	-7714
▁يتمكن	-7715
▁يحاول	-7716
▁يدرول	-7717
▁يطالب	-7718
▁يعتبر	-7719
▁يعتقد	-7720
▁يمتلك	-7721
▁يونيو	-7722
ational	-7723
ownload	-7724
إسرائيل	-7725
بلوماسي	-7726
روليكية	-7727
▁2021-1	-7728
▁Arabic	-7729
▁arabic	-7730
▁witter	-7731
▁أبوظبي	-7732
▁أكتوبر	-7733
▁ابتداء	-7734
▁اختيار	-7735
▁استقبل	-7736
▁اعتقال	-7737
▁الأبيض	-7738
▁الأحمر	-7739
▁الأخير	-7740
▁الأردن	-7741
▁الأزمة	-7742
▁الأستر	-7743
▁الأسود	-7744
▁الأمور	-7745
▁الأهلي	-7746
▁الأوسط	-7747
▁الأوكر	-7748
▁الأولم	-7749
▁الإضاف	-7750
▁الائتم	-7751
▁الابتد	-7752
▁الاجنب	-7753
▁الاربع	-7754
▁الارها	-7755
▁الاستث	-7756
▁الاستش	-7757
▁الاستغ	-7758
▁الامتح	-7759
▁البالغ	-7760
▁البراز	-7761
▁البرمج	-7762
▁البروف	-7763
▁البشرة	-7764
▁البناء	-7765
▁البيئة	-7766
▁التركي	-7767
▁التزام	-7768
▁التشكي	-7769
▁التعلي	-7770
▁التنفي	-7771
▁الثقاف	-7772
▁الثورة	-7773
▁الجمعة	-7774
▁الجميع	-7775
▁الجنسي	-7776
▁الجواب	-7777
▁الجوية	-7778
▁الحالة	-7779
▁الحدود	-7780
▁الحديث	-7781
▁الحصول	-7782
▁الحقوق	-7783
▁الخميس	-7784
▁الدفاع	-7785
▁الدنيا	-7786
▁الدوري	-7787
▁الرجال	-7788
▁الرخام	-7789
▁الروسي	-7790
▁الزجاج	-7791
▁السؤال	-7792
▁السائق	-7793
▁السابع	-7794
▁السلطة	-7795
▁السويد	-7796
▁السياق	-7797
▁السيسي	-7798
▁السينم	-7799
▁الشرطة	-7800
▁الصالح	-7801
▁الصحرا	-7802
▁الصحية	-7803
▁الصحيح	-7804
▁الصلاة	-7805
▁الصلاح	-7806
▁الطائف	-7807
▁الطاقة	-7808
▁الطبية	-7809
▁الطريق	-7810
▁الطعام	-7811
▁الظروف	-7812
▁العزيز	-7813
▁العلمي	-7814
▁العليا	-7815
▁الفترة	-7816
▁الفساد	-7817
▁الفلاح	-7818
▁الفنان	-7819
▁الفنية	-7820
▁الفيدر	-7821
▁القديم	-7822
▁القرآن	-7823
▁القرار	-7824
▁القضية	-7825
▁الكاتب	-7826
▁الكاكا	-7827
▁الكبرى	-7828
▁الكبير	-7829
▁الكتاب	-7830
▁الكريم	-7831
▁الكوار	-7832
▁الكولي	-7833
▁الكيما	-7834
▁اللتين	-7835
▁اللَّه	-7836
▁المؤمن	-7837
▁المئات	-7838
▁المائة	-7839
▁الماضى	-7840
▁المتحد	-7841
▁المتدا	-7842
▁المتضر	-7843
▁المتهم	-7844
▁المثال	-7845
▁المجلس	-7846
▁المحلل	-7847
▁المختص	-7848
▁المخرج	-7849
▁المخصص	-7850
▁المدني	-7851
▁المذهب	-7852
▁المرأة	-7853
▁المراه	-7854
▁المسجل	-7855
▁المسلم	-7856
▁المصدر	-7857
▁المصنع	-7858
▁المظهر	-7859
▁المعاص	-7860
▁المغرب	-7861
▁المفضل	-7862
▁المقتر	-7863
▁المقدم	-7864
▁المكسي	-7865
▁الملعب	-7866
▁الملكة	-7867
▁الممكن	-7868
▁المناخ	-7869
▁المورد	-7870
▁الموسم	-7871
▁الموعد	-7872
▁الموقف	-7873
▁الناخب	-7874
▁الناقل	-7875
▁النساء	-7876
▁النشاط	-7877
▁النواب	-7878
▁الواحد	-7879
▁الوارد	-7880
▁الواقع	-7881
▁الودية	-7882
▁اوباما	-7883
▁بإمكان	-7884
▁بالصور	-7885
▁بالفعل	-7886
▁بالقول	-7887
▁بتاريخ	-7888
▁بواسطة	-7889
▁بوتفلي	-7890
▁بينهما	-7891
▁تستخدم	-7892
▁تلقائي	-7893
▁رونالد	-7894
▁زيمباب	-7895
▁سامسون	-7896
▁صباحاً	-7897
▁صباحًا	-7898
▁طاحونة	-7899
▁عبدالع	-7900
▁علاقات	-7901
▁عَلَيْ	-7902
▁فلسطين	-7903
▁قائلاً	-7904
▁كسارات	-7905
▁كندرية	-7906
▁كنولوج	-7907
▁كيلومت	-7908
▁لمانيا	-7909
▁لمختلف	-7910
▁لمملكة	-7911
▁لوكالة	-7912
▁مبارات	-7913
▁مبيعات	-7914
▁متعددة	-7915
▁متفاوت	-7916
▁متنقلة	-7917
▁مجموعة	-7918
▁مستعمل	-7919
▁مستقبل	-7920
▁مشاركة	-7921
▁مشاهدة	-7922
▁ملاحظة	-7923
▁ممارسة	-7924
▁موبايل	-7925
▁موظفين	-7926
▁نتنياه	-7927
▁واجبات	-7928
▁واشنطن	-7929
▁والاحت	-7930
▁والعلم	-7931
▁والمرا	-7932
▁والموا	-7933
▁والهند	-7934
▁والياب	-7935
▁وبركات	-7936
▁وخدمات	-7937
▁ووزارة	-7938
▁ووسائل	-7939
▁يستطيع	-7940
▁يونايت	-7941
Citation	-7942
WhatsApp	-7943
quipment	-7944
▁Alibaba	-7945
▁Univers	-7946
▁hatsApp	-7947
▁إبراهيم	-7948
▁إسرائيل	-7949
▁إفريقيا	-7950
▁استعداد	-7951
▁استقبال	-7952
▁الأحيان	-7953
▁الأخلاق	-7954
▁الأرثوذ	-7955
▁الأستاذ	-7956
▁الأطفال	-7957
▁الأعمال	-7958
▁الأمنية	-7959
▁الإثنين	-7960
▁الإرهاب	-7961
▁الإضافة	-7962
▁الإنتاج	-7963
▁الاتحاد	-7964
▁الاثنين	-7965
▁الانتاج	-7966
▁البداية	-7967
▁البشرية	-7968
▁البطولة	-7969
▁البلدين	-7970
▁البيضاء	-7971
▁التأثير	-7972
▁التحديث	-7973
▁التحقيق	-7974
▁التحويل	-7975
▁الترتيب	-7976
▁الترفيه	-7977
▁التركية	-7978
▁التصنيف	-7979
▁الجامعة	-7980
▁الحالات	-7981
▁الحالية	-7982
▁الحديثة	-7983
▁الحقيقة	-7984
▁الحكومة	-7985
▁الدراسة	-7986
▁الدردشة	-7987
▁الدستور	-7988
▁الدينية	-7989
▁الذاكرة	-7990
▁الراقية	-7991
▁الرسمية	-7992
▁الروبوت	-7993
▁الروسية	-7994
▁السعودي	-7995
▁السورية	-7996
▁الشخصية	-7997
▁الشرعية	-7998
▁الشرقية	-7999
▁الشركات	-8000
▁الشعبية	-8001
▁الطبيعي	-8002
▁العاصمة	-8003
▁العشرين	-8004
▁العلمية	-8005
▁العملية	-8006
▁الغربية	-8007
▁الفيديو	-8008
▁الفيروس	-8009
▁القديمة	-8010
▁الكبيرة	-8011
▁الكترون	-8012
▁اللاحقة	-8013
▁المبارك	-8014
▁المتخصص	-8015
▁المتقدم	-8016
▁المتوسط	-8017
▁المجموع	-8018
▁المحتلة	-8019
▁المحتمل	-8020
▁المحلية	-8021
▁المخالف	-8022
▁المختلف	-8023
▁المخصصة	-8024
▁المدرسة	-8025
▁المزارع	-8026
▁المساهم	-8027
▁المستوى	-8028
▁المسلحة	-8029
▁المسيحي	-8030
▁المشارك	-8031
▁المشروع	-8032
▁المصنعة	-8033
▁المضادة	-8034
▁المعارض	-8035
▁المعتقل	-8036
▁المغربي	-8037
▁المفاوض	-8038
▁المفعول	-8039
▁المفيدة	-8040
▁المقابل	-8041
▁الملاحظ	-8042
▁الممثلة	-8043
▁المميزة	-8044
▁المهاجر	-8045
▁المواطن	-8046
▁الموجود	-8047
▁الموريت	-8048
▁النهاية	-8049
▁الوزارة	-8050
▁الوزراء	-8051
▁الوطنية	-8052
▁اليومية	-8053
▁بالكامل	-8054
▁بالمورد	-8055
▁تصريحات	-8056
▁تعليقات	-8057
▁كاليفور	-8058
▁لممارسة	-8059
▁ماليزيا	-8060
▁مستويات	-8061
▁مفاوضات	-8062
▁نجليزية	-8063
▁نيويورك	-8064
▁والخارج	-8065
▁والعالم	-8066
▁Duration	-8067
▁Facebook	-8068
▁________	-8069
▁الأربعاء	-8070
▁الأساسية	-8071
▁الإرهابي	-8072
▁الإسلامي	-8073
▁الإمبراط	-8074
▁الإيراني	-8075
▁الاحتجاج	-8076
▁الاحتلال	-8077
▁الاستهلا	-8078
▁الاعتداء	-8079
▁الافتتاح	-8080
▁الافتراض	-8081
▁البرلمان	-8082
▁البرنامج	-8083
▁البروتين	-8084
▁التفاصيل	-8085
▁الثلاثاء	-8086
▁الثنائية	-8087
▁الجزائري	-8088
▁الجنوبية	-8089
▁الحكومية	-8090
▁الخارجية	-8091
▁الداخلية	-8092
▁الرياضية	-8093
▁السيارات	-8094
▁السياسية	-8095
▁الشمالية	-8096
▁الصناعية	-8097
▁الطبيعية	-8098
▁العراقية	-8099
▁العسكرية	-8100
▁الغذائية	-8101
▁الفرنسية	-8102
▁الكهرباء	-8103
▁اللبناني	-8104
▁المباراة	-8105
▁المبيعات	-8106
▁المتعامل	-8107
▁المجالات	-8108
▁المحافظة	-8109
▁المستشار	-8110
▁المستفيد	-8111
▁المستهلك	-8112
▁المسلمين	-8113
▁المغربية	-8114
▁الممارسة	-8115
▁المناسبة	-8116
▁الموبايل	-8117
▁الهيدروك	-8118
▁بالفيديو	-8119
▁بريطانيا	-8120
▁كريستيان	-8121
▁لاستخدام	-8122
▁للمستثمر	-8123
▁والتعليم	-8124
▁وبالتالي	-8125
▁protected	-8126
▁الأميركية	-8127
▁الأوروبية	-8128
▁الإخبارية	-8129
▁الإرهابية	-8130
▁الإسلامية	-8131
▁الإنسانية	-8132
▁الإيرانية	-8133
▁الاخبارية	-8134
▁الاستخدام	-8135
▁الاقتصادي	-8136
▁التعليمية	-8137
▁التقليدية	-8138
▁الجمهورية	-8139
▁الديمقراط	-8140
▁اللبنانية	-8141
▁المفاوضات	-8142
▁المواطنين	-8143
▁الإسكندرية	-8144
▁الاجتماعية	-8145
▁الاقتصادية	-8146
▁الانتخابات	-8147
▁البريطانية	-8148
▁الفلسطينية	-8149
▁الإسرائيلية	-8150
▁الديمقراطية	-8151
▁الفلسطينيين	-8152
.,	-8153
15	-8154
2]	-8155
42	-8156
AA	-8157
ED	-8158
ac	-8159
aw	-8160
eu	-8161
um	-8162
أو	-8163
دق	-8164
رَ	-8165
سس	-8166
شت	-8167
شى	-8168
فط	-8169
لج	-8170
لز	-8171
مط	-8172
هز	-8173
▁¢	-8174
▁§	-8175
▁¿	-8176
▁À	-8177
▁Á	-8178
▁Â	-8179
▁Í	-8180
▁Ï	-8181
▁Ý	-8182
▁ð	-8183
▁õ	-8184
▁ğ	-8185
▁Ş	-8186
▁ţ	-8187
▁ū	-8188
▁ɛ	-8189
▁̅	-8190
▁̈	-8191
▁̷	-8192
▁͡	-8193
▁Φ	-8194
▁β	-8195
▁δ	-8196
▁κ	-8197
▁π	-8198
▁σ	-8199
bm	-8200
▁Å	-8201
▁û	-8202
▁ș	-8203
▁Δ	-8204
▁ς	-8205
▁В	-8206
▁Л	-8207
▁Н	-8208
▁Р	-8209
▁Х	-8210
▁й	-8211
▁к	-8212
▁л	-8213
▁н	-8214
▁ш	-8215
▁щ	-8216
▁ъ	-8217
▁ы	-8218
▁ю	-8219
▁ѕ	-8220
▁ћ	-8221
▁Ґ	-8222
▁Ү	-8223
▁ָ	-8224
▁ב	-8225
▁ן	-8226
▁פ	-8227
▁ק	-8228
▁؇	-8229
▁؏	-8230
▁؜	-8231
▁ٗ	-8232
▁ٴ	-8233
▁ٿ	-8234
▁ڑ	-8235
▁ڕ	-8236
▁ۃ	-8237
▁ۇ	-8238
▁ۈ	-8239
▁ے	-8240
▁۟	-8241
▁ۡ	-8242
▁ۦ	-8243
▁۪	-8244
▁۫	-8245
▁۶	-8246
▁ܓ	-8247
▁ܘ	-8248
▁ܠ	-8249
▁क	-8250
▁द	-8251
▁ब	-8252
▁व	-8253
▁ु	-8254
▁्	-8255
▁ল	-8256
▁্	-8257
▁ஐ	-8258
▁ด	-8259
▁ย	-8260
▁า	-8261
▁ื	-8262
▁ი	-8263
▁რ	-8264
▁ề	-8265
▁ệ	-8266
▁ộ	-8267
▁‘	-8268
▁‚	-8269
▁⁄	-8270
▁⃣	-8271
▁↩	-8272
▁⇒	-8273
▁√	-8274
▁∞	-8275
▁∫	-8276
▁⋅	-8277
▁═	-8278
▁▷	-8279
▁▼	-8280
▁◄	-8281
▁○	-8282
▁☄	-8283
▁★	-8284
▁♥	-8285
▁✅	-8286
▁✌	-8287
▁❊	-8288
▁ⵜ	-8289
▁す	-8290
▁た	-8291
▁っ	-8292
▁れ	-8293
▁ア	-8294
▁コ	-8295
▁タ	-8296
▁ド	-8297
▁マ	-8298
▁ン	-8299
48	-8300
▁¬	-8301
▁ê	-8302
▁ı	-8303
▁ů	-8304
▁о	-8305
▁ں	-8306
▁◔	-8307
▁ル	-8308
▁体	-8309
▁国	-8310
▁大	-8311
▁时	-8312
▁有	-8313
▁现	-8314
▁用	-8315
▁的	-8316
▁达	-8317
▁대	-8318
▁보	-8319
▁어	-8320
▁역	-8321
▁한	-8322
▁	-8323
▁	-8324
▁	-8325
▁	-8326
▁	-8327
▁	-8328
▁	-8329
▁	-8330
▁	-8331
▁	-8332
▁	-8333
ver	-8334
ائز	-8335
ادا	-8336
الز	-8337
اهب	-8338
ايد	-8339
جهز	-8340
حيط	-8341
خرس	-8342
ديش	-8343
ريغ	-8344
ريك	-8345
زرة	-8346
شير	-8347
صرى	-8348
عوم	-8349
فئة	-8350
فظة	-8351
لسب	-8352
لِّ	-8353
نبي	-8354
هاج	-8355
هاي	-8356
▁",	-8357
▁-6	-8358
▁-8	-8359
▁-:	-8360
▁/5	-8361
▁02	-8362
▁08	-8363
▁2]	-8364
▁5)	-8365
▁EG	-8366
▁Eg	-8367
▁Em	-8368
▁MP	-8369
▁OM	-8370
▁PC	-8371
▁Ul	-8372
▁ct	-8373
▁di	-8374
▁iO	-8375
▁ii	-8376
▁mo	-8377
▁nd	-8378
▁nt	-8379
▁og	-8380
▁sl	-8381
▁so	-8382
▁ys	-8383
▁}.	-8384
▁ئت	-8385
▁ئح	-8386
▁ئك	-8387
▁ئن	-8388
▁بظ	-8389
▁تة	-8390
▁ثة	-8391
▁ثل	-8392
▁جى	-8393
▁حه	-8394
▁خِ	-8395
▁دء	-8396
▁دش	-8397
▁رئ	-8398
▁شغ	-8399
".	-8400
uf	-8401
ِن	-8402
▁£	-8403
▁­	-8404
▁ì	-8405
▁ÿ	-8406
▁ə	-8407
▁Μ	-8408
▁מ	-8409
▁ע	-8410
▁ܩ	-8411
▁ܳ	-8412
▁র	-8413
▁ท	-8414
▁‹	-8415
▁⚽	-8416
▁と	-8417
اوى	-8418
بعث	-8419
مِن	-8420
▁<<	-8421
▁صُ	-8422
▁صْ	-8423
▁ضت	-8424
▁ضه	-8425
▁طة	-8426
▁طى	-8427
▁طُ	-8428
▁طِ	-8429
▁طْ	-8430
▁ظي	-8431
▁عو	-8432
▁غل	-8433
▁فی	-8434
▁قْ	-8435
▁كج	-8436
▁كذ	-8437
▁لْ	-8438
▁مٍ	-8439
▁مْ	-8440
▁نؤ	-8441
▁نض	-8442
▁نْ	-8443
▁يي	-8444
▁ٍ،	-8445
▁َى	-8446
▁ّب	-8447
▁٠٠	-8448
▁١٩	-8449
ious	-8450
ئناف	-8451
ارتك	-8452
اموس	-8453
بداد	-8454
حتها	-8455
دياد	-8456
رحلة	-8457
رحيب	-8458
رداد	-8459
رصاد	-8460
روان	-8461
روبا	-8462
سيما	-8463
صارى	-8464
عارض	-8465
فاصل	-8466
فترة	-8467
كاية	-8468
وادر	-8469
وليد	-8470
ياسة	-8471
▁(17	-8472
▁(21	-8473
▁(22	-8474
▁(8)	-8475
▁.00	-8476
▁/08	-8477
▁12,	-8478
▁128	-8479
▁15.	-8480
▁:09	-8481
▁:27	-8482
▁:36	-8483
▁:45	-8484
▁:47	-8485
▁:49	-8486
▁Air	-8487
▁Bar	-8488
▁Cam	-8489
▁Chr	-8490
▁Goo	-8491
▁Mac	-8492
▁Pos	-8493
▁Ult	-8494
▁ada	-8495
▁arm	-8496
▁ash	-8497
▁ele	-8498
▁ell	-8499
Ad	-8500
PN	-8501
fo	-8502
si	-8503
ـ،	-8504
لو	-8505
▁Ü	-8506
▁ő	-8507
▁ˆ	-8508
▁в	-8509
▁ڷ	-8510
▁ھ	-8511
▁۲	-8512
▁र	-8513
▁ල	-8514
▁‰	-8515
▁に	-8516
اتف	-8517
ضول	-8518
عدل	-8519
قوب	-8520
▁PD	-8521
قافة	-8522
▁PDF	-8523
▁VPN	-8524
▁hai	-8525
▁ict	-8526
▁ien	-8527
▁igh	-8528
▁ish	-8529
▁iso	-8530
▁ist	-8531
▁mod	-8532
▁ong	-8533
▁opp	-8534
▁ora	-8535
▁ove	-8536
▁pos	-8537
▁rig	-8538
▁ven	-8539
▁vsi	-8540
▁|--	-8541
▁أرى	-8542
▁أري	-8543
▁أشك	-8544
▁أعق	-8545
▁ألة	-8546
▁ألي	-8547
▁أوم	-8548
▁أية	-8549
▁أيد	-8550
▁أَن	-8551
▁ؤثر	-8552
▁إحت	-8553
▁إخط	-8554
▁إرس	-8555
▁إما	-8556
▁إمت	-8557
▁إيج	-8558
▁ئبق	-8559
▁ئون	-8560
▁ئين	-8561
▁اءِ	-8562
▁ابخ	-8563
▁ابد	-8564
▁ابَ	-8565
▁اتل	-8566
▁اتم	-8567
▁اتِ	-8568
▁احي	-8569
▁ادر	-8570
▁ارق	-8571
▁ارَ	-8572
▁اسي	-8573
▁اشا	-8574
▁اصط	-8575
▁امى	-8576
▁انُ	-8577
▁انِ	-8578
▁اهج	-8579
▁ايل	-8580
▁بتص	-8581
▁بتف	-8582
▁بحا	-8583
▁بحة	-8584
▁برب	-8585
▁بلب	-8586
▁بلج	-8587
▁بلس	-8588
▁بمش	-8589
▁بنج	-8590
▁بنص	-8591
▁بوه	-8592
▁بيط	-8593
▁تتب	-8594
▁تتس	-8595
▁تتع	-8596
▁تدئ	-8597
▁تدخ	-8598
▁تصا	-8599
▁Ê	-8600
▁Ö	-8601
▁ɑ	-8602
▁Ξ	-8603
▁ί	-8604
▁Ѕ	-8605
▁Ў	-8606
▁ܗ	-8607
▁ܬ	-8608
▁ा	-8609
▁๑	-8610
▁€	-8611
▁◘	-8612
▁⭐	-8613
▁リ	-8614
arn	-8615
مود	-8616
▁IF	-8617
▁هه	-8618
رمون	-8619
سمدة	-8620
فساد	-8621
يسور	-8622
▁Acc	-8623
▁Jul	-8624
▁Sal	-8625
▁بدّ	-8626
▁تفر	-8627
▁تقع	-8628
▁تلي	-8629
▁تنح	-8630
▁تنس	-8631
▁تنظ	-8632
▁توب	-8633
▁تية	-8634
▁ثاث	-8635
▁ثال	-8636
▁ثنا	-8637
▁ثيق	-8638
▁جاف	-8639
▁جبة	-8640
▁جرة	-8641
▁جرح	-8642
▁جند	-8643
▁حدا	-8644
▁حرة	-8645
▁حرف	-8646
▁حزم	-8647
▁حفل	-8648
▁حلي	-8649
▁حوق	-8650
▁حيل	-8651
▁حيى	-8652
▁خطر	-8653
▁خله	-8654
▁خلو	-8655
▁خول	-8656
▁خيل	-8657
▁داب	-8658
▁دات	-8659
▁داث	-8660
▁دال	-8661
▁درك	-8662
▁دعت	-8663
▁دما	-8664
▁دوت	-8665
▁دوز	-8666
▁دوم	-8667
▁دَّ	-8668
▁ذرت	-8669
▁ذكي	-8670
▁ذمة	-8671
▁ذور	-8672
▁رار	-8673
▁رخص	-8674
▁رسل	-8675
▁رسي	-8676
▁رمل	-8677
▁رها	-8678
▁روع	-8679
▁روى	-8680
▁ريش	-8681
▁ريك	-8682
▁رّك	-8683
▁زاء	-8684
▁زات	-8685
▁زعة	-8686
▁زلز	-8687
▁زما	-8688
▁زنة	-8689
▁زير	-8690
▁زيغ	-8691
▁ستب	-8692
▁سرد	-8693
▁سكس	-8694
▁سند	-8695
▁سيء	-8696
▁سيه	-8697
▁شجر	-8698
▁شرة	-8699
1]	-8700
23	-8701
ro	-8702
ئب	-8703
▁Ø	-8704
▁Č	-8705
▁ż	-8706
▁̿	-8707
▁О	-8708
▁א	-8709
▁י	-8710
▁ู	-8711
▁ა	-8712
▁│	-8713
▁☝	-8714
▁✔	-8715
▁	-8716
قرى	-8717
▁!.	-8718
▁%)	-8719
▁.0	-8720
▁ئى	-8721
roid	-8722
ائرة	-8723
▁[1]	-8724
▁ame	-8725
▁ste	-8726
▁اجد	-8727
▁بمب	-8728
▁سمح	-8729
▁شحن	-8730
▁شيف	-8731
▁صفح	-8732
▁صهي	-8733
▁صوف	-8734
▁صيح	-8735
▁صير	-8736
▁ضاء	-8737
▁ضوء	-8738
▁ضور	-8739
▁ضيه	-8740
▁طاة	-8741
▁طاف	-8742
▁طعت	-8743
▁طقة	-8744
▁طني	-8745
▁طهي	-8746
▁طيع	-8747
▁ظام	-8748
▁ظرف	-8749
▁ظير	-8750
▁عاف	-8751
▁عجز	-8752
▁عجل	-8753
▁عجم	-8754
▁عدي	-8755
▁عرق	-8756
▁عزي	-8757
▁عكا	-8758
▁عكر	-8759
▁علت	-8760
▁علف	-8761
▁عما	-8762
▁عها	-8763
▁عيم	-8764
▁غاء	-8765
▁غضب	-8766
▁غلط	-8767
▁غوا	-8768
▁فأن	-8769
▁فاف	-8770
▁فتج	-8771
▁فرك	-8772
▁فقا	-8773
▁فلة	-8774
▁فما	-8775
▁فوج	-8776
▁قاس	-8777
▁قاع	-8778
▁قان	-8779
▁قشر	-8780
▁قصر	-8781
▁قعة	-8782
▁قلق	-8783
▁قمة	-8784
▁قمر	-8785
▁قوب	-8786
▁قور	-8787
▁قون	-8788
▁قوي	-8789
▁كجز	-8790
▁كمر	-8791
▁كّد	-8792
▁لأس	-8793
▁لار	-8794
▁لتب	-8795
▁لسب	-8796
▁لعة	-8797
▁لفض	-8798
▁لقط	-8799
3]	-8800
80	-8801
83	-8802
9,	-8803
نك	-8804
هى	-8805
▁ч	-8806
▁ґ	-8807
▁้	-8808
▁♠	-8809
▁・	-8810
▁￼	-8811
▁TC	-8812
▁ثِ	-8813
▁ُه	-8814
روجه	-8815
يافة	-8816
▁240	-8817
▁Det	-8818
▁[3]	-8819
▁alm	-8820
▁أتم	-8821
▁عصر	-8822
▁فقت	-8823
▁كّل	-8824
▁لسد	-8825
▁للة	-8826
▁لير	-8827
▁ليط	-8828
▁متق	-8829
▁مجا	-8830
▁مدر	-8831
▁مرّ	-8832
▁مزق	-8833
▁مسة	-8834
▁مشة	-8835
▁مصح	-8836
▁مفه	-8837
▁مقت	-8838
▁ممه	-8839
▁منة	-8840
▁منغ	-8841
▁ميج	-8842
▁ميص	-8843
▁ميع	-8844
▁مًا	-8845
▁مَّ	-8846
▁ناء	-8847
▁نبه	-8848
▁نجد	-8849
▁نحت	-8850
▁ندر	-8851
▁نصف	-8852
▁نمت	-8853
▁نمر	-8854
▁نوم	-8855
▁هزي	-8856
▁هكت	-8857
▁هوي	-8858
▁هية	-8859
▁هُم	-8860
▁وأح	-8861
▁وأر	-8862
▁وأز	-8863
▁وأظ	-8864
▁وتث	-8865
▁وتخ	-8866
▁وتز	-8867
▁وتغ	-8868
▁وثر	-8869
▁وحر	-8870
▁وحش	-8871
▁وسا	-8872
▁وشك	-8873
▁وعز	-8874
▁وفت	-8875
▁وفع	-8876
▁وكا	-8877
▁ولس	-8878
▁ولط	-8879
▁ولن	-8880
▁ومر	-8881
▁ومف	-8882
▁ونح	-8883
▁ونخ	-8884
▁ونق	-8885
▁ونَ	-8886
▁ويأ	-8887
▁ويغ	-8888
▁ياه	-8889
▁يتا	-8890
▁يتع	-8891
▁يتو	-8892
▁يثق	-8893
▁يحل	-8894
▁يدو	-8895
▁يرو	-8896
▁يسم	-8897
▁يصف	-8898
▁يطة	-8899
em	-8900
ex	-8901
ضن	-8902
قس	-8903
كُ	-8904
يُ	-8905
▁®	-8906
▁ī	-8907
▁Ј	-8908
▁Ч	-8909
▁ง	-8910
▁ช	-8911
▁스	-8912
▁	-8913
ext	-8914
▁AU	-8915
▁رن	-8916
▁قش	-8917
▁كح	-8918
اعيد	-8919
كُمْ	-8920
▁:16	-8921
▁AUT	-8922
▁ham	-8923
▁بأع	-8924
▁ثاق	-8925
▁زون	-8926
▁سائ	-8927
▁شرا	-8928
▁فلو	-8929
▁قبض	-8930
▁كلو	-8931
▁لتخ	-8932
▁مسي	-8933
▁يبد	-8934
▁يصا	-8935
▁يظل	-8936
▁يغة	-8937
▁يقة	-8938
▁يقى	-8939
▁يكر	-8940
▁يكن	-8941
▁يلز	-8942
▁يلم	-8943
▁يمة	-8944
▁يمه	-8945
▁يمي	-8946
▁يمٌ	-8947
▁يهم	-8948
▁يُش	-8949
▁َبَ	-8950
▁َلَ	-8951
▁ّاب	-8952
▁ّمت	-8953
agram	-8954
email	-8955
ائعات	-8956
اتلين	-8957
اسيوم	-8958
بترول	-8959
راجات	-8960
رازية	-8961
سلكية	-8962
فاضات	-8963
قيمين	-8964
واجدة	-8965
وديوم	-8966
وردين	-8967
ولاتة	-8968
يلندا	-8969
▁(201	-8970
▁2000	-8971
▁2030	-8972
▁Book	-8973
▁Chat	-8974
▁July	-8975
▁Next	-8976
▁Post	-8977
▁atur	-8978
▁ball	-8979
▁book	-8980
▁elop	-8981
▁ents	-8982
▁gram	-8983
▁ideo	-8984
▁ones	-8985
▁ouse	-8986
▁port	-8987
▁roup	-8988
▁that	-8989
▁with	-8990
▁أبعد	-8991
▁أبلغ	-8992
▁أثاث	-8993
▁أحدا	-8994
▁أرخص	-8995
▁أسرع	-8996
▁أشرف	-8997
▁أشعة	-8998
▁أصلي	-8999
tp	-9000
un	-9001
▁ş	-9002
▁̲	-9003
▁г	-9004
▁ڳ	-9005
▁ข	-9006
▁☆	-9007
▁☼	-9008
▁ⴰ	-9009
▁ⵉ	-9010
▁お	-9011
▁語	-9012
▁	-9013
▁︎	-9014
طحة	-9015
▁ظى	-9016
▁-05	-9017
▁mun	-9018
▁ttp	-9019
▁أنت	-9020
▁ارع	-9021
▁اهن	-9022
▁جاح	-9023
▁دكت	-9024
▁ردي	-9025
▁رقت	-9026
▁كتا	-9027
▁كلّ	-9028
▁نرح	-9029
▁هرة	-9030
▁ونع	-9031
▁ينس	-9032
▁آراء	-9033
▁أعيد	-9034
▁أقبل	-9035
▁أقصر	-9036
▁أمان	-9037
▁أمين	-9038
▁أننا	-9039
▁أنني	-9040
▁أنور	-9041
▁أهلي	-9042
▁أوغل	-9043
▁أولى	-9044
▁أيوب	-9045
▁إبدا	-9046
▁إذاً	-9047
▁إراد	-9048
▁إستر	-9049
▁ئتها	-9050
▁ئتين	-9051
▁ائدة	-9052
▁ائقي	-9053
▁ائمة	-9054
▁ابرة	-9055
▁ابعة	-9056
▁ابون	-9057
▁اتبة	-9058
▁اتيح	-9059
▁اخرة	-9060
▁ادرة	-9061
▁ارتي	-9062
▁اريا	-9063
▁اريخ	-9064
▁اريد	-9065
▁ازات	-9066
▁اسأل	-9067
▁اصمة	-9068
▁اضرة	-9069
▁اطعة	-9070
▁اطلع	-9071
▁اعمل	-9072
▁افظة	-9073
▁افير	-9074
▁اقات	-9075
▁اقين	-9076
▁اكتم	-9077
▁اكمة	-9078
▁الأُ	-9079
▁الإك	-9080
▁الاق	-9081
▁الاي	-9082
▁البس	-9083
▁التظ	-9084
▁الجذ	-9085
▁الجر	-9086
▁الجص	-9087
▁الحظ	-9088
▁الحَ	-9089
▁الخر	-9090
▁الزع	-9091
▁السد	-9092
▁الشح	-9093
▁الصن	-9094
▁الصّ	-9095
▁العر	-9096
▁الفم	-9097
▁الكع	-9098
▁الكُ	-9099
ئر	-9100
اغ	-9101
رن	-9102
▁ø	-9103
▁̄	-9104
▁̨	-9105
▁и	-9106
▁ڨ	-9107
▁⁩	-9108
▁ⵓ	-9109
▁カ	-9110
▁	-9111
▁	-9112
شهد	-9113
يرن	-9114
▁eb	-9115
▁زح	-9116
▁صة	-9117
▁:40	-9118
▁fin	-9119
▁اجأ	-9120
▁ادة	-9121
▁اشر	-9122
▁بئر	-9123
▁تلب	-9124
▁جوج	-9125
▁خرا	-9126
▁رأة	-9127
▁ستت	-9128
▁صاد	-9129
▁غبة	-9130
▁كمس	-9131
▁مجر	-9132
▁ناص	-9133
▁نبؤ	-9134
▁ومز	-9135
▁ِنْ	-9136
كولات	-9137
لائها	-9138
▁اسفل	-9139
▁اللّ	-9140
▁الير	-9141
▁الْح	-9142
▁امرة	-9143
▁اميك	-9144
▁اميم	-9145
▁انتظ	-9146
▁انتي	-9147
▁انهم	-9148
▁اهدة	-9149
▁باري	-9150
▁بالآ	-9151
▁باور	-9152
▁بترك	-9153
▁بحاث	-9154
▁بخاخ	-9155
▁بخير	-9156
▁بروف	-9157
▁برية	-9158
▁بسام	-9159
▁بشري	-9160
▁بعدم	-9161
▁بعضا	-9162
▁بعمل	-9163
▁بلاك	-9164
▁بلدي	-9165
▁بمنع	-9166
▁بهذه	-9167
▁بيبة	-9168
▁بيتا	-9169
▁بيحة	-9170
▁بيرو	-9171
▁بيري	-9172
▁بيعة	-9173
▁بينت	-9174
▁بينك	-9175
▁تأمل	-9176
▁تؤكد	-9177
▁تامر	-9178
▁تبات	-9179
▁تبلي	-9180
▁تبني	-9181
▁تتيح	-9182
▁تثير	-9183
▁تجدر	-9184
▁تجده	-9185
▁تجذب	-9186
▁تجري	-9187
▁تحسن	-9188
▁تدرس	-9189
▁تدرك	-9190
▁تدعي	-9191
▁تراك	-9192
▁ترسل	-9193
▁ترسي	-9194
▁تركه	-9195
▁تزال	-9196
▁تسأل	-9197
▁تسرب	-9198
▁تسعة	-9199
دب	-9200
لن	-9201
▁¦	-9202
▁Ú	-9203
▁ý	-9204
▁ф	-9205
▁ส	-9206
▁▪	-9207
▁「	-9208
▁前	-9209
ich	-9210
ُول	-9211
▁جح	-9212
▁رث	-9213
▁قى	-9214
▁لٍ	-9215
اييس	-9216
ستية	-9217
سُول	-9218
▁Car	-9219
▁asy	-9220
▁آية	-9221
▁داه	-9222
▁صام	-9223
▁عور	-9224
▁كذب	-9225
▁لتل	-9226
▁لقة	-9227
▁متف	-9228
▁مفص	-9229
▁نعد	-9230
▁هور	-9231
▁ومد	-9232
▁وون	-9233
▁ense	-9234
▁اسمه	-9235
▁البك	-9236
▁الفخ	-9237
▁اولت	-9238
▁بوجه	-9239
▁بيتر	-9240
▁تسلي	-9241
▁تسير	-9242
▁تشبه	-9243
▁تشعر	-9244
▁تصاص	-9245
▁تصال	-9246
▁تصام	-9247
▁تطور	-9248
▁تعدد	-9249
▁تعهد	-9250
▁تعين	-9251
▁تغلب	-9252
▁تقات	-9253
▁تقرر	-9254
▁تقود	-9255
▁تكمن	-9256
▁تلقى	-9257
▁تملة	-9258
▁تملك	-9259
▁تمنع	-9260
▁تنسي	-9261
▁تنظم	-9262
▁تنفع	-9263
▁تَّى	-9264
▁ثابت	-9265
▁ثرات	-9266
▁ثنين	-9267
▁ثياب	-9268
▁جاءت	-9269
▁جبير	-9270
▁جتما	-9271
▁جدات	-9272
▁جرار	-9273
▁جعلت	-9274
▁جمات	-9275
▁جنون	-9276
▁جوار	-9277
▁جولد	-9278
▁جيري	-9279
▁حافظ	-9280
▁حاكم	-9281
▁حتنا	-9282
▁حدود	-9283
▁حرمة	-9284
▁حروف	-9285
▁حصول	-9286
▁حضره	-9287
▁حكمة	-9288
▁حلمت	-9289
▁حلمي	-9290
▁حماة	-9291
▁حماد	-9292
▁حوار	-9293
▁حولي	-9294
▁حياء	-9295
▁حيال	-9296
▁خارف	-9297
▁خالي	-9298
▁خامة	-9299
حض	-9300
حف	-9301
عْ	-9302
نز	-9303
يث	-9304
▁ç	-9305
▁ë	-9306
▁λ	-9307
▁ג	-9308
▁۝	-9309
▁□	-9310
▁☕	-9311
▁》	-9312
▁テ	-9313
▁	-9314
▁4،	-9315
▁Kn	-9316
▁UB	-9317
▁fr	-9318
▁طط	-9319
▁مٌ	-9320
نزير	-9321
▁ara	-9322
▁ock	-9323
▁rol	-9324
▁أرب	-9325
▁اكر	-9326
▁تجر	-9327
▁تحد	-9328
▁تُس	-9329
▁جدد	-9330
▁جلب	-9331
▁حسم	-9332
▁دعو	-9333
▁رده	-9334
▁سوي	-9335
▁فيد	-9336
▁قيت	-9337
▁لزا	-9338
حضرات	-9339
مارات	-9340
▁Know	-9341
▁eral	-9342
▁from	-9343
▁آلاف	-9344
▁أعجب	-9345
▁الاً	-9346
▁التى	-9347
▁القم	-9348
▁اولى	-9349
▁براً	-9350
▁بلدة	-9351
▁بندق	-9352
▁بيته	-9353
▁بَعْ	-9354
▁خالص	-9355
▁خدمي	-9356
▁خصصت	-9357
▁خطبة	-9358
▁خفاض	-9359
▁خفيف	-9360
▁خلاف	-9361
▁خليل	-9362
▁دائع	-9363
▁دادا	-9364
▁داسة	-9365
▁دافئ	-9366
▁داوي	-9367
▁دبلي	-9368
▁دلات	-9369
▁دهار	-9370
▁دوية	-9371
▁دياب	-9372
▁دياد	-9373
▁ديدي	-9374
▁ديون	-9375
▁ذبذب	-9376
▁ذهبي	-9377
▁رأسه	-9378
▁راءة	-9379
▁رافع	-9380
▁راما	-9381
▁راها	-9382
▁رايت	-9383
▁رباح	-9384
▁رجات	-9385
▁رجلا	-9386
▁رخام	-9387
▁ردات	-9388
▁ردين	-9389
▁رسوم	-9390
▁رشيح	-9391
▁رصاد	-9392
▁رغبت	-9393
▁ركان	-9394
▁رموز	-9395
▁رواد	-9396
▁روسي	-9397
▁رياء	-9398
▁ريفة	-9399
ضب	-9400
طا	-9401
فن	-9402
نِ	-9403
▁ž	-9404
▁є	-9405
▁ܕ	-9406
▁।	-9407
▁ḥ	-9408
▁₪	-9409
▁♢	-9410
▁て	-9411
▁ツ	-9412
▁在	-9413
▁":	-9414
▁5-	-9415
▁OS	-9416
▁زن	-9417
▁شک	-9418
▁ئات	-9419
▁بكت	-9420
▁تلم	-9421
▁ثمن	-9422
▁رأي	-9423
▁زيل	-9424
▁سنا	-9425
▁شئة	-9426
▁شکن	-9427
▁عسل	-9428
▁فاص	-9429
▁ليق	-9430
▁مفس	-9431
▁ناط	-9432
▁وذا	-9433
▁وند	-9434
▁يعة	-9435
▁أسود	-9436
▁الإذ	-9437
▁تحقق	-9438
▁تخلص	-9439
▁تلمس	-9440
▁تمان	-9441
▁تموز	-9442
▁تُعد	-9443
▁جاهل	-9444
▁جلسة	-9445
▁جيبة	-9446
▁رضاء	-9447
▁ريمة	-9448
▁ريّة	-9449
▁زمات	-9450
▁زملا	-9451
▁زوجي	-9452
▁زيرة	-9453
▁زيوت	-9454
▁ساحة	-9455
▁سامة	-9456
▁سبعة	-9457
▁سبقت	-9458
▁ستاد	-9459
▁ستال	-9460
▁سرية	-9461
▁سلعة	-9462
▁سمحت	-9463
▁سنين	-9464
▁سيان	-9465
▁سيدة	-9466
▁سيدي	-9467
▁سيرا	-9468
▁سيست	-9469
▁سيلف	-9470
▁سيلي	-9471
▁شاعر	-9472
▁شجرة	-9473
▁شرعي	-9474
▁شركه	-9475
▁شعيب	-9476
▁شفير	-9477
▁شهدت	-9478
▁صانع	-9479
▁صدمة	-9480
▁صدور	-9481
▁صفحة	-9482
▁صيني	-9483
▁ضابط	-9484
▁ضعيف	-9485
▁ضغوط	-9486
▁طبيع	-9487
▁طلاء	-9488
▁طلاع	-9489
▁طلقت	-9490
▁طنطا	-9491
▁طويل	-9492
▁طيار	-9493
▁ظيفة	-9494
▁ظيمة	-9495
▁عاشت	-9496
▁عبرت	-9497
▁عبوة	-9498
▁عجلة	-9499
);	-9500
7%	-9501
إب	-9502
وأ	-9503
▁ó	-9504
▁ų	-9505
▁θ	-9506
▁μ	-9507
▁ַ	-9508
▁ٔ	-9509
▁❖	-9510
▁し	-9511
▁국	-9512
حوا	-9513
طاف	-9514
غاف	-9515
▁")	-9516
▁-5	-9517
▁4-	-9518
▁فّ	-9519
حواذ	-9520
▁/03	-9521
▁220	-9522
▁360	-9523
▁ith	-9524
▁ush	-9525
▁ائم	-9526
▁اقم	-9527
▁بلح	-9528
▁تنف	-9529
▁درت	-9530
▁شية	-9531
▁كيو	-9532
▁لاط	-9533
▁لتن	-9534
▁لنت	-9535
▁مضم	-9536
▁وتؤ	-9537
▁وتة	-9538
▁وهب	-9539
▁يأت	-9540
إبريل	-9541
▁blog	-9542
▁أسوأ	-9543
▁افات	-9544
▁برأس	-9545
▁تارة	-9546
▁تولد	-9547
▁حاجة	-9548
▁زوال	-9549
▁زيين	-9550
▁شارة	-9551
▁عدسة	-9552
▁عذاب	-9553
▁عشبة	-9554
▁عشرة	-9555
▁عطلة	-9556
▁عظمة	-9557
▁عظيم	-9558
▁عقاب	-9559
▁عقله	-9560
▁عقلي	-9561
▁عقول	-9562
▁عقيد	-9563
▁عقيل	-9564
▁عمري	-9565
▁عميد	-9566
▁عميق	-9567
▁عيار	-9568
▁عيها	-9569
▁عْمَ	-9570
▁غربا	-9571
▁فإنّ	-9572
▁فاذا	-9573
▁فارة	-9574
▁فارس	-9575
▁فارغ	-9576
▁فاصل	-9577
▁فالت	-9578
▁فالر	-9579
▁فالك	-9580
▁فترض	-9581
▁فتنة	-9582
▁فراس	-9583
▁فشلت	-9584
▁فضاء	-9585
▁فقرة	-9586
▁فقيل	-9587
▁فكار	-9588
▁فلات	-9589
▁فلان	-9590
▁فلما	-9591
▁فنون	-9592
▁فوجد	-9593
▁فولت	-9594
▁فيان	-9595
▁فيست	-9596
▁فيفا	-9597
▁فيكت	-9598
▁قابة	-9599
.ـ	-9600
QB	-9601
QE	-9602
▁á	-9603
▁б	-9604
▁е	-9605
▁ז	-9606
▁ܟ	-9607
▁म	-9608
▁ம	-9609
▁い	-9610
▁ま	-9611
▁ラ	-9612
▁	-9613
جهي	-9614
▁آس	-9615
▁خة	-9616
▁خم	-9617
▁سس	-9618
▁ین	-9619
▁750	-9620
▁:57	-9621
▁Mar	-9622
▁أمد	-9623
▁ثار	-9624
▁حاء	-9625
▁حها	-9626
▁ديه	-9627
▁روف	-9628
▁سبت	-9629
▁صهر	-9630
▁طير	-9631
▁ـ.ـ	-9632
▁قيع	-9633
▁كتة	-9634
▁وبص	-9635
▁وَل	-9636
▁وّة	-9637
▁يرض	-9638
▁َّد	-9639
ندسين	-9640
▁أجمل	-9641
▁أسرى	-9642
▁الجح	-9643
▁اليل	-9644
▁تباط	-9645
▁تجهي	-9646
▁تحام	-9647
▁تصار	-9648
▁تنزل	-9649
▁عرفة	-9650
▁عضلة	-9651
▁قالي	-9652
▁قايا	-9653
▁قبول	-9654
▁قتلى	-9655
▁قدان	-9656
▁قدير	-9657
▁قرون	-9658
▁قفين	-9659
▁قلبه	-9660
▁قيام	-9661
▁كأنه	-9662
▁كامب	-9663
▁كبار	-9664
▁كبرى	-9665
▁كثرة	-9666
▁كريا	-9667
▁كلوب	-9668
▁كلية	-9669
▁كنتم	-9670
▁كوال	-9671
▁كورد	-9672
▁كوري	-9673
▁كوست	-9674
▁كومة	-9675
▁كومي	-9676
▁كيلي	-9677
▁كُمْ	-9678
▁لإست	-9679
▁لاتر	-9680
▁لاجة	-9681
▁لاحت	-9682
▁لاقت	-9683
▁لالا	-9684
▁لامة	-9685
▁لايف	-9686
▁لايك	-9687
▁لباس	-9688
▁لتزم	-9689
▁لتها	-9690
▁لحوم	-9691
▁لخام	-9692
▁لخفض	-9693
▁لدات	-9694
▁لرائ	-9695
▁لسات	-9696
▁لسعر	-9697
▁لسنة	-9698
▁لسوف	-9699
BD	-9700
▁±	-9701
▁̊	-9702
▁ύ	-9703
▁Г	-9704
▁э	-9705
▁ژ	-9706
▁ิ	-9707
▁ᅠ	-9708
▁⬇	-9709
▁體	-9710
▁bc	-9711
▁do	-9712
▁بآ	-9713
▁لی	-9714
▁ید	-9715
▁(15	-9716
▁:34	-9717
▁CBD	-9718
▁air	-9719
▁أيّ	-9720
▁إنا	-9721
▁ئلة	-9722
▁ابِ	-9723
▁احل	-9724
▁خلى	-9725
▁داك	-9726
▁روض	-9727
▁لمث	-9728
▁نيد	-9729
▁نيه	-9730
▁نِي	-9731
▁هجر	-9732
▁وخي	-9733
▁وكو	-9734
▁ِّر	-9735
▁,000	-9736
▁احبه	-9737
▁التز	-9738
▁التّ	-9739
▁السخ	-9740
▁تأخر	-9741
▁تقبة	-9742
▁تيات	-9743
▁حاصل	-9744
▁حجاج	-9745
▁حرام	-9746
▁صاحب	-9747
▁ضيات	-9748
▁قهوة	-9749
▁كأحد	-9750
▁لطات	-9751
▁لعبد	-9752
▁لعمر	-9753
▁لغاء	-9754
▁لقاب	-9755
▁لقات	-9756
▁لقتل	-9757
▁لقطة	-9758
▁لقول	-9759
▁لكنّ	-9760
▁للأج	-9761
▁للأف	-9762
▁للإس	-9763
▁للإن	-9764
▁للتج	-9765
▁للتخ	-9766
▁للتو	-9767
▁للقي	-9768
▁للمؤ	-9769
▁للما	-9770
▁للمج	-9771
▁للمح	-9772
▁للمغ	-9773
▁للمف	-9774
▁للمق	-9775
▁للوم	-9776
▁للون	-9777
▁لمبي	-9778
▁لمزي	-9779
▁لمفض	-9780
▁لملا	-9781
▁لمنت	-9782
▁لمنع	-9783
▁لموج	-9784
▁لمود	-9785
▁لموز	-9786
▁لموظ	-9787
▁لموق	-9788
▁لميا	-9789
▁لمير	-9790
▁لمين	-9791
▁لندي	-9792
▁لوات	-9793
▁ليتم	-9794
▁ليرة	-9795
▁ليصل	-9796
▁ليفة	-9797
▁ليلى	-9798
▁لِهِ	-9799
nc	-9800
ob	-9801
sl	-9802
▁Ó	-9803
▁ē	-9804
▁м	-9805
▁ц	-9806
▁ۤ	-9807
▁۵	-9808
▁ܥ	-9809
▁❞	-9810
▁	-9811
جرس	-9812
لاط	-9813
▁-3	-9814
▁2:	-9815
▁EX	-9816
▁Me	-9817
▁SP	-9818
▁عك	-9819
▁فؤ	-9820
▁هْ	-9821
atch	-9822
ثبات	-9823
رياء	-9824
▁1.4	-9825
▁15,	-9826
▁Isl	-9827
▁Rob	-9828
▁cnc	-9829
▁inn	-9830
▁ton	-9831
▁ائر	-9832
▁انّ	-9833
▁بإس	-9834
▁تاز	-9835
▁تغل	-9836
▁ربا	-9837
▁رقة	-9838
▁طدم	-9839
▁عاز	-9840
▁هاء	-9841
▁وبإ	-9842
▁وقض	-9843
▁يُّ	-9844
▁ِّي	-9845
وتيوب	-9846
ووووو	-9847
▁ople	-9848
▁أسفر	-9849
▁الاغ	-9850
▁بولس	-9851
▁تفضل	-9852
▁ركيب	-9853
▁سالم	-9854
▁فؤاد	-9855
▁لحاق	-9856
▁للوز	-9857
▁لمما	-9858
▁مؤشر	-9859
▁مؤهل	-9860
▁ماجد	-9861
▁مالى	-9862
▁مبدأ	-9863
▁مبني	-9864
▁متاح	-9865
▁متصل	-9866
▁متلا	-9867
▁مجلد	-9868
▁مجمل	-9869
▁محيط	-9870
▁مخاز	-9871
▁مداد	-9872
▁مدرب	-9873
▁مراء	-9874
▁مراح	-9875
▁مراس	-9876
▁مرمى	-9877
▁مرور	-9878
▁مزيج	-9879
▁مسار	-9880
▁مستغ	-9881
▁مسكن	-9882
▁مشرف	-9883
▁مشيط	-9884
▁مصان	-9885
▁مصرف	-9886
▁مصور	-9887
▁مضخة	-9888
▁مطحن	-9889
▁مطلب	-9890
▁مطهر	-9891
▁معات	-9892
▁معال	-9893
▁معبد	-9894
▁معدة	-9895
▁معدن	-9896
▁معمر	-9897
▁معمل	-9898
▁معني	-9899
$-	-9900
SI	-9901
▁`	-9902
▁Е	-9903
▁М	-9904
▁п	-9905
▁с	-9906
▁қ	-9907
▁۷	-9908
▁ज	-9909
▁न	-9910
▁य	-9911
▁ि	-9912
▁„	-9913
▁ー	-9914
تنا	-9915
ضحى	-9916
▁-9	-9917
▁ES	-9918
▁je	-9919
▁zz	-9920
▁ثى	-9921
المن	-9922
انكا	-9923
جدات	-9924
طعيم	-9925
▁-12	-9926
▁VSI	-9927
▁أرا	-9928
▁رسة	-9929
▁ساق	-9930
▁شتى	-9931
▁ضاة	-9932
▁كيه	-9933
▁واة	-9934
▁ورث	-9935
▁ject	-9936
▁أنجل	-9937
▁بالذ	-9938
▁بدءا	-9939
▁تقضي	-9940
▁ذوات	-9941
▁رائي	-9942
▁ريبي	-9943
▁ظمات	-9944
▁عالي	-9945
▁غذية	-9946
▁لقمة	-9947
▁لياف	-9948
▁مصفا	-9949
▁مغام	-9950
▁مفاد	-9951
▁مفتي	-9952
▁مفيد	-9953
▁ممين	-9954
▁مناز	-9955
▁منظم	-9956
▁منعت	-9957
▁منكم	-9958
▁مهات	-9959
▁موجز	-9960
▁موجه	-9961
▁موسي	-9962
▁موضع	-9963
▁مويل	-9964
▁مييز	-9965
▁ميين	-9966
▁نأمل	-9967
▁نبحث	-9968
▁نبذة	-9969
▁نبيه	-9970
▁نترك	-9971
▁نتوس	-9972
▁نتين	-9973
▁نجوم	-9974
▁نجيب	-9975
▁ندعو	-9976
▁ندية	-9977
▁نرحب	-9978
▁نزلت	-9979
▁نسبي	-9980
▁نسعى	-9981
▁نشرة	-9982
▁نشرت	-9983
▁نشطة	-9984
▁نشهد	-9985
▁نطاق	-9986
▁نظمت	-9987
▁نفعل	-9988
▁نقول	-9989
▁نواة	-9990
▁نوعا	-9991
▁نوعة	-9992
▁نيست	-9993
▁نيوت	-9994
▁نيين	-9995
▁هارة	-9996
▁هدار	-9997
▁هدفه	-9998
▁هدية	-9999
ei	-10000
ud	-10001
▁¡	-10002
▁¤	-10003
▁¥	-10004
▁¶	-10005
▁Ã	-10006
▁Ä	-10007
▁Ç	-10008
▁ρ	-10009
▁Џ	-10010
▁Т	-10011
▁ס	-10012
▁ܡ	-10013
▁ह	-10014
▁ả	-10015
▁‮	-10016
▁⇐	-10017
▁ん	-10018
▁上	-10019
▁	-10020
امح	-10021
حتى	-10022
ونخ	-10023
▁آخ	-10024
▁ثف	-10025
▁ذى	-10026
▁هك	-10027
▁َه	-10028
صرار	-10029
فيان	-10030
▁19,	-10031
▁dis	-10032
▁ابق	-10033
▁بضع	-10034
▁شيد	-10035
▁ضون	-10036
▁عاه	-10037
▁عله	-10038
▁غرف	-10039
▁َدَ	-10040
▁ّما	-10041
▁ّنت	-10042
anite	-10043
تمويل	-10044
▁able	-10045
▁awei	-10046
▁clud	-10047
▁ield	-10048
▁الشق	-10049
▁العس	-10050
▁اليب	-10051
▁برقم	-10052
▁تروي	-10053
▁تقوم	-10054
▁ثوان	-10055
▁جسمك	-10056
▁خرجت	-10057
▁رسول	-10058
▁روان	-10059
▁عودي	-10060
▁للاق	-10061
▁لمخت	-10062
▁مصري	-10063
▁نزاف	-10064
▁همال	-10065
▁هموم	-10066
▁هنئة	-10067
▁هنات	-10068
▁هيثم	-10069
▁هيون	-10070
▁وآخر	-10071
▁وأبد	-10072
▁وأحب	-10073
▁وأست	-10074
▁وألف	-10075
▁وأنا	-10076
▁وأهل	-10077
▁وأور	-10078
▁وإنه	-10079
▁وائي	-10080
▁وارز	-10081
▁واضط	-10082
▁واقع	-10083
▁والو	-10084
▁وانب	-10085
▁واني	-10086
▁واها	-10087
▁وباء	-10088
▁وبذل	-10089
▁وبقي	-10090
▁وتاب	-10091
▁وتحت	-10092
▁وتشي	-10093
▁وجات	-10094
▁وجين	-10095
▁وحتى	-10096
▁وحجم	-10097
▁وحدث	-10098
▁وحمل	-10099
أْ	-10100
▁È	-10101
▁É	-10102
▁Î	-10103
▁Ñ	-10104
▁Ù	-10105
▁ß	-10106
▁â	-10107
▁ã	-10108
▁ä	-10109
▁å	-10110
▁æ	-10111
▁è	-10112
▁í	-10113
▁î	-10114
▁ï	-10115
▁ñ	-10116
▁ò	-10117
▁ô	-10118
▁ö	-10119
▁÷	-10120
▁ù	-10121
▁ú	-10122
▁ü	-10123
▁ā	-10124
▁ă	-10125
▁ą	-10126
▁ć	-10127
▁č	-10128
▁Đ	-10129
▁đ	-10130
▁ę	-10131
▁ě	-10132
▁İ	-10133
▁Ł	-10134
▁ł	-10135
▁ń	-10136
▁ō	-10137
▁Œ	-10138
▁ר	-10139
▁บ	-10140
▁返	-10141
▁	-10142
حول	-10143
▁زو	-10144
▁يء	-10145
قرام	-10146
▁ews	-10147
▁حنا	-10148
▁غدا	-10149
▁كست	-10150
▁يًا	-10151
اعيات	-10152
▁إنهم	-10153
▁ئيات	-10154
▁اليف	-10155
▁انني	-10156
▁بأحد	-10157
▁بُعد	-10158
▁تراث	-10159
▁جران	-10160
▁سراح	-10161
▁عاطف	-10162
▁فَلَ	-10163
▁مصير	-10164
▁مضاد	-10165
▁معهد	-10166
▁وتقد	-10167
▁وحول	-10168
▁وختم	-10169
▁وخسر	-10170
▁وخمس	-10171
▁ودعا	-10172
▁ودول	-10173
▁وديو	-10174
▁ورأى	-10175
▁وراة	-10176
▁وراد	-10177
▁وراق	-10178
▁وردي	-10179
▁ورود	-10180
▁ورين	-10181
▁وسحب	-10182
▁وسعر	-10183
▁وسلب	-10184
▁وسوق	-10185
▁وشكر	-10186
▁وشكل	-10187
▁وصفة	-10188
▁وصفت	-10189
▁وطبق	-10190
▁وطرح	-10191
▁وطني	-10192
▁وعات	-10193
▁وعال	-10194
▁وعبر	-10195
▁وعدد	-10196
▁وعلم	-10197
▁وعود	-10198
▁وفاة	-10199
▁œ	-10200
▁ř	-10201
▁ś	-10202
▁Š	-10203
▁š	-10204
▁ź	-10205
▁ƒ	-10206
▁ư	-10207
▁ț	-10208
▁ɔ	-10209
▁ɪ	-10210
▁ʃ	-10211
▁ʊ	-10212
▁ʻ	-10213
▁ˈ	-10214
▁ː	-10215
▁̀	-10216
▁́	-10217
▁̃	-10218
▁̇	-10219
▁̧	-10220
▁̯	-10221
▁̶	-10222
▁Α	-10223
▁Ε	-10224
▁Σ	-10225
▁Ω	-10226
▁ά	-10227
▁έ	-10228
▁ή	-10229
▁α	-10230
▁γ	-10231
▁ε	-10232
▁η	-10233
▁ι	-10234
▁ν	-10235
▁ο	-10236
▁τ	-10237
▁υ	-10238
▁φ	-10239
▁χ	-10240
▁І	-10241
▁Ф	-10242
▁ם	-10243
▁⠀	-10244
▁、	-10245
▁高	-10246
▁دأ	-10247
▁فْ	-10248
▁می	-10249
بهات	-10250
كريا	-10251
▁بتة	-10252
▁تاك	-10253
▁جلا	-10254
▁سلخ	-10255
▁غات	-10256
▁ّية	-10257
▁Chin	-10258
▁أبيب	-10259
▁الأظ	-10260
▁النح	-10261
▁تسجي	-10262
▁ريدة	-10263
▁ستها	-10264
▁كجزء	-10265
▁لمفت	-10266
▁مشاب	-10267
▁مهتم	-10268
▁نبيل	-10269
▁نفهم	-10270
▁وارث	-10271
▁وصلت	-10272
▁وفان	-10273
▁وفرص	-10274
▁وفقا	-10275
▁وفوق	-10276
▁وفير	-10277
▁وفين	-10278
▁وفيه	-10279
▁وقبل	-10280
▁وقطع	-10281
▁وكسي	-10282
▁وكمة	-10283
▁ولعل	-10284
▁وليت	-10285
▁وليه	-10286
▁ومال	-10287
▁ومثل	-10288
▁ومحا	-10289
▁ومخت	-10290
▁ومرا	-10291
▁ومنح	-10292
▁وموس	-10293
▁ومية	-10294
▁ونات	-10295
▁ونقص	-10296
▁ونيخ	-10297
▁ونيو	-10298
▁وهدف	-10299
▁ω	-10300
▁ό	-10301
▁Ђ	-10302
▁Ѓ	-10303
▁Є	-10304
▁Љ	-10305
▁Њ	-10306
▁А	-10307
▁Б	-10308
▁Д	-10309
▁З	-10310
▁И	-10311
▁К	-10312
▁П	-10313
▁С	-10314
▁У	-10315
▁Ш	-10316
▁Щ	-10317
▁Я	-10318
▁а	-10319
▁д	-10320
▁ж	-10321
▁з	-10322
▁р	-10323
▁т	-10324
▁у	-10325
▁х	-10326
▁ь	-10327
▁я	-10328
▁ё	-10329
▁ђ	-10330
▁ѓ	-10331
▁і	-10332
▁ї	-10333
▁ј	-10334
▁њ	-10335
▁ќ	-10336
▁ў	-10337
▁ּ	-10338
▁ڵ	-10339
جحة	-10340
▁دْ	-10341
▁-03	-10342
▁ألا	-10343
▁اذن	-10344
▁اطة	-10345
▁باء	-10346
▁بصف	-10347
▁بّر	-10348
▁تحب	-10349
▁غاث	-10350
▁فأت	-10351
▁للض	-10352
▁مام	-10353
▁يخص	-10354
▁أحدث	-10355
▁اقير	-10356
▁العا	-10357
▁العث	-10358
▁بتلك	-10359
▁تماد	-10360
▁حوال	-10361
▁خبير	-10362
▁خلاط	-10363
▁رارة	-10364
▁رياً	-10365
▁عملك	-10366
▁لاني	-10367
▁مساك	-10368
▁واتس	-10369
▁وهذه	-10370
▁وويف	-10371
▁ويضع	-10372
▁ويعد	-10373
▁ويّة	-10374
▁يأتى	-10375
▁يانا	-10376
▁يباد	-10377
▁يبقى	-10378
▁يترك	-10379
▁يتصل	-10380
▁يتعل	-10381
▁يتلق	-10382
▁يثير	-10383
▁يجلب	-10384
▁يحقق	-10385
▁يحيى	-10386
▁يخشى	-10387
▁يخطط	-10388
▁يخوض	-10389
▁يدرس	-10390
▁يدري	-10391
▁يدعى	-10392
▁يدعي	-10393
▁يديه	-10394
▁يرجع	-10395
▁يرفع	-10396
▁يروي	-10397
▁يسبق	-10398
▁يسور	-10399
آة	-10400
ثى	-10401
شأ	-10402
غو	-10403
▁џ	-10404
▁ү	-10405
▁ա	-10406
▁ե	-10407
▁ն	-10408
▁ր	-10409
▁ְ	-10410
▁ִ	-10411
▁ד	-10412
▁ה	-10413
▁ו	-10414
▁ח	-10415
▁ט	-10416
▁ך	-10417
▁כ	-10418
▁ל	-10419
▁נ	-10420
▁צ	-10421
▁ש	-10422
▁ת	-10423
▁ܐ	-10424
▁ܢ	-10425
▁भ	-10426
▁พ	-10427
▁ợ	-10428
▁≤	-10429
▁≥	-10430
▁✪	-10431
▁繁	-10432
ذير	-10433
فلت	-10434
ياد	-10435
▁8،	-10436
▁ae	-10437
▁ّل	-10438
▁hal	-10439
▁أعد	-10440
▁بطة	-10441
▁ضلة	-10442
▁طيل	-10443
▁فعة	-10444
▁ففة	-10445
▁show	-10446
▁أثرت	-10447
▁أنثى	-10448
▁استب	-10449
▁الغو	-10450
▁بروز	-10451
▁راكة	-10452
▁ريات	-10453
▁سيوط	-10454
▁فجعل	-10455
▁كريس	-10456
▁للري	-10457
▁مؤثر	-10458
▁مدار	-10459
▁مرآة	-10460
▁ويقع	-10461
▁يضيع	-10462
▁يعاب	-10463
▁يعقد	-10464
▁يغني	-10465
▁يفرض	-10466
▁يفون	-10467
▁يقاف	-10468
▁يقصد	-10469
▁يكبر	-10470
▁يلبي	-10471
▁يلية	-10472
▁يمني	-10473
▁ينشأ	-10474
▁ينقل	-10475
▁ينية	-10476
▁ينين	-10477
▁يهَا	-10478
▁يوصي	-10479
▁َيْر	-10480
▁٢٠١٩	-10481
اعتماد	-10482
براهيم	-10483
فسارات	-10484
نسانية	-10485
يوانية	-10486
▁-2015	-10487
▁/1442	-10488
▁/2018	-10489
▁2017،	-10490
▁Retri	-10491
▁arket	-10492
▁ition	-10493
▁manuf	-10494
▁quiry	-10495
▁under	-10496
▁uring	-10497
▁vious	-10498
▁آيفون	-10499
دْ	-10500
رث	-10501
رْ	-10502
كى	-10503
هْ	-10504
▁چ	-10505
▁ร	-10506
▁ღ	-10507
▁‐	-10508
▁↵	-10509
▁◀	-10510
ااا	-10511
اثة	-10512
ييد	-10513
▁ox	-10514
▁أْ	-10515
▁سؤ	-10516
▁ِد	-10517
▁Ass	-10518
▁tal	-10519
▁إرث	-10520
▁ئها	-10521
▁تصح	-10522
▁تيش	-10523
▁ثمة	-10524
▁ثيف	-10525
▁حلم	-10526
▁خطأ	-10527
▁زاد	-10528
▁زرة	-10529
▁قاض	-10530
▁قرض	-10531
▁قنا	-10532
▁لعت	-10533
▁مطر	-10534
▁ندا	-10535
▁وبخ	-10536
▁وتذ	-10537
▁يتب	-10538
▁ّلة	-10539
ااااا	-10540
▁8221	-10541
▁talk	-10542
▁أَرْ	-10543
▁أَهْ	-10544
▁ادية	-10545
▁تبطة	-10546
▁تجات	-10547
▁تقان	-10548
▁جندي	-10549
▁حكما	-10550
▁رادة	-10551
▁رطان	-10552
▁طلحة	-10553
▁عرضه	-10554
▁علاق	-10555
▁قوته	-10556
▁قَدْ	-10557
▁لملت	-10558
▁لمون	-10559
▁مصرع	-10560
▁نداء	-10561
▁نظري	-10562
▁ومنع	-10563
▁يشبه	-10564
▁أجهزة	-10565
▁أحداً	-10566
▁أسطوا	-10567
▁أسماء	-10568
▁أصابع	-10569
▁أصلاً	-10570
▁أضرار	-10571
▁أضعاف	-10572
▁أعقاب	-10573
▁أعوام	-10574
▁أغنية	-10575
▁أقدام	-10576
▁أقراص	-10577
▁أقسام	-10578
▁أكواب	-10579
▁أمبير	-10580
▁أمتار	-10581
▁أمراض	-10582
▁أنباء	-10583
▁أنّها	-10584
▁أهالي	-10585
▁أولاد	-10586
▁ؤْمِن	-10587
▁إبقاء	-10588
▁إتمام	-10589
▁إثراء	-10590
▁إثيوب	-10591
▁إحراز	-10592
▁إحساس	-10593
▁إحياء	-10594
▁إخفاء	-10595
▁إداري	-10596
▁إدانة	-10597
▁إدريس	-10598
▁إرادة	-10599
يء	-10600
▁ػ	-10601
▁ێ	-10602
▁ܝ	-10603
▁ो	-10604
▁ং	-10605
▁ஜ	-10606
▁จ	-10607
▁เ	-10608
▁ạ	-10609
▁▓	-10610
▁◦	-10611
▁✨	-10612
▁❤	-10613
▁민	-10614
فته	-10615
قوط	-10616
▁حى	-10617
▁قع	-10618
▁مى	-10619
▁هق	-10620
▁end	-10621
▁mer	-10622
▁امِ	-10623
▁ايع	-10624
▁بقة	-10625
▁جسر	-10626
▁حرب	-10627
▁حمي	-10628
▁خوة	-10629
▁رفة	-10630
▁زاز	-10631
▁شفط	-10632
▁شوب	-10633
▁عوث	-10634
▁قاء	-10635
▁نفت	-10636
▁ونب	-10637
▁ible	-10638
▁أخضر	-10639
▁أنجز	-10640
▁الطح	-10641
▁العز	-10642
▁الغم	-10643
▁بشيء	-10644
▁تجنب	-10645
▁ثبيت	-10646
▁حاله	-10647
▁ذكاء	-10648
▁طيلة	-10649
▁عادل	-10650
▁فرات	-10651
▁فندق	-10652
▁للوف	-10653
▁لماس	-10654
▁مياة	-10655
▁ناقل	-10656
▁واته	-10657
▁واشت	-10658
▁وجدت	-10659
▁وقوع	-10660
▁ونية	-10661
▁أسئلة	-10662
▁أظهرت	-10663
▁إزالة	-10664
▁إلينا	-10665
▁إليهم	-10666
▁إنشاؤ	-10667
▁ائرات	-10668
▁ابايت	-10669
▁ابرات	-10670
▁ابطال	-10671
▁ابقات	-10672
▁اتفاق	-10673
▁اثنان	-10674
▁اجتما	-10675
▁اجتمع	-10676
▁ادرات	-10677
▁ارتفع	-10678
▁ارسال	-10679
▁اسئلة	-10680
▁استهد	-10681
▁اسمنت	-10682
▁اسواق	-10683
▁اشارة	-10684
▁اشترا	-10685
▁اطفال	-10686
▁اعجاب	-10687
▁اعلام	-10688
▁افترا	-10689
▁افيين	-10690
▁اقترح	-10691
▁الآمن	-10692
▁الأجل	-10693
▁الأدب	-10694
▁الأدي	-10695
▁الأذن	-10696
▁الأصل	-10697
▁الألغ	-10698
▁الأوب	-10699
فْ	-10700
ّز	-10701
▁ٓ	-10702
▁ٕ	-10703
▁ٖ	-10704
▁ٞ	-10705
▁٭	-10706
▁ٰ	-10707
▁ٲ	-10708
▁ٳ	-10709
▁ٹ	-10710
▁ٺ	-10711
▁ٻ	-10712
▁ڈ	-10713
▁ग	-10714
▁ल	-10715
▁ค	-10716
▁ี	-10717
▁ไ	-10718
▁⁃	-10719
▁♣	-10720
▁レ	-10721
▁	-10722
▁زج	-10723
وابة	-10724
وضاء	-10725
يتال	-10726
▁Con	-10727
▁rip	-10728
▁ائج	-10729
▁بأب	-10730
▁بإع	-10731
▁تتج	-10732
▁جوي	-10733
▁دود	-10734
▁رتب	-10735
▁زية	-10736
▁سئل	-10737
▁صية	-10738
▁طلح	-10739
▁قضت	-10740
▁لمذ	-10741
▁متى	-10742
▁وبث	-10743
▁يمل	-10744
واتير	-10745
▁اصبح	-10746
▁بأسر	-10747
▁باتت	-10748
▁بيدي	-10749
▁ثارة	-10750
▁جدير	-10751
▁حليف	-10752
▁ريرك	-10753
▁عتقد	-10754
▁مورة	-10755
▁ميّز	-10756
▁نسبة	-10757
▁نَفْ	-10758
▁ونيك	-10759
▁ويوم	-10760
▁يوفر	-10761
▁الأوت	-10762
▁الأيت	-10763
▁الإحص	-10764
▁الإنا	-10765
▁الإيج	-10766
▁الاحد	-10767
▁الاعد	-10768
▁الاما	-10769
▁الامم	-10770
▁الايج	-10771
▁الباس	-10772
▁الباه	-10773
▁البرج	-10774
▁البرك	-10775
▁البري	-10776
▁البعث	-10777
▁البكر	-10778
▁البلط	-10779
▁البنا	-10780
▁البند	-10781
▁البنك	-10782
▁البنى	-10783
▁البود	-10784
▁البوم	-10785
▁التاج	-10786
▁التام	-10787
▁التاي	-10788
▁التشف	-10789
▁التغي	-10790
▁التنب	-10791
▁التنس	-10792
▁التور	-10793
▁التوض	-10794
▁التوف	-10795
▁التوك	-10796
▁الثلا	-10797
▁الجاف	-10798
▁الجثة	-10799
▁ڤ	-10800
▁ڪ	-10801
▁ڭ	-10802
▁ہ	-10803
▁ۆ	-10804
▁ې	-10805
▁۔	-10806
▁ە	-10807
▁ۖ	-10808
▁ۗ	-10809
▁ۚ	-10810
▁۞	-10811
▁ۢ	-10812
▁ۥ	-10813
▁۩	-10814
▁۰	-10815
▁۱	-10816
▁۳	-10817
▁۴	-10818
▁۸	-10819
▁۹	-10820
▁ܒ	-10821
▁ܚ	-10822
▁ܪ	-10823
▁ܫ	-10824
▁ܵ	-10825
▁ं	-10826
▁ट	-10827
▁त	-10828
▁प	-10829
▁स	-10830
▁ी	-10831
▁े	-10832
▁ি	-10833
▁்	-10834
▁⚠	-10835
▁);	-10836
▁Fl	-10837
▁خخ	-10838
▁يذ	-10839
▁365	-10840
▁que	-10841
▁أسل	-10842
▁اتّ	-10843
▁اكو	-10844
▁بعة	-10845
▁ثلة	-10846
▁عيا	-10847
▁فخر	-10848
▁منب	-10849
▁َّن	-10850
▁ِرْ	-10851
▁أعلم	-10852
▁الكن	-10853
▁املة	-10854
▁جولة	-10855
▁حقاق	-10856
▁خيرة	-10857
▁زلات	-10858
▁طفلك	-10859
▁لرجل	-10860
▁للمب	-10861
▁لمخر	-10862
▁محبة	-10863
▁معان	-10864
▁وأحد	-10865
▁واكد	-10866
▁يصير	-10867
▁الترد	-10868
▁الجذب	-10869
▁الجزي	-10870
▁الجني	-10871
▁الجوز	-10872
▁الجول	-10873
▁الحام	-10874
▁الحزب	-10875
▁الحضر	-10876
▁الحفل	-10877
▁الحلم	-10878
▁الحما	-10879
▁الحمض	-10880
▁الحيا	-10881
▁الحيض	-10882
▁الحيل	-10883
▁الخبث	-10884
▁الخصم	-10885
▁الخطة	-10886
▁الخوا	-10887
▁الداف	-10888
▁الدسم	-10889
▁الدعا	-10890
▁الدعم	-10891
▁الدهر	-10892
▁الدُّ	-10893
▁الذرة	-10894
▁الرأس	-10895
▁الراغ	-10896
▁الربط	-10897
▁الرزق	-10898
▁الرسل	-10899
▁ব	-10900
▁া	-10901
▁ে	-10902
▁த	-10903
▁ி	-10904
▁ක	-10905
▁න	-10906
▁්	-10907
▁ි	-10908
▁ก	-10909
▁ต	-10910
▁น	-10911
▁ป	-10912
▁ม	-10913
▁ล	-10914
▁ว	-10915
▁ห	-10916
▁อ	-10917
▁ะ	-10918
▁ั	-10919
▁ุ	-10920
▁แ	-10921
▁โ	-10922
▁่	-10923
▁์	-10924
▁ế	-10925
▁ị	-10926
▁ố	-10927
▁‍	-10928
▁’	-10929
▁†	-10930
▁‡	-10931
▁‭	-10932
▁⁠	-10933
▁⁣	-10934
▁⁦	-10935
▁⁧	-10936
▁简	-10937
سمو	-10938
واه	-10939
▁yt	-10940
▁خن	-10941
▁زَ	-10942
روية	-10943
▁Che	-10944
▁أقل	-10945
▁تود	-10946
▁صيا	-10947
▁آرائ	-10948
▁أقام	-10949
▁بقول	-10950
▁تحوي	-10951
▁تدين	-10952
▁جميل	-10953
▁سيمة	-10954
▁قائق	-10955
▁كلمة	-10956
▁لعقد	-10957
▁ليان	-10958
▁مثلث	-10959
▁مرتب	-10960
▁مفصل	-10961
▁نعام	-10962
▁وروى	-10963
▁وسمو	-10964
▁وفهم	-10965
▁ويعت	-10966
▁ينفذ	-10967
▁الرفض	-10968
▁الرهن	-10969
▁الزرق	-10970
▁الزنج	-10971
▁الزنك	-10972
▁السام	-10973
▁السبع	-10974
▁السبل	-10975
▁السرا	-10976
▁السفن	-10977
▁السكة	-10978
▁السند	-10979
▁السور	-10980
▁السيد	-10981
▁السيّ	-10982
▁الشاب	-10983
▁الشاغ	-10984
▁الشرب	-10985
▁الشرق	-10986
▁الشقق	-10987
▁الشكل	-10988
▁الشوط	-10989
▁الشوف	-10990
▁الشيف	-10991
▁الصلة	-10992
▁الصنف	-10993
▁الصَّ	-10994
▁الضرب	-10995
▁الطبخ	-10996
▁الطعن	-10997
▁الظلم	-10998
▁العاز	-10999
▁↓	-11000
▁⇧	-11001
▁−	-11002
▁≈	-11003
▁≡	-11004
▁⋆	-11005
▁⏤	-11006
▁─	-11007
▁━	-11008
▁█	-11009
▁░	-11010
▁▫	-11011
▁▬	-11012
▁▲	-11013
▁▶	-11014
▁►	-11015
▁◆	-11016
▁◉	-11017
▁◊	-11018
▁☀	-11019
▁☎	-11020
▁☑	-11021
▁☺	-11022
▁♀	-11023
▁♂	-11024
▁♛	-11025
▁♡	-11026
▁♦	-11027
▁♪	-11028
▁♫	-11029
▁⚡	-11030
▁⛔	-11031
▁✍	-11032
▁✓	-11033
▁✿	-11034
▁❀	-11035
▁❇	-11036
▁❝	-11037
▁❰	-11038
▁❱	-11039
▁⦁	-11040
▁⬅	-11041
▁⭕	-11042
▁り	-11043
▁一	-11044
▁기	-11045
ريج	-11046
قبة	-11047
▁بّ	-11048
ريحة	-11049
شراف	-11050
▁edi	-11051
▁riv	-11052
▁sec	-11053
▁ثين	-11054
▁حلب	-11055
▁عدو	-11056
▁قرب	-11057
▁لوث	-11058
▁ينز	-11059
▁ينف	-11060
▁ِّم	-11061
▁٢٠٠	-11062
رتفاع	-11063
▁edia	-11064
▁ارخص	-11065
▁استن	-11066
▁اطبة	-11067
▁بهما	-11068
▁تعود	-11069
▁خاصا	-11070
▁طلاب	-11071
▁واثق	-11072
▁ورقم	-11073
▁يعلم	-11074
▁الأمم	-11075
▁العال	-11076
▁العدو	-11077
▁العرق	-11078
▁العصر	-11079
▁العضو	-11080
▁العلا	-11081
▁العلي	-11082
▁العما	-11083
▁العوا	-11084
▁العود	-11085
▁العول	-11086
▁الغدد	-11087
▁الفئة	-11088
▁الفاش	-11089
▁الفاص	-11090
▁الفتى	-11091
▁الفرض	-11092
▁الفرع	-11093
▁الفرن	-11094
▁الفري	-11095
▁الفشل	-11096
▁الفطر	-11097
▁الفلا	-11098
▁الفور	-11099
▁ⵍ	-11100
▁ⵎ	-11101
▁ⵏ	-11102
▁ⵙ	-11103
▁。	-11104
▁《	-11105
▁」	-11106
▁】	-11107
▁う	-11108
▁か	-11109
▁が	-11110
▁こ	-11111
▁で	-11112
▁な	-11113
▁の	-11114
▁は	-11115
▁ら	-11116
▁る	-11117
▁を	-11118
▁イ	-11119
▁ク	-11120
▁グ	-11121
▁シ	-11122
▁ジ	-11123
▁ス	-11124
▁ッ	-11125
▁ト	-11126
▁ビ	-11127
▁フ	-11128
▁プ	-11129
▁ロ	-11130
▁中	-11131
▁人	-11132
▁台	-11133
▁多	-11134
▁天	-11135
▁年	-11136
▁文	-11137
▁新	-11138
▁日	-11139
▁本	-11140
▁灣	-11141
▁번	-11142
per	-11143
▁صق	-11144
▁”،	-11145
▁Tag	-11146
▁أصل	-11147
▁جيه	-11148
▁سيو	-11149
▁صيب	-11150
▁طاز	-11151
▁لمآ	-11152
▁نكن	-11153
▁يعد	-11154
▁Deve	-11155
▁ours	-11156
▁أجرت	-11157
▁ابنة	-11158
▁الأت	-11159
▁القس	-11160
▁سبيل	-11161
▁فهرس	-11162
▁مزود	-11163
▁يبني	-11164
▁يَتَ	-11165
▁-2018	-11166
▁Super	-11167
▁ences	-11168
▁اصلاح	-11169
▁الخاض	-11170
▁الفيد	-11171
▁القاص	-11172
▁القاض	-11173
▁القبر	-11174
▁القرب	-11175
▁القسط	-11176
▁القسم	-11177
▁القصص	-11178
▁القلم	-11179
▁القوا	-11180
▁القوة	-11181
▁القيم	-11182
▁الكاب	-11183
▁الكذب	-11184
▁الكرا	-11185
▁الكشف	-11186
▁الكوب	-11187
▁الكود	-11188
▁الكور	-11189
▁الكول	-11190
▁الكوم	-11191
▁الكيم	-11192
▁اللام	-11193
▁اللوح	-11194
▁اللون	-11195
▁الماج	-11196
▁الماي	-11197
▁المتج	-11198
▁المتف	-11199
▁이	-11200
▁	-11201
▁	-11202
▁	-11203
▁	-11204
▁	-11205
▁	-11206
▁	-11207
▁️	-11208
الو	-11209
تحت	-11210
حدة	-11211
نال	-11212
▁6،	-11213
▁ax	-11214
▁صت	-11215
▁هِ	-11216
▁وِ	-11217
▁وّ	-11218
اريف	-11219
داثة	-11220
روعة	-11221
▁has	-11222
▁ian	-11223
▁ons	-11224
▁اضر	-11225
▁خسر	-11226
▁راه	-11227
▁قمت	-11228
▁مشق	-11229
▁ياع	-11230
▁؟؟؟؟	-11231
▁أوجه	-11232
▁تلقت	-11233
▁جرين	-11234
▁حريق	-11235
▁فادة	-11236
▁قارب	-11237
▁قتنا	-11238
▁كتير	-11239
▁كليب	-11240
▁كوبر	-11241
▁للأن	-11242
▁للتن	-11243
▁محقق	-11244
▁ندوق	-11245
▁وذات	-11246
▁وفرة	-11247
▁ونها	-11248
▁يابة	-11249
▁ياته	-11250
▁يعكس	-11251
▁يمون	-11252
▁10000	-11253
▁2020،	-11254
▁About	-11255
▁الأبد	-11256
▁الرجل	-11257
▁الرطب	-11258
▁السلة	-11259
▁المتن	-11260
▁المثق	-11261
▁المجد	-11262
▁المحذ	-11263
▁المحف	-11264
▁المسا	-11265
▁المشغ	-11266
▁المشي	-11267
▁المعز	-11268
▁المند	-11269
▁المهد	-11270
▁المهن	-11271
▁الميك	-11272
▁الناق	-11273
▁النجم	-11274
▁النخل	-11275
▁النسخ	-11276
▁النصب	-11277
▁النصر	-11278
▁النظم	-11279
▁النقض	-11280
▁النمر	-11281
▁النهر	-11282
▁النية	-11283
▁النيج	-11284
▁الهدف	-11285
▁الواض	-11286
▁الورق	-11287
▁الوفد	-11288
▁الولد	-11289
▁اليات	-11290
▁اليرم	-11291
▁امتلك	-11292
▁املات	-11293
▁اميرا	-11294
▁انتشر	-11295
▁انتقد	-11296
▁انسان	-11297
▁انوية	-11298
▁انيوم	-11299
خات	-11300
▁oj	-11301
▁um	-11302
▁بؤ	-11303
▁بذ	-11304
▁دس	-11305
▁كخ	-11306
▁لٌ	-11307
▁مّ	-11308
▁نّ	-11309
▁ّن	-11310
رحمن	-11311
روبة	-11312
عمرة	-11313
مارة	-11314
▁-10	-11315
▁Ter	-11316
▁oor	-11317
▁تمة	-11318
▁جلس	-11319
▁حلا	-11320
▁درب	-11321
▁ذاً	-11322
▁ذير	-11323
▁ستغ	-11324
▁سوس	-11325
▁عرش	-11326
▁قيس	-11327
▁لأي	-11328
▁لصف	-11329
▁ليع	-11330
▁ملة	-11331
▁هدي	-11332
▁ورش	-11333
▁ورق	-11334
▁ِيم	-11335
▁/200	-11336
▁ized	-11337
▁ress	-11338
▁أدخل	-11339
▁أمني	-11340
▁اقول	-11341
▁المة	-11342
▁بموا	-11343
▁تصدق	-11344
▁حمله	-11345
▁حونة	-11346
▁دائق	-11347
▁عتبة	-11348
▁غسول	-11349
▁فالح	-11350
▁فالخ	-11351
▁فعلا	-11352
▁فيزا	-11353
▁قاله	-11354
▁قناة	-11355
▁قيبة	-11356
▁لكسب	-11357
▁للجد	-11358
▁لنيل	-11359
▁ونوع	-11360
▁ويصل	-11361
▁يفوق	-11362
▁الثام	-11363
▁الجدي	-11364
▁الحرك	-11365
▁الخيا	-11366
▁الدني	-11367
▁العلف	-11368
▁المات	-11369
▁بأفضل	-11370
▁بأنني	-11371
▁بالاس	-11372
▁بالبر	-11373
▁بالخط	-11374
▁بالري	-11375
▁بالغة	-11376
▁بالمت	-11377
▁بالمش	-11378
▁بالمط	-11379
▁بالمي	-11380
▁بالنا	-11381
▁بانها	-11382
▁بجودة	-11383
▁بحساب	-11384
▁بدائل	-11385
▁برؤية	-11386
▁براون	-11387
▁برصاص	-11388
▁بركات	-11389
▁بشركة	-11390
▁بعضنا	-11391
▁بعيدة	-11392
▁بقدرة	-11393
▁بكامل	-11394
▁بمركز	-11395
▁بمكان	-11396
▁بنادي	-11397
▁بنغال	-11398
▁بودرة	-11399
تية	-11400
ذاك	-11401
زئة	-11402
▁IL	-11403
▁IT	-11404
▁اا	-11405
▁اَ	-11406
▁تظ	-11407
▁تى	-11408
▁تِ	-11409
▁تْ	-11410
▁ذج	-11411
▁ذو	-11412
▁زق	-11413
سيوط	-11414
هاية	-11415
▁140	-11416
▁aur	-11417
▁أفع	-11418
▁أير	-11419
▁ائى	-11420
▁بائ	-11421
▁تات	-11422
▁تال	-11423
▁تبت	-11424
▁تمو	-11425
▁ركي	-11426
▁سلك	-11427
▁صيل	-11428
▁قصة	-11429
▁لجي	-11430
▁ميق	-11431
▁َةَ	-11432
▁ِرُ	-11433
▁ْرِ	-11434
▁Trad	-11435
▁أكمل	-11436
▁اشير	-11437
▁الية	-11438
▁بحجم	-11439
▁بشخص	-11440
▁بشير	-11441
▁بلات	-11442
▁بيده	-11443
▁تعزز	-11444
▁تعني	-11445
▁خبات	-11446
▁دادي	-11447
▁زلاق	-11448
▁ستست	-11449
▁سويت	-11450
▁شبكة	-11451
▁طارق	-11452
▁عينه	-11453
▁قتله	-11454
▁كرير	-11455
▁لتست	-11456
▁لمخل	-11457
▁مسقط	-11458
▁ناوي	-11459
▁هدفة	-11460
▁واكت	-11461
▁يادة	-11462
▁achin	-11463
▁آنذاك	-11464
▁أسيوط	-11465
▁اريوه	-11466
▁الأرب	-11467
▁الذين	-11468
▁العمق	-11469
▁الناع	-11470
▁بورصة	-11471
▁بيليه	-11472
▁بينهم	-11473
▁تأخير	-11474
▁تأهيل	-11475
▁تالية	-11476
▁تتحرك	-11477
▁تتحول	-11478
▁تتقدم	-11479
▁تتوفر	-11480
▁تجارب	-11481
▁تجارة	-11482
▁تحتفظ	-11483
▁تحصيل	-11484
▁تحولت	-11485
▁تخزين	-11486
▁تدبير	-11487
▁تدهور	-11488
▁تربية	-11489
▁ترتبط	-11490
▁ترخيص	-11491
▁ترطيب	-11492
▁تركيب	-11493
▁تركية	-11494
▁تساوي	-11495
▁تسببت	-11496
▁تسجيل	-11497
▁تسريع	-11498
▁تسليم	-11499
ارئ	-11500
ارق	-11501
اره	-11502
حار	-11503
خار	-11504
ضار	-11505
▁.,	-11506
▁كص	-11507
▁يئ	-11508
▁يّ	-11509
▁يْ	-11510
ريري	-11511
▁195	-11512
▁edu	-11513
▁now	-11514
▁أحج	-11515
▁أهد	-11516
▁أوف	-11517
▁إحص	-11518
▁إلق	-11519
▁اشي	-11520
▁بتط	-11521
▁بعل	-11522
▁تار	-11523
▁ترس	-11524
▁ثرة	-11525
▁طات	-11526
▁فهو	-11527
▁فوف	-11528
▁مله	-11529
▁منو	-11530
▁نتر	-11531
▁نيم	-11532
▁وإس	-11533
▁وظل	-11534
▁ولغ	-11535
▁ومُ	-11536
▁َّب	-11537
▁anon	-11538
▁اساس	-11539
▁اطرة	-11540
▁التذ	-11541
▁الشّ	-11542
▁حرية	-11543
▁زمني	-11544
▁شيرة	-11545
▁فضلا	-11546
▁لمسة	-11547
▁لواء	-11548
▁مرير	-11549
▁وائم	-11550
▁واسع	-11551
▁وبحث	-11552
▁وسير	-11553
▁وظبي	-11554
▁يزور	-11555
▁يعطي	-11556
▁ينفي	-11557
▁يوما	-11558
▁أحجام	-11559
▁أخلاق	-11560
▁إحضار	-11561
▁إلقاء	-11562
▁اعتبر	-11563
▁الأست	-11564
▁الانب	-11565
▁الجوع	-11566
▁الحاد	-11567
▁القرى	-11568
▁المار	-11569
▁المنف	-11570
▁بفارق	-11571
▁تحققت	-11572
▁تسمية	-11573
▁تسيير	-11574
▁تشارك	-11575
▁تشخيص	-11576
▁تشريع	-11577
▁تصفية	-11578
▁تصويت	-11579
▁تضمنت	-11580
▁تطالب	-11581
▁تطهير	-11582
▁تعامل	-11583
▁تعاون	-11584
▁تعتزم	-11585
▁تعزيز	-11586
▁تغذية	-11587
▁تغليف	-11588
▁تفاهم	-11589
▁تفتقر	-11590
▁تفجير	-11591
▁تفصيل	-11592
▁تقليل	-11593
▁تقييم	-11594
▁تلاحظ	-11595
▁تلبية	-11596
▁تمكنت	-11597
▁تمويل	-11598
▁تناقض	-11599
ؤلؤ	-11600
انَ	-11601
باي	-11602
جوم	-11603
ذاذ	-11604
شان	-11605
غان	-11606
يدن	-11607
▁زِ	-11608
جنوب	-11609
ربما	-11610
سعيد	-11611
مالك	-11612
▁:46	-11613
▁Inc	-11614
▁ics	-11615
▁may	-11616
▁أعط	-11617
▁ارا	-11618
▁ايت	-11619
▁بتر	-11620
▁تان	-11621
▁خين	-11622
▁راخ	-11623
▁ستُ	-11624
▁طنا	-11625
▁طوب	-11626
▁غري	-11627
▁نفي	-11628
▁وتي	-11629
▁َّا	-11630
erial	-11631
▁Prev	-11632
▁vent	-11633
▁آيات	-11634
▁أقدم	-11635
▁توضح	-11636
▁جرعة	-11637
▁حالت	-11638
▁راسة	-11639
▁رذاذ	-11640
▁زيمة	-11641
▁صلبة	-11642
▁فسية	-11643
▁كالآ	-11644
▁لطرح	-11645
▁ملحة	-11646
▁وأمن	-11647
▁وأهم	-11648
▁وعاء	-11649
▁وْمَ	-11650
▁يستج	-11651
▁يسلم	-11652
▁يقطع	-11653
▁يميل	-11654
▁أشياء	-11655
▁أفغان	-11656
▁اجهزة	-11657
▁استشه	-11658
▁الحصى	-11659
▁الرفي	-11660
▁العار	-11661
▁المان	-11662
▁النيل	-11663
▁باللي	-11664
▁بايدن	-11665
▁تسخين	-11666
▁تنخفض	-11667
▁توافق	-11668
▁توسيع	-11669
▁توفيق	-11670
▁توقيع	-11671
▁تيبات	-11672
▁ثقيله	-11673
▁ثلاثي	-11674
▁ثماني	-11675
▁جازات	-11676
▁جالية	-11677
▁جانبي	-11678
▁جرائم	-11679
▁جريمة	-11680
▁جعلنا	-11681
▁جمهور	-11682
▁جميلة	-11683
▁جنسية	-11684
▁حاسبة	-11685
▁حاسمة	-11686
▁حراسة	-11687
▁حسبما	-11688
▁حصلوا	-11689
▁حضوره	-11690
▁حملها	-11691
▁حوالي	-11692
▁حياتي	-11693
▁خابات	-11694
▁خاصية	-11695
▁خاطئة	-11696
▁خالية	-11697
▁خباري	-11698
▁خرجوا	-11699
أبو	-11700
شين	-11701
▁Ag	-11702
▁El	-11703
▁رر	-11704
▁سح	-11705
▁عذ	-11706
▁عه	-11707
▁عى	-11708
▁فئ	-11709
ارين	-11710
▁lic	-11711
▁اجة	-11712
▁اسر	-11713
▁جنس	-11714
▁حمة	-11715
▁ضعة	-11716
▁عزل	-11717
▁فظة	-11718
▁كبة	-11719
▁لرا	-11720
▁لمة	-11721
▁لمز	-11722
▁ياد	-11723
▁ّهم	-11724
فيديو	-11725
▁1000	-11726
▁أدري	-11727
▁أصاب	-11728
▁ارضة	-11729
▁الهز	-11730
▁ايرة	-11731
▁بعدة	-11732
▁بيوم	-11733
▁تيار	-11734
▁خانة	-11735
▁شراء	-11736
▁صدقة	-11737
▁فعلي	-11738
▁كالق	-11739
▁لأهم	-11740
▁للتش	-11741
▁مملك	-11742
▁موني	-11743
▁نأخذ	-11744
▁هجوم	-11745
▁والذ	-11746
▁والض	-11747
▁وتين	-11748
▁وسلا	-11749
▁يطلع	-11750
▁أرقام	-11751
▁أشكال	-11752
▁أعراض	-11753
▁أمامه	-11754
▁الأخت	-11755
▁الأمل	-11756
▁التقط	-11757
▁الساق	-11758
▁الشاط	-11759
▁الضحك	-11760
▁الفصل	-11761
▁الكاف	-11762
▁المجه	-11763
▁تابعة	-11764
▁تدشين	-11765
▁حينئذ	-11766
▁خزانة	-11767
▁خشبية	-11768
▁خصصات	-11769
▁خصيات	-11770
▁خطورة	-11771
▁دانيا	-11772
▁دراما	-11773
▁دورها	-11774
▁دورًا	-11775
▁ديزني	-11776
▁ديفيد	-11777
▁ذكرنا	-11778
▁رأسهم	-11779
▁رئيسي	-11780
▁رائدة	-11781
▁رائها	-11782
▁راجعة	-11783
▁راعات	-11784
▁رافعة	-11785
▁رافيت	-11786
▁راقية	-11787
▁رالية	-11788
▁ربحية	-11789
▁ربيعة	-11790
▁رسالت	-11791
▁رسمية	-11792
▁رسوله	-11793
▁رعاية	-11794
▁رمزية	-11795
▁رواتب	-11796
▁روجين	-11797
▁ريادة	-11798
▁رياضة	-11799
axy	-11800
خري	-11801
▁my	-11802
▁سّ	-11803
▁فذ	-11804
▁فغ	-11805
▁فم	-11806
▁كّ	-11807
▁نئ	-11808
▁نث	-11809
ريرا	-11810
هنئة	-11811
يسير	-11812
▁els	-11813
▁iti	-11814
▁بكر	-11815
▁توز	-11816
▁جلد	-11817
▁جيف	-11818
▁رنت	-11819
▁زمي	-11820
▁سرا	-11821
▁صخر	-11822
▁عوم	-11823
▁فسأ	-11824
▁فقة	-11825
▁فية	-11826
▁لاك	-11827
▁لَّ	-11828
▁نار	-11829
▁وتُ	-11830
▁وحة	-11831
▁ونغ	-11832
▁يَّ	-11833
نامجه	-11834
▁crus	-11835
▁آلام	-11836
▁أعين	-11837
▁الرص	-11838
▁القش	-11839
▁الكش	-11840
▁انفص	-11841
▁بنوع	-11842
▁تجدد	-11843
▁توزع	-11844
▁حسني	-11845
▁رادي	-11846
▁رحمة	-11847
▁رعات	-11848
▁فالد	-11849
▁كالي	-11850
▁لأهل	-11851
▁ليات	-11852
▁ليمه	-11853
▁مادة	-11854
▁مخدر	-11855
▁منين	-11856
▁وتها	-11857
▁وتير	-11858
▁وسنة	-11859
▁وعمر	-11860
▁ولقد	-11861
▁ities	-11862
▁اغاني	-11863
▁الاقل	-11864
▁الرعب	-11865
▁الصبي	-11866
▁العدا	-11867
▁الهضم	-11868
▁بدولة	-11869
▁تعميم	-11870
▁تيسير	-11871
▁راديو	-11872
▁زابيث	-11873
▁زوجها	-11874
▁زيادة	-11875
▁زيران	-11876
▁سبائك	-11877
▁سباحة	-11878
▁سبباً	-11879
▁ستقوم	-11880
▁سفارة	-11881
▁سفينة	-11882
▁سكنية	-11883
▁سلطات	-11884
▁سليمة	-11885
▁سماحة	-11886
▁سماعة	-11887
▁سهولة	-11888
▁سودان	-11889
▁سياحة	-11890
▁سياسي	-11891
▁سيحدث	-11892
▁سيدنا	-11893
▁شاركت	-11894
▁شامبو	-11895
▁شبكات	-11896
▁شديدة	-11897
▁شرائح	-11898
▁شريطة	-11899
dex	-11900
دام	-11901
ماض	-11902
مام	-11903
وكس	-11904
▁6]	-11905
▁SI	-11906
▁ud	-11907
▁كإ	-11908
▁كز	-11909
▁كط	-11910
▁كغ	-11911
▁كك	-11912
▁كى	-11913
▁كْ	-11914
لامح	-11915
يلول	-11916
▁إِل	-11917
▁ارب	-11918
▁بتد	-11919
▁بهة	-11920
▁تهى	-11921
▁توس	-11922
▁ثقب	-11923
▁حيح	-11924
▁حَت	-11925
▁دها	-11926
▁رود	-11927
▁رور	-11928
▁ضير	-11929
▁طرة	-11930
▁عري	-11931
▁يام	-11932
▁يبي	-11933
▁يتج	-11934
▁يري	-11935
▁َرِ	-11936
▁2003	-11937
▁إيلي	-11938
▁ازمة	-11939
▁البه	-11940
▁بولي	-11941
▁تعطي	-11942
▁حسام	-11943
▁شيات	-11944
▁صرار	-11945
▁صيدا	-11946
▁فحين	-11947
▁فوكس	-11948
▁لخطر	-11949
▁لكان	-11950
▁لمصر	-11951
▁لميل	-11952
▁ليال	-11953
▁مخطط	-11954
▁مراك	-11955
▁مشرو	-11956
▁ونقل	-11957
▁يتام	-11958
▁index	-11959
▁أيلول	-11960
▁إبراز	-11961
▁اتحاد	-11962
▁اصحاب	-11963
▁اعضاء	-11964
▁الضيف	-11965
▁العاه	-11966
▁بالرب	-11967
▁بعدما	-11968
▁تسديد	-11969
▁شقيقه	-11970
▁شكراً	-11971
▁صابون	-11972
▁صادقة	-11973
▁صارات	-11974
▁صباحا	-11975
▁صفقات	-11976
▁صلاته	-11977
▁صناعي	-11978
▁ضحايا	-11979
▁ضيرات	-11980
▁طاعات	-11981
▁طالبا	-11982
▁طبيبك	-11983
▁طوطات	-11984
▁عائشة	-11985
▁عادية	-11986
▁عبارة	-11987
▁عددًا	-11988
▁عشرين	-11989
▁عصابة	-11990
▁عضوية	-11991
▁علمنا	-11992
▁علينا	-11993
▁عملاء	-11994
▁عمولة	-11995
▁عنوان	-11996
▁عنيفة	-11997
▁عُمان	-11998
▁غامضة	-11999
ادو	-12000
اهي	-12001
طول	-12002
▁Sm	-12003
▁aa	-12004
▁io	-12005
▁ll	-12006
▁جج	-12007
▁١٥	-12008
؟؟؟؟	-12009
ولار	-12010
▁:59	-12011
▁أذه	-12012
▁اشق	-12013
▁اكم	-12014
▁بمص	-12015
▁خوذ	-12016
▁دنا	-12017
▁رمي	-12018
▁سيت	-12019
▁عنق	-12020
▁فاب	-12021
▁فول	-12022
▁قبي	-12023
▁قوط	-12024
▁لاش	-12025
▁لبر	-12026
▁للآ	-12027
▁للى	-12028
▁واء	-12029
▁ورت	-12030
▁ييد	-12031
؟؟؟؟؟	-12032
ولوجي	-12033
▁comp	-12034
▁اتصل	-12035
▁الإع	-12036
▁التث	-12037
▁التخ	-12038
▁السا	-12039
▁برنت	-12040
▁بمقت	-12041
▁بيبي	-12042
▁تجلس	-12043
▁تخلق	-12044
▁جدول	-12045
▁خالف	-12046
▁ذكرى	-12047
▁رصاص	-12048
▁سلبا	-12049
▁عادي	-12050
▁فعال	-12051
▁فكري	-12052
▁للرا	-12053
▁لوقف	-12054
▁هطول	-12055
▁وإما	-12056
▁وحضر	-12057
▁وكما	-12058
▁أحببت	-12059
▁أذهان	-12060
▁التين	-12061
▁الثور	-12062
▁السال	-12063
▁بالاش	-12064
▁بخلاف	-12065
▁بشرية	-12066
▁حاليا	-12067
▁دادات	-12068
▁ستبقى	-12069
▁غيرات	-12070
▁غيرهم	-12071
▁فاطمة	-12072
▁فتتاح	-12073
▁فترات	-12074
▁فعالة	-12075
▁فلوري	-12076
▁قاعات	-12077
▁قبلها	-12078
▁قتادة	-12079
▁قتلوا	-12080
▁قدرته	-12081
▁قراره	-12082
▁قضائي	-12083
▁كاذبة	-12084
▁كارات	-12085
▁كبديل	-12086
▁كتابه	-12087
▁كريات	-12088
▁كريمة	-12089
▁كقوله	-12090
▁لأداء	-12091
▁لأفضل	-12092
▁لأنَّ	-12093
▁لاتها	-12094
▁لاحقة	-12095
▁لازمة	-12096
▁لافات	-12097
▁لالات	-12098
▁لايات	-12099
اير	-12100
صير	-12101
▁-،	-12102
▁8%	-12103
▁gt	-12104
▁حج	-12105
▁حش	-12106
▁حو	-12107
▁حْ	-12108
▁رْ	-12109
▁:23	-12110
▁:24	-12111
▁Ant	-12112
▁Pag	-12113
▁cel	-12114
▁eed	-12115
▁ren	-12116
▁أحس	-12117
▁إلت	-12118
▁ابو	-12119
▁ارى	-12120
▁انغ	-12121
▁بست	-12122
▁تاد	-12123
▁ثمر	-12124
▁زوا	-12125
▁ساف	-12126
▁ضال	-12127
▁عذر	-12128
▁غور	-12129
▁فست	-12130
▁كاد	-12131
▁كفر	-12132
▁ماق	-12133
▁يلة	-12134
▁1443	-12135
▁Page	-12136
▁ited	-12137
▁أخذه	-12138
▁الحن	-12139
▁ربات	-12140
▁رورة	-12141
▁سيدس	-12142
▁شرقي	-12143
▁صوره	-12144
▁فراج	-12145
▁قضاة	-12146
▁كبات	-12147
▁للخط	-12148
▁منير	-12149
▁وفاز	-12150
▁ومنت	-12151
▁إقناع	-12152
▁اربين	-12153
▁الامر	-12154
▁الثوم	-12155
▁الحفر	-12156
▁العيب	-12157
▁الماد	-12158
▁المنط	-12159
▁النور	-12160
▁تستعد	-12161
▁تقصير	-12162
▁ثقافة	-12163
▁زائدة	-12164
▁زوايا	-12165
▁لجهود	-12166
▁لحساب	-12167
▁لحضور	-12168
▁لديهم	-12169
▁لرجال	-12170
▁لرياض	-12171
▁لشركة	-12172
▁لصديق	-12173
▁لفائف	-12174
▁لقرار	-12175
▁لقياس	-12176
▁لقيام	-12177
▁لكننا	-12178
▁لكنهم	-12179
▁لكونه	-12180
▁للابت	-12181
▁للاسم	-12182
▁للبنك	-12183
▁للجنة	-12184
▁للحزب	-12185
▁للخبر	-12186
▁للدور	-12187
▁للرجل	-12188
▁للسهم	-12189
▁للسيد	-12190
▁للقلق	-12191
▁للملا	-12192
▁للناس	-12193
▁للنبي	-12194
▁للنمو	-12195
▁للوجه	-12196
▁لماني	-12197
▁لمحمد	-12198
▁لمركز	-12199
تاب	-12200
يطة	-12201
▁رآ	-12202
▁غت	-12203
ادير	-12204
راها	-12205
ستها	-12206
صدرة	-12207
لاعق	-12208
▁Mon	-12209
▁ile	-12210
▁أدت	-12211
▁ابه	-12212
▁احد	-12213
▁اها	-12214
▁جبل	-12215
▁جوع	-12216
▁حظك	-12217
▁حيز	-12218
▁رال	-12219
▁ران	-12220
▁رول	-12221
▁سها	-12222
▁صحك	-12223
▁صلب	-12224
▁ضية	-12225
▁طاب	-12226
▁فها	-12227
▁كيت	-12228
▁لدا	-12229
▁ماي	-12230
▁نير	-12231
▁1990	-12232
▁Serv	-12233
▁أبدا	-12234
▁أروع	-12235
▁الأذ	-12236
▁الأي	-12237
▁الأَ	-12238
▁بلال	-12239
▁توجد	-12240
▁جدوى	-12241
▁جعين	-12242
▁جواد	-12243
▁رؤية	-12244
▁ضايا	-12245
▁طنين	-12246
▁فقدت	-12247
▁لدية	-12248
▁لملي	-12249
▁لموح	-12250
▁موات	-12251
▁وذوي	-12252
▁وقفة	-12253
▁يوفق	-12254
▁يُعد	-12255
▁/2013	-12256
▁التها	-12257
▁الجوف	-12258
▁الدار	-12259
▁الدخل	-12260
▁الفكر	-12261
▁اوراق	-12262
▁صحراء	-12263
▁لاتين	-12264
▁للذهب	-12265
▁للشخص	-12266
▁لمكان	-12267
▁لمميز	-12268
▁لنادي	-12269
▁لهجوم	-12270
▁لوزير	-12271
▁لونات	-12272
▁ليزيا	-12273
▁ليشيا	-12274
▁ليفون	-12275
▁ليقوم	-12276
▁ليمان	-12277
▁مائدة	-12278
▁مائية	-12279
▁مالات	-12280
▁مايكل	-12281
▁مبادئ	-12282
▁متصلة	-12283
▁متعلق	-12284
▁متقدم	-12285
▁متوقع	-12286
▁مجهود	-12287
▁محظوظ	-12288
▁محلات	-12289
▁محملة	-12290
▁مخالف	-12291
▁مختبر	-12292
▁مدارس	-12293
▁مدافع	-12294
▁مدنية	-12295
▁مدونة	-12296
▁مديري	-12297
▁مذكرة	-12298
▁مرتفع	-12299
يدس	-12300
▁/6	-12301
▁جت	-12302
▁جغ	-12303
▁جِ	-12304
▁جّ	-12305
▁جْ	-12306
▁صص	-12307
▁غى	-12308
▁قق	-12309
▁ُ:	-12310
وكيو	-12311
ونية	-12312
▁mal	-12313
▁جات	-12314
▁جول	-12315
▁جية	-12316
▁حون	-12317
▁خلت	-12318
▁زائ	-12319
▁شال	-12320
▁طان	-12321
▁قرا	-12322
▁قها	-12323
▁قية	-12324
▁قير	-12325
▁قين	-12326
▁كمع	-12327
▁كنا	-12328
▁مائ	-12329
▁هود	-12330
▁وعق	-12331
▁ونش	-12332
▁ياك	-12333
▁آلية	-12334
▁أذكر	-12335
▁أيار	-12336
▁الإِ	-12337
▁الحج	-12338
▁الون	-12339
▁بارز	-12340
▁بحجة	-12341
▁تفيد	-12342
▁رفيق	-12343
▁ضربة	-12344
▁قامة	-12345
▁قامت	-12346
▁قروض	-12347
▁مثله	-12348
▁مدير	-12349
▁ميها	-12350
▁نكار	-12351
▁نهار	-12352
▁يفهم	-12353
▁يليق	-12354
▁ينات	-12355
▁Inter	-12356
▁أركان	-12357
▁إجابة	-12358
▁التلك	-12359
▁الجبس	-12360
▁الحصة	-12361
▁الرقم	-12362
▁العزي	-12363
▁اللثة	-12364
▁المتص	-12365
▁بشارة	-12366
▁بطانة	-12367
▁تتوقف	-12368
▁تدعيم	-12369
▁تشرين	-12370
▁جنازة	-12371
▁سيصبح	-12372
▁طبيعي	-12373
▁طوكيو	-12374
▁قدموا	-12375
▁قرابة	-12376
▁لأعلى	-12377
▁للصحة	-12378
▁مردود	-12379
▁مركزا	-12380
▁مركزي	-12381
▁مروحة	-12382
▁مزارع	-12383
▁مزورة	-12384
▁مسائل	-12385
▁مساعي	-12386
▁مستحي	-12387
▁مستقل	-12388
▁مستوح	-12389
▁مسيحي	-12390
▁مسيرة	-12391
▁مشددة	-12392
▁مشروب	-12393
▁مشهور	-12394
▁مشيرا	-12395
▁مشيرة	-12396
▁مصطفى	-12397
▁مضيفه	-12398
▁مطلعة	-12399
ائه	-12400
هذه	-12401
يور	-12402
▁By	-12403
▁ER	-12404
▁ck	-12405
▁po	-12406
▁ss	-12407
▁دث	-12408
▁دِ	-12409
▁دّ	-12410
وراه	-12411
▁/04	-12412
▁ony	-12413
▁أشد	-12414
▁إين	-12415
▁بأس	-12416
▁جوف	-12417
▁حاب	-12418
▁حلق	-12419
▁دية	-12420
▁رنا	-12421
▁عاب	-12422
▁فاء	-12423
▁منط	-12424
▁وبط	-12425
▁ومغ	-12426
▁يتغ	-12427
▁post	-12428
▁ream	-12429
▁أجرة	-12430
▁أمّا	-12431
▁الإي	-12432
▁الطّ	-12433
▁الفة	-12434
▁تنشط	-12435
▁جذور	-12436
▁حصلت	-12437
▁حضرم	-12438
▁لأجل	-12439
▁لايع	-12440
▁لتين	-12441
▁للضي	-12442
▁للنا	-12443
▁مترا	-12444
▁مولة	-12445
▁ندما	-12446
▁وأبي	-12447
▁وأدى	-12448
▁وزنه	-12449
▁وعند	-12450
▁يرية	-12451
▁يعنى	-12452
▁-2014	-12453
▁أسطول	-12454
▁الآية	-12455
▁الأني	-12456
▁التاب	-12457
▁الثقة	-12458
▁الدمش	-12459
▁الشهد	-12460
▁بلدنا	-12461
▁تعالي	-12462
▁جمالي	-12463
▁جنوبي	-12464
▁خفيفة	-12465
▁ضانات	-12466
▁غرامة	-12467
▁قريبا	-12468
▁كولات	-12469
▁لقائه	-12470
▁محبوب	-12471
▁مظلات	-12472
▁معاني	-12473
▁معتمد	-12474
▁معرفة	-12475
▁معروض	-12476
▁معسكر	-12477
▁مفتاح	-12478
▁مفتوح	-12479
▁مقاتل	-12480
▁مقاطع	-12481
▁مقالا	-12482
▁مقترح	-12483
▁مكاسب	-12484
▁مكانة	-12485
▁ملعقة	-12486
▁مليار	-12487
▁ممكنة	-12488
▁مناسب	-12489
▁مناطق	-12490
▁منتصف	-12491
▁منزله	-12492
▁منشآت	-12493
▁منصور	-12494
▁منطقة	-12495
▁مهاجر	-12496
▁موارد	-12497
▁مواقع	-12498
▁مولاي	-12499
روا	-12500
ورى	-12501
▁.1	-12502
▁EL	-12503
▁mm	-12504
▁om	-12505
بيئة	-12506
رويت	-12507
يعاب	-12508
▁eth	-12509
▁raw	-12510
▁أدب	-12511
▁إخت	-12512
▁إني	-12513
▁اطا	-12514
▁تلا	-12515
▁زان	-12516
▁سلي	-12517
▁سيُ	-12518
▁شيك	-12519
▁ظمة	-12520
▁ظيف	-12521
▁فشل	-12522
▁لتط	-12523
▁لمظ	-12524
▁نحة	-12525
▁نور	-12526
▁وفض	-12527
▁يكو	-12528
▁Micr	-12529
▁elle	-12530
▁أحمر	-12531
▁ابلة	-12532
▁اقتر	-12533
▁جلات	-12534
▁ريقي	-12535
▁شحنة	-12536
▁شمعة	-12537
▁عضاء	-12538
▁لحجم	-12539
▁لذوي	-12540
▁لعدد	-12541
▁ليزي	-12542
▁ماية	-12543
▁نائه	-12544
▁نادى	-12545
▁ناري	-12546
▁واتر	-12547
▁وطين	-12548
▁يطرح	-12549
▁يقدر	-12550
▁ينها	-12551
▁ينيك	-12552
رويترز	-12553
▁اتجاه	-12554
▁استاذ	-12555
▁الألي	-12556
▁التسل	-12557
▁الفاس	-12558
▁الفخر	-12559
▁بكثرة	-12560
▁تشديد	-12561
▁تعرفي	-12562
▁شاغرة	-12563
▁لليوم	-12564
▁محمّد	-12565
▁معارض	-12566
▁ميجاب	-12567
▁ميلان	-12568
▁ميوني	-12569
▁نارية	-12570
▁نامجه	-12571
▁نانسي	-12572
▁نتعرف	-12573
▁نتمنى	-12574
▁ندسين	-12575
▁نشطاء	-12576
▁نصائح	-12577
▁نظيره	-12578
▁نظيفة	-12579
▁نلاحظ	-12580
▁نهائي	-12581
▁نهاية	-12582
▁نوعها	-12583
▁نيابة	-12584
▁هابية	-12585
▁هتمام	-12586
▁هجوما	-12587
▁هدفاً	-12588
▁ههههه	-12589
▁هواتف	-12590
▁هواوي	-12591
▁هياكل	-12592
▁هيلات	-12593
▁وآلات	-12594
▁وأشهر	-12595
▁وأطلق	-12596
▁وأعلن	-12597
▁وأفضل	-12598
▁وأيضا	-12599
ليز	-12600
يدز	-12601
▁ue	-12602
▁إغ	-12603
▁شل	-12604
▁شُ	-12605
▁شِ	-12606
▁شْ	-12607
رارة	-12608
رتبة	-12609
ليون	-12610
يطرة	-12611
▁20,	-12612
▁إذن	-12613
▁إيه	-12614
▁ابر	-12615
▁ثوب	-12616
▁جلي	-12617
▁ختم	-12618
▁خمة	-12619
▁درج	-12620
▁دلي	-12621
▁شون	-12622
▁طبة	-12623
▁عقب	-12624
▁عني	-12625
▁كلي	-12626
▁وخل	-12627
▁يتق	-12628
▁ْرَ	-12629
▁ient	-12630
▁ular	-12631
▁أنهم	-12632
▁تحصل	-12633
▁تسمح	-12634
▁حذاء	-12635
▁سلمت	-12636
▁طاير	-12637
▁غاثة	-12638
▁قاعة	-12639
▁لافة	-12640
▁للطب	-12641
▁متجر	-12642
▁مواط	-12643
▁واهر	-12644
▁وقلب	-12645
▁وكذا	-12646
▁email	-12647
▁iness	-12648
▁أثناء	-12649
▁أسوان	-12650
▁الإخت	-12651
▁التعل	-12652
▁الحرف	-12653
▁السكك	-12654
▁السني	-12655
▁العدل	-12656
▁اولات	-12657
▁بشاشة	-12658
▁بعيدا	-12659
▁تصاعد	-12660
▁جلسات	-12661
▁رابات	-12662
▁طالبت	-12663
▁عجينة	-12664
▁ماسرة	-12665
▁ميمات	-12666
▁وائها	-12667
▁واجدة	-12668
▁والأب	-12669
▁والأع	-12670
▁والاد	-12671
▁والاز	-12672
▁والام	-12673
▁والان	-12674
▁والتد	-12675
▁والتص	-12676
▁والتع	-12677
▁والتك	-12678
▁والتى	-12679
▁والتي	-12680
▁والحب	-12681
▁والحد	-12682
▁والحي	-12683
▁والخص	-12684
▁والدا	-12685
▁والدي	-12686
▁والرا	-12687
▁والرد	-12688
▁والري	-12689
▁والفر	-12690
▁والفع	-12691
▁واللا	-12692
▁واللي	-12693
▁والمؤ	-12694
▁والما	-12695
▁والمخ	-12696
▁والمض	-12697
▁والمو	-12698
▁والمُ	-12699
▁.[	-12700
▁eg	-12701
▁rt	-12702
▁آر	-12703
▁ضن	-12704
▁ضَ	-12705
▁غة	-12706
ينيا	-12707
▁-06	-12708
▁/05	-12709
▁axy	-12710
▁exp	-12711
▁أبو	-12712
▁أيا	-12713
▁ئدة	-12714
▁بأح	-12715
▁بتخ	-12716
▁بضم	-12717
▁تاح	-12718
▁تلع	-12719
▁جاع	-12720
▁حيا	-12721
▁شاع	-12722
▁شيا	-12723
▁ضار	-12724
▁فرس	-12725
▁كمن	-12726
▁نقي	-12727
▁نيا	-12728
▁هوك	-12729
▁وهن	-12730
▁َرَ	-12731
▁ّرت	-12732
غانية	-12733
▁أصول	-12734
▁ادير	-12735
▁العط	-12736
▁العَ	-12737
▁العُ	-12738
▁اليا	-12739
▁ثائق	-12740
▁خزان	-12741
▁طرحه	-12742
▁عادت	-12743
▁فلور	-12744
▁لاوي	-12745
▁لتصل	-12746
▁للبن	-12747
▁لمات	-12748
▁مثلا	-12749
▁نملك	-12750
▁وحقق	-12751
▁وسطة	-12752
▁يحكم	-12753
▁يصلح	-12754
▁الحدث	-12755
▁السوا	-12756
▁الطيب	-12757
▁العاد	-12758
▁العنا	-12759
▁العون	-12760
▁العيد	-12761
▁الكوف	-12762
▁تركيز	-12763
▁تلميع	-12764
▁تمارس	-12765
▁زعماء	-12766
▁سلالة	-12767
▁علماء	-12768
▁علمية	-12769
▁غينيا	-12770
▁قافلة	-12771
▁قبيلة	-12772
▁لتيكو	-12773
▁والأق	-12774
▁والاع	-12775
▁والمز	-12776
▁والنا	-12777
▁والوا	-12778
▁والور	-12779
▁وانات	-12780
▁واوضح	-12781
▁وبارك	-12782
▁وبايل	-12783
▁وبفضل	-12784
▁وبقية	-12785
▁وبهذا	-12786
▁وتبقى	-12787
▁وتبين	-12788
▁وتجدر	-12789
▁وتحقق	-12790
▁وتدخل	-12791
▁وتزيد	-12792
▁وتسبب	-12793
▁وتسمى	-12794
▁وتطلع	-12795
▁وتعرض	-12796
▁وتقوم	-12797
▁وتكون	-12798
▁وتيرة	-12799
ثيل	-12800
▁EO	-12801
▁au	-12802
▁ey	-12803
▁خْ	-12804
▁هة	-12805
▁هذ	-12806
احقة	-12807
اليل	-12808
ربول	-12809
ونيو	-12810
▁-13	-12811
▁:25	-12812
▁:44	-12813
▁ier	-12814
▁ألس	-12815
▁ؤمن	-12816
▁إيس	-12817
▁ائك	-12818
▁تتر	-12819
▁تيل	-12820
▁حمص	-12821
▁خاب	-12822
▁خاد	-12823
▁خيا	-12824
▁رعة	-12825
▁شما	-12826
▁شيل	-12827
▁صمت	-12828
▁قوة	-12829
▁لائ	-12830
▁متخ	-12831
▁نيل	-12832
▁هال	-12833
▁هلي	-12834
▁هيا	-12835
▁وغل	-12836
▁يِّ	-12837
▁ّاً	-12838
▁أغلى	-12839
▁الحث	-12840
▁بصنع	-12841
▁بكأس	-12842
▁تبعا	-12843
▁تضيف	-12844
▁عملا	-12845
▁قلين	-12846
▁كونه	-12847
▁لادة	-12848
▁للأس	-12849
▁للمع	-12850
▁لليل	-12851
▁نفقة	-12852
▁يتال	-12853
▁يحظر	-12854
▁يسار	-12855
▁يغلب	-12856
▁يفتح	-12857
▁يمان	-12858
▁ألفاً	-12859
▁الساع	-12860
▁العسل	-12861
▁المشر	-12862
▁المقط	-12863
▁النشط	-12864
▁تتدخل	-12865
▁تختار	-12866
▁ستخدم	-12867
▁فنزوي	-12868
▁مواضع	-12869
▁وثائق	-12870
▁وثاني	-12871
▁وجدوا	-12872
▁وجعله	-12873
▁وجهات	-12874
▁وجهود	-12875
▁وجيزة	-12876
▁وحالة	-12877
▁وحدها	-12878
▁وحضور	-12879
▁وخارج	-12880
▁ودرجة	-12881
▁ودعات	-12882
▁ودولي	-12883
▁وروبا	-12884
▁وريين	-12885
▁وسجلت	-12886
▁وسريع	-12887
▁وسلّم	-12888
▁وشروط	-12889
▁وشملت	-12890
▁وصالح	-12891
▁وصفات	-12892
▁وصورة	-12893
▁وضمان	-12894
▁وطننا	-12895
▁وظهرت	-12896
▁وعودة	-12897
▁وفلسط	-12898
▁وقائد	-12899
غاء	-12900
▁»،	-12901
▁صا	-12902
▁صِ	-12903
▁650	-12904
▁Oct	-12905
▁acy	-12906
▁أبي	-12907
▁ئنا	-12908
▁خاء	-12909
▁ذاب	-12910
▁صاء	-12911
▁صات	-12912
▁صول	-12913
▁صين	-12914
▁عاء	-12915
▁كاء	-12916
▁مذي	-12917
▁وتص	-12918
▁وكي	-12919
▁ويؤ	-12920
▁This	-12921
▁البؤ	-12922
▁الحب	-12923
▁الحُ	-12924
▁السح	-12925
▁السّ	-12926
▁بأول	-12927
▁بالا	-12928
▁بالث	-12929
▁بالز	-12930
▁بالغ	-12931
▁باله	-12932
▁بالو	-12933
▁بالي	-12934
▁برزت	-12935
▁بكات	-12936
▁بلدا	-12937
▁تقتل	-12938
▁حقهم	-12939
▁قاعد	-12940
▁قديم	-12941
▁ليوم	-12942
▁ناقض	-12943
▁نجمة	-12944
▁وصحة	-12945
▁ونال	-12946
▁يجاب	-12947
▁ينشر	-12948
▁يوجب	-12949
▁2016،	-12950
▁إلغاء	-12951
▁ازالة	-12952
▁البوا	-12953
▁الحية	-12954
▁الحين	-12955
▁السري	-12956
▁السلا	-12957
▁السلي	-12958
▁السمس	-12959
▁السير	-12960
▁الكبد	-12961
▁الكرك	-12962
▁اللوز	-12963
▁المتش	-12964
▁بأحدث	-12965
▁بالرا	-12966
▁بالوا	-12967
▁باليد	-12968
▁تتحقق	-12969
▁حملته	-12970
▁دوليا	-12971
▁شوارع	-12972
▁كالية	-12973
▁مانية	-12974
▁محلية	-12975
▁وقالت	-12976
▁وقامت	-12977
▁وقراط	-12978
▁وقوات	-12979
▁وقيمة	-12980
▁وكافة	-12981
▁وكالة	-12982
▁وكانت	-12983
▁وكثرة	-12984
▁وكذلك	-12985
▁وكلها	-12986
▁ولادة	-12987
▁ولكني	-12988
▁ولندا	-12989
▁ولياء	-12990
▁ومركز	-12991
▁ومعنى	-12992
▁ومهما	-12993
▁ونساء	-12994
▁وهيئة	-12995
▁ووفقا	-12996
▁ويؤكد	-12997
▁ويبدأ	-12998
▁ويحمل	-12999
▁طأ	-13000
▁طت	-13001
▁طح	-13002
▁ِه	-13003
lack	-13004
جبات	-13005
جيكي	-13006
▁ort	-13007
▁ose	-13008
▁أقر	-13009
▁ئاب	-13010
▁ئًا	-13011
▁خبي	-13012
▁سجن	-13013
▁سمم	-13014
▁شنت	-13015
▁ضاف	-13016
▁طاء	-13017
▁طرا	-13018
▁طلي	-13019
▁فاة	-13020
▁فَر	-13021
▁كعب	-13022
▁لمأ	-13023
▁لمئ	-13024
▁لمغ	-13025
▁لمَ	-13026
▁لمُ	-13027
▁وسن	-13028
طلالة	-13029
▁أجمع	-13030
▁الاك	-13031
▁البة	-13032
▁البث	-13033
▁البض	-13034
▁تتوا	-13035
▁تخلو	-13036
▁حداد	-13037
▁خلوا	-13038
▁رقاء	-13039
▁ريقة	-13040
▁صبغة	-13041
▁عيني	-13042
▁كالة	-13043
▁للتط	-13044
▁لماء	-13045
▁لمان	-13046
▁لمري	-13047
▁لمها	-13048
▁لمور	-13049
▁لمول	-13050
▁مبار	-13051
▁مسين	-13052
▁نعلم	-13053
▁وفاع	-13054
▁ولكم	-13055
▁يجبر	-13056
▁/2016	-13057
▁Black	-13058
▁إخراج	-13059
▁إذاعة	-13060
▁الاول	-13061
▁البات	-13062
▁البال	-13063
▁البان	-13064
▁البير	-13065
▁الركن	-13066
▁الطرح	-13067
▁الكهر	-13068
▁تتابع	-13069
▁تعالج	-13070
▁حاضرة	-13071
▁شاملة	-13072
▁لوائح	-13073
▁ناعات	-13074
▁والمك	-13075
▁ويرجع	-13076
▁ويريد	-13077
▁ويسمى	-13078
▁ويشكل	-13079
▁ويشمل	-13080
▁ويضيف	-13081
▁ويطلق	-13082
▁ويعرف	-13083
▁ويقول	-13084
▁يارات	-13085
▁ياسات	-13086
▁يتابع	-13087
▁يتحول	-13088
▁يتذكر	-13089
▁يتطلب	-13090
▁يتعين	-13091
▁يتولى	-13092
▁يحارب	-13093
▁يحتمل	-13094
▁يحتوي	-13095
▁يدعون	-13096
▁يدوية	-13097
▁يرتدي	-13098
▁يساهم	-13099
افل	-13100
فرة	-13101
يمر	-13102
▁:26	-13103
▁ana	-13104
▁ess	-13105
▁inc	-13106
▁آله	-13107
▁انَ	-13108
▁اوم	-13109
▁ايم	-13110
▁باز	-13111
▁تكن	-13112
▁تنع	-13113
▁حيم	-13114
▁خاف	-13115
▁خلط	-13116
▁خيم	-13117
▁سخة	-13118
▁كاف	-13119
▁كلب	-13120
▁لسة	-13121
▁ميم	-13122
▁هيم	-13123
▁ومة	-13124
▁يتد	-13125
هاينة	-13126
▁الإض	-13127
▁الرف	-13128
▁باعة	-13129
▁بشتى	-13130
▁بمرا	-13131
▁بنشر	-13132
▁بنقل	-13133
▁تابة	-13134
▁تعبر	-13135
▁تفوق	-13136
▁حارس	-13137
▁خريج	-13138
▁دوري	-13139
▁رامة	-13140
▁رطيب	-13141
▁سيرة	-13142
▁فالا	-13143
▁للشر	-13144
▁لليم	-13145
▁مخزن	-13146
▁نوصي	-13147
▁وائط	-13148
▁يرسل	-13149
▁يلاء	-13150
▁يلات	-13151
▁يهقي	-13152
▁أدوية	-13153
▁أمناء	-13154
▁أنظمة	-13155
▁ؤولين	-13156
▁الحجة	-13157
▁السعة	-13158
▁الغني	-13159
▁القات	-13160
▁الناف	-13161
▁ترجمة	-13162
▁تعطيل	-13163
▁جزءًا	-13164
▁حلفاء	-13165
▁محمدا	-13166
▁مشارك	-13167
▁نظرًا	-13168
▁هايمر	-13169
▁ولفتت	-13170
▁يسبوك	-13171
▁يستحق	-13172
▁يستمر	-13173
▁يستمع	-13174
▁يشاهد	-13175
▁يفعله	-13176
▁يقترح	-13177
▁يلاحظ	-13178
▁يمكنك	-13179
▁يناسب	-13180
▁ينطلق	-13181
▁ينطوي	-13182
▁يوافق	-13183
▁يومها	-13184
▁يوميا	-13185
▁يومين	-13186
▁ِهِمْ	-13187
اندرويد	-13188
ريلانكا	-13189
يليشيات	-13190
▁2021-7	-13191
▁Google	-13192
▁achine	-13193
▁أجراها	-13194
▁أجنبية	-13195
▁أحادية	-13196
▁أخبرنا	-13197
▁أخيرًا	-13198
▁أربعين	-13199
سرة	-13200
▁"[	-13201
▁Sc	-13202
▁ظف	-13203
bile	-13204
ريرك	-13205
▁20%	-13206
▁70%	-13207
▁ual	-13208
▁إيص	-13209
▁ابز	-13210
▁برة	-13211
▁ترة	-13212
▁درة	-13213
▁رضة	-13214
▁سرة	-13215
▁شرت	-13216
▁صلت	-13217
▁لتي	-13218
▁وتا	-13219
▁وتب	-13220
▁وتد	-13221
▁وتض	-13222
▁وتو	-13223
▁أجود	-13224
▁ألقت	-13225
▁ائبة	-13226
▁الجة	-13227
▁الجو	-13228
▁القة	-13229
▁القه	-13230
▁تحسب	-13231
▁تطلب	-13232
▁جنبي	-13233
▁دلتا	-13234
▁دمات	-13235
▁ردشة	-13236
▁عدين	-13237
▁عضوي	-13238
▁فكتب	-13239
▁فنان	-13240
▁مومة	-13241
▁واهم	-13242
▁وترا	-13243
▁وتست	-13244
▁وتوا	-13245
▁يسكو	-13246
▁/2017	-13247
▁أجزاء	-13248
▁إيصال	-13249
▁الجاد	-13250
▁الجار	-13251
▁الجها	-13252
▁الجيد	-13253
▁الجير	-13254
▁الجيل	-13255
▁الجين	-13256
▁الحرة	-13257
▁الشمع	-13258
▁القنا	-13259
▁القول	-13260
▁المرة	-13261
▁النسي	-13262
▁تواصل	-13263
▁جريدة	-13264
▁غالية	-13265
▁قواعد	-13266
▁لكبار	-13267
▁مؤكدة	-13268
▁والشر	-13269
▁Mobile	-13270
▁أساسية	-13271
▁أصحابه	-13272
▁ألماني	-13273
▁أميركي	-13274
▁أولوية	-13275
▁إيطالي	-13276
▁ائتلاف	-13277
▁اجتياز	-13278
▁احتمال	-13279
▁اختبار	-13280
▁اختصار	-13281
▁اختفاء	-13282
▁استطاع	-13283
▁استطيع	-13284
▁استعمل	-13285
▁استقال	-13286
▁اعتداء	-13287
▁اعتقاد	-13288
▁افتتاح	-13289
▁اكتساب	-13290
▁اكتوبر	-13291
▁الآداب	-13292
▁الآراء	-13293
▁الآفات	-13294
▁الآلات	-13295
▁الآونة	-13296
▁الأثاث	-13297
▁الأجنب	-13298
▁الأجور	-13299
قدس	-13300
▁-.	-13301
▁]،	-13302
▁ئل	-13303
▁زْ	-13304
نتين	-13305
▁أبر	-13306
▁ألق	-13307
▁إيف	-13308
▁ببي	-13309
▁بفر	-13310
▁بما	-13311
▁بوي	-13312
▁ترق	-13313
▁زاق	-13314
▁شاق	-13315
▁شبي	-13316
▁صرة	-13317
▁فرة	-13318
▁قتي	-13319
▁قرة	-13320
ثماري	-13321
ويترز	-13322
▁أجاب	-13323
▁الظن	-13324
▁النط	-13325
▁بألف	-13326
▁تدمر	-13327
▁تفكر	-13328
▁حادة	-13329
▁خصصة	-13330
▁سمين	-13331
▁عنده	-13332
▁قضاء	-13333
▁كالب	-13334
▁كتيب	-13335
▁كررة	-13336
▁لنكر	-13337
▁لِلْ	-13338
▁معبر	-13339
▁ملاً	-13340
▁وائه	-13341
▁وانغ	-13342
▁وبان	-13343
▁وللأ	-13344
▁وَيُ	-13345
▁يبات	-13346
▁يذكر	-13347
▁يشرح	-13348
▁أدوار	-13349
▁أولية	-13350
▁الأخر	-13351
▁الأنت	-13352
▁الإما	-13353
▁الجدد	-13354
▁الحبي	-13355
▁الحوت	-13356
▁السهل	-13357
▁الشغب	-13358
▁الصحى	-13359
▁المتر	-13360
▁الناب	-13361
▁النعي	-13362
▁الهيك	-13363
▁بالما	-13364
▁تتوقع	-13365
▁حانات	-13366
▁شخصاً	-13367
▁عناية	-13368
▁قوالب	-13369
▁للشعب	-13370
▁مقبول	-13371
▁والتن	-13372
▁ويكون	-13373
▁اثنتين	-13374
▁اشتراك	-13375
▁اعتبرت	-13376
▁الأحمد	-13377
▁الأراض	-13378
▁الأرجح	-13379
▁الأرضي	-13380
▁الأقصر	-13381
▁الأقوى	-13382
▁الاتها	-13383
▁الاثاث	-13384
▁الاحتم	-13385
▁الاستد	-13386
▁الاسرة	-13387
▁الاسهم	-13388
▁الاكثر	-13389
▁الانتم	-13390
▁البائع	-13391
▁الباحة	-13392
▁البارد	-13393
▁البارز	-13394
▁الباري	-13395
▁البحار	-13396
▁البحوث	-13397
▁البرتغ	-13398
▁البرلم	-13399
آلة	-13400
حلة	-13401
خلة	-13402
دلة	-13403
سعة	-13404
صود	-13405
ودع	-13406
▁5]	-13407
▁زء	-13408
ودان	-13409
يناي	-13410
▁آكل	-13411
▁أظن	-13412
▁أود	-13413
▁ارو	-13414
▁بحر	-13415
▁تكر	-13416
▁تلة	-13417
▁جزة	-13418
▁جلة	-13419
▁جود	-13420
▁حلة	-13421
▁حوض	-13422
▁حيه	-13423
▁خلة	-13424
▁دلة	-13425
▁زاع	-13426
▁صود	-13427
▁طلة	-13428
▁غرا	-13429
▁قود	-13430
▁كلة	-13431
▁كمب	-13432
▁لإس	-13433
▁مده	-13434
▁هلة	-13435
▁ّال	-13436
▁!!!!	-13437
▁أمرا	-13438
▁الكي	-13439
▁النّ	-13440
▁بلاط	-13441
▁بيعي	-13442
▁تصرف	-13443
▁جدار	-13444
▁ستير	-13445
▁سكين	-13446
▁غضون	-13447
▁قصير	-13448
▁لأبي	-13449
▁نائي	-13450
▁وألم	-13451
▁وانف	-13452
▁وسمع	-13453
▁ومحت	-13454
▁وميت	-13455
▁press	-13456
▁أردنا	-13457
▁اعتقل	-13458
▁البصل	-13459
▁الدقة	-13460
▁الشجر	-13461
▁الشحن	-13462
▁الصدا	-13463
▁الكائ	-13464
▁الكلي	-13465
▁المعق	-13466
▁بالتأ	-13467
▁براءة	-13468
▁جيدًا	-13469
▁دوراً	-13470
▁راهيم	-13471
▁رقيقة	-13472
▁ريبية	-13473
▁عربات	-13474
▁وتهدف	-13475
▁وتونس	-13476
▁-2012,	-13477
▁الأسفل	-13478
▁الازمة	-13479
▁البروت	-13480
▁البقاء	-13481
▁البلجي	-13482
▁البلدة	-13483
▁البنفس	-13484
▁البيئي	-13485
▁البيرة	-13486
▁التأمل	-13487
▁التأهل	-13488
▁التبرع	-13489
▁التبول	-13490
▁التبوي	-13491
▁التجول	-13492
▁التحرر	-13493
▁التحرك	-13494
▁التحفظ	-13495
▁التحكم	-13496
▁التدري	-13497
▁الترجي	-13498
▁التضخم	-13499
ربط	-13500
نعة	-13501
▁3-	-13502
▁==	-13503
▁EC	-13504
▁GT	-13505
▁ah	-13506
▁aj	-13507
▁az	-13508
▁زت	-13509
▁زز	-13510
▁زف	-13511
▁زى	-13512
▁ظر	-13513
▁غف	-13514
▁غم	-13515
▁غْ	-13516
▁ِب	-13517
ركية	-13518
▁als	-13519
▁ows	-13520
▁أفق	-13521
▁انى	-13522
▁برق	-13523
▁بسي	-13524
▁جرب	-13525
▁حلف	-13526
▁درس	-13527
▁دعي	-13528
▁زلة	-13529
▁زلي	-13530
▁زول	-13531
▁شرب	-13532
▁عرب	-13533
▁غاب	-13534
▁غرة	-13535
▁غلي	-13536
▁غون	-13537
▁غيل	-13538
▁فني	-13539
▁كبد	-13540
▁لخط	-13541
▁ولح	-13542
▁ياز	-13543
▁أشبه	-13544
▁اختي	-13545
▁ارسل	-13546
▁بانه	-13547
▁خطرا	-13548
▁سيطة	-13549
▁طفال	-13550
▁غليف	-13551
▁قريش	-13552
▁كالك	-13553
▁وبيع	-13554
▁يربط	-13555
▁ينما	-13556
▁أقنعة	-13557
▁الإحت	-13558
▁التمر	-13559
▁الديز	-13560
▁الشام	-13561
▁بارات	-13562
▁بدلاً	-13563
▁حقائق	-13564
▁رامات	-13565
▁كتبها	-13566
▁لسلات	-13567
▁لموقف	-13568
▁مستند	-13569
▁والمب	-13570
▁يتأثر	-13571
▁استمتع	-13572
▁الانتخ	-13573
▁التعرف	-13574
▁التفاح	-13575
▁التفوق	-13576
▁التقني	-13577
▁التمتع	-13578
▁التمور	-13579
▁التميز	-13580
▁التهاب	-13581
▁التوقف	-13582
▁الثقيل	-13583
▁الثوار	-13584
▁الثوري	-13585
▁الجامع	-13586
▁الجبال	-13587
▁الجدار	-13588
▁الجراث	-13589
▁الجروح	-13590
▁الجزئي	-13591
▁الجلوس	-13592
▁الجليل	-13593
▁الجهاد	-13594
▁الجهاز	-13595
▁الجواز	-13596
▁الجودة	-13597
▁الجيري	-13598
▁الحادث	-13599
بعة	-13600
زوق	-13601
قلع	-13602
يسر	-13603
▁AB	-13604
▁GB	-13605
▁pp	-13606
▁ئب	-13607
اعمة	-13608
ساءل	-13609
وطين	-13610
وقاف	-13611
▁oot	-13612
▁أمة	-13613
▁بوق	-13614
▁جعة	-13615
▁حصى	-13616
▁دعى	-13617
▁ربت	-13618
▁روق	-13619
▁زوق	-13620
▁شعة	-13621
▁ضان	-13622
▁طوق	-13623
▁كاة	-13624
▁معة	-13625
▁نعة	-13626
▁يرك	-13627
▁ارًا	-13628
▁الدب	-13629
▁الدر	-13630
▁الدف	-13631
▁الدو	-13632
▁الدّ	-13633
▁بمكة	-13634
▁تسكن	-13635
▁ستار	-13636
▁سهيل	-13637
▁سياق	-13638
▁شراب	-13639
▁صممت	-13640
▁طيات	-13641
▁علوم	-13642
▁غبار	-13643
▁كافر	-13644
▁كمية	-13645
▁لنشر	-13646
▁مقلع	-13647
▁وإست	-13648
▁وبلا	-13649
▁وعمل	-13650
▁يحكي	-13651
▁يعاد	-13652
▁الدرك	-13653
▁الدما	-13654
▁الدير	-13655
▁الفلك	-13656
▁القمة	-13657
▁المنه	-13658
▁النوع	-13659
▁الهيم	-13660
▁بالمؤ	-13661
▁بالوق	-13662
▁بجولة	-13663
▁تزيين	-13664
▁توطين	-13665
▁ثنائي	-13666
▁حسابك	-13667
▁دخلوا	-13668
▁سواري	-13669
▁مراسم	-13670
▁مرزوق	-13671
▁وأحدث	-13672
▁وكتاب	-13673
▁الأيسر	-13674
▁التابع	-13675
▁التصدي	-13676
▁الحادي	-13677
▁الحارث	-13678
▁الحاضر	-13679
▁الحامل	-13680
▁الحبوب	-13681
▁الحجاج	-13682
▁الحداد	-13683
▁الحسين	-13684
▁الحفاظ	-13685
▁الحقيق	-13686
▁الحكمة	-13687
▁الحكوم	-13688
▁الحلوة	-13689
▁الحمار	-13690
▁الحملة	-13691
▁الحميد	-13692
▁الحوثي	-13693
▁الخردة	-13694
▁الخضار	-13695
▁الخضوع	-13696
▁الخفيف	-13697
▁الخيار	-13698
▁الدالة	-13699
صدأ	-13700
لمة	-13701
▁("	-13702
▁()	-13703
▁(0	-13704
▁(@	-13705
▁06	-13706
▁mt	-13707
زيلي	-13708
▁121	-13709
▁124	-13710
▁أعل	-13711
▁اعل	-13712
▁افح	-13713
▁امة	-13714
▁جمة	-13715
▁دمة	-13716
▁زمة	-13717
▁عمة	-13718
▁قفز	-13719
▁كمة	-13720
▁لعل	-13721
▁ممة	-13722
▁همة	-13723
▁وره	-13724
▁يعل	-13725
▁ينص	-13726
dited	-13727
▁8230	-13728
▁ابرز	-13729
▁احتج	-13730
▁اضاف	-13731
▁الصب	-13732
▁بروح	-13733
▁تبعد	-13734
▁تقلب	-13735
▁تقني	-13736
▁تميم	-13737
▁حياة	-13738
▁خيار	-13739
▁ريعة	-13740
▁سنتر	-13741
▁فكما	-13742
▁كالع	-13743
▁لأنه	-13744
▁للعل	-13745
▁لموض	-13746
▁مؤرش	-13747
▁ماهو	-13748
▁مطاط	-13749
▁مقطع	-13750
▁نشعر	-13751
▁هدفا	-13752
▁وسية	-13753
▁وعقد	-13754
▁يحدث	-13755
▁يحدد	-13756
▁يهتم	-13757
▁أسرار	-13758
▁أمانة	-13759
▁الجزر	-13760
▁السحب	-13761
▁الصلي	-13762
▁الصور	-13763
▁الصيد	-13764
▁الفتح	-13765
▁القرن	-13766
▁بالعل	-13767
▁بقيمة	-13768
▁سواءً	-13769
▁شهرين	-13770
▁صحافة	-13771
▁فأكثر	-13772
▁للصدأ	-13773
▁مؤرشف	-13774
▁مؤلمة	-13775
▁والعل	-13776
▁وعوية	-13777
▁يتحمل	-13778
▁Edited	-13779
▁أهدافه	-13780
▁إختيار	-13781
▁استعرض	-13782
▁الأديب	-13783
▁التراب	-13784
▁الدجاج	-13785
▁الدخان	-13786
▁الدرجة	-13787
▁الدعاء	-13788
▁الدفعة	-13789
▁الدماء	-13790
▁الدمار	-13791
▁الدوار	-13792
▁الذاتي	-13793
▁الذراع	-13794
▁الذكور	-13795
▁الذنوب	-13796
▁الرؤوس	-13797
▁الرؤية	-13798
▁الرابع	-13799
احف	-13800
ثيف	-13801
حقة	-13802
▁OT	-13803
▁ُ،	-13804
▁ّت	-13805
اخرة	-13806
حدات	-13807
يفات	-13808
▁14,	-13809
▁اطع	-13810
▁تُع	-13811
▁سمت	-13812
▁سهم	-13813
▁سيف	-13814
▁شمس	-13815
▁صيف	-13816
▁فاح	-13817
▁فطر	-13818
▁فيف	-13819
▁قيف	-13820
▁لصح	-13821
▁مؤر	-13822
▁ماح	-13823
▁متج	-13824
▁وَّ	-13825
▁ياح	-13826
▁يقظ	-13827
▁يُن	-13828
▁Note	-13829
▁أبها	-13830
▁ابيع	-13831
▁الطو	-13832
▁جوال	-13833
▁خسرت	-13834
▁رابي	-13835
▁رتين	-13836
▁شرون	-13837
▁فإنك	-13838
▁للأح	-13839
▁للدي	-13840
▁لمهم	-13841
▁نزار	-13842
▁وتهم	-13843
▁ومرة	-13844
▁يشكل	-13845
▁ينظر	-13846
▁٢٠١٨	-13847
▁visor	-13848
▁أزياء	-13849
▁أقوال	-13850
▁اعتقد	-13851
▁الأهم	-13852
▁الباح	-13853
▁التهم	-13854
▁السهم	-13855
▁السيف	-13856
▁الشاح	-13857
▁الصيف	-13858
▁الفهم	-13859
▁القمح	-13860
▁النيت	-13861
▁بالمك	-13862
▁تكثيف	-13863
▁روبوت	-13864
▁عتماد	-13865
▁مسعود	-13866
▁منظمة	-13867
▁وأمام	-13868
▁والإع	-13869
▁والاح	-13870
▁وبريط	-13871
▁ويأتي	-13872
▁التخلص	-13873
▁الجزاء	-13874
▁الرجوع	-13875
▁الرحيم	-13876
▁الرسمي	-13877
▁الرسوم	-13878
▁الرصاص	-13879
▁الرمال	-13880
▁الرملي	-13881
▁الرموز	-13882
▁الروحي	-13883
▁الريال	-13884
▁الزائد	-13885
▁الزائر	-13886
▁الزاحف	-13887
▁الزكاة	-13888
▁الزمان	-13889
▁الزينة	-13890
▁الساحل	-13891
▁السباق	-13892
▁الستين	-13893
▁السجون	-13894
▁السريع	-13895
▁السلاح	-13896
▁السلمي	-13897
▁السمعة	-13898
▁السورة	-13899
كبة	-13900
هنة	-13901
▁ih	-13902
▁ij	-13903
▁ik	-13904
▁ix	-13905
▁iy	-13906
able	-13907
احبة	-13908
تمين	-13909
جهاد	-13910
▁(20	-13911
▁11.	-13912
▁ائص	-13913
▁اقة	-13914
▁تبة	-13915
▁تسل	-13916
▁توج	-13917
▁حقة	-13918
▁خبة	-13919
▁دقة	-13920
▁رجم	-13921
▁سبة	-13922
▁شقة	-13923
▁شقق	-13924
▁صقة	-13925
▁عبة	-13926
▁كحد	-13927
▁لبة	-13928
▁نيع	-13929
▁وقة	-13930
▁يبة	-13931
▁ّمة	-13932
▁atch	-13933
▁أهله	-13934
▁اطير	-13935
▁تعنى	-13936
▁جرات	-13937
▁راجه	-13938
▁رفاق	-13939
▁زمان	-13940
▁سائي	-13941
▁سيئة	-13942
▁لسلة	-13943
▁للتغ	-13944
▁متعب	-13945
▁ممتع	-13946
▁مِنْ	-13947
▁وكيا	-13948
▁يعيد	-13949
▁أمثلة	-13950
▁الشقة	-13951
▁الصدم	-13952
▁بالدا	-13953
▁تنتشر	-13954
▁خواطر	-13955
▁ذكرته	-13956
▁ريبات	-13957
▁قضايا	-13958
▁محامي	-13959
▁مواجه	-13960
▁هدفنا	-13961
▁والتغ	-13962
▁وسرعة	-13963
▁وليات	-13964
▁الأضحى	-13965
▁الأكبر	-13966
▁التغلب	-13967
▁الحجاز	-13968
▁الحراك	-13969
▁الرطبة	-13970
▁الزهور	-13971
▁الشائع	-13972
▁الشارع	-13973
▁الشاعر	-13974
▁الشامل	-13975
▁الشاهد	-13976
▁الشديد	-13977
▁الشراء	-13978
▁الشروع	-13979
▁الشعار	-13980
▁الشعور	-13981
▁الشمري	-13982
▁الشهري	-13983
▁الشهيد	-13984
▁الشيوع	-13985
▁الصادق	-13986
▁الصامت	-13987
▁الصعود	-13988
▁الصعيد	-13989
▁الصفات	-13990
▁الصفقة	-13991
▁الصليب	-13992
▁الصيام	-13993
▁الضابط	-13994
▁الضباط	-13995
▁الضحية	-13996
▁الضربة	-13997
▁الضمان	-13998
▁الضمير	-13999
غني	-14000
كاس	-14001
▁VD	-14002
▁ذْ	-14003
بدال	-14004
غنيز	-14005
نيست	-14006
▁:14	-14007
▁elf	-14008
▁ill	-14009
▁أعم	-14010
▁اضل	-14011
▁بحل	-14012
▁بمد	-14013
▁تني	-14014
▁راش	-14015
▁رعد	-14016
▁سعد	-14017
▁صعد	-14018
▁طبل	-14019
▁وإش	-14020
▁ومؤ	-14021
▁ومث	-14022
▁ومج	-14023
▁ومخ	-14024
▁ومض	-14025
▁ويص	-14026
▁َدِ	-14027
تشرين	-14028
▁أنهى	-14029
▁اتضح	-14030
▁الثع	-14031
▁بعده	-14032
▁جواب	-14033
▁ساوي	-14034
▁فالة	-14035
▁لاقة	-14036
▁للحي	-14037
▁للعد	-14038
▁متين	-14039
▁نسان	-14040
▁وابة	-14041
▁وتعد	-14042
▁وركس	-14043
▁ومان	-14044
▁ومبي	-14045
▁وملا	-14046
▁ومما	-14047
▁ومين	-14048
▁يحرص	-14049
▁يصبح	-14050
▁يعشق	-14051
▁أعمدة	-14052
▁ابنها	-14053
▁الإعد	-14054
▁البعد	-14055
▁البني	-14056
▁الجمل	-14057
▁الحمص	-14058
▁الخرج	-14059
▁السعد	-14060
▁امرأة	-14061
▁تتعدى	-14062
▁تتعلم	-14063
▁تنامي	-14064
▁دعوات	-14065
▁قادرة	-14066
▁كايات	-14067
▁هاينة	-14068
▁وأخبر	-14069
▁والبر	-14070
▁والله	-14071
▁ودولة	-14072
▁وشكرا	-14073
▁استفاد	-14074
▁الضيقة	-14075
▁الطابع	-14076
▁الطابق	-14077
▁الطحين	-14078
▁الطفلة	-14079
▁الطلاء	-14080
▁الطويل	-14081
▁الظهور	-14082
▁العائد	-14083
▁العادة	-14084
▁العالي	-14085
▁العباس	-14086
▁العدوى	-14087
▁العديد	-14088
▁العروس	-14089
▁العسكر	-14090
▁العشاء	-14091
▁العشرة	-14092
▁العضوي	-14093
▁العطور	-14094
▁العظام	-14095
▁العظيم	-14096
▁العلوم	-14097
▁العماد	-14098
▁العمال	-14099
رتك	-14100
لقد	-14101
نيك	-14102
▁pf	-14103
▁ضج	-14104
▁ضخ	-14105
قدان	-14106
▁أقد	-14107
▁اتٍ	-14108
▁اعي	-14109
▁ايخ	-14110
▁تقف	-14111
▁تمل	-14112
▁تمّ	-14113
▁تنب	-14114
▁جمل	-14115
▁ديش	-14116
▁رعب	-14117
▁زني	-14118
▁ساي	-14119
▁سني	-14120
▁صاص	-14121
▁ضات	-14122
▁فقر	-14123
▁كمل	-14124
▁كني	-14125
▁نسخ	-14126
▁هنة	-14127
▁إلّا	-14128
▁اتفق	-14129
▁الخا	-14130
▁الخس	-14131
▁الخف	-14132
▁الخل	-14133
▁انات	-14134
▁بتها	-14135
▁بعمق	-14136
▁تبقى	-14137
▁تفرض	-14138
▁داقة	-14139
▁دعنا	-14140
▁رحلة	-14141
▁رموك	-14142
▁عينة	-14143
▁غبين	-14144
▁لايا	-14145
▁للرق	-14146
▁للمك	-14147
▁لمقد	-14148
▁لممل	-14149
▁لمني	-14150
▁لوبي	-14151
▁ملاح	-14152
▁واتف	-14153
▁واجد	-14154
▁وتخت	-14155
▁ومشر	-14156
▁ومقد	-14157
▁يؤخذ	-14158
▁َّةً	-14159
▁أملاك	-14160
▁الأمس	-14161
▁الإفص	-14162
▁التنغ	-14163
▁الخير	-14164
▁الخيل	-14165
▁الطقس	-14166
▁العقد	-14167
▁النمل	-14168
▁بشرتك	-14169
▁بشمال	-14170
▁جاهزة	-14171
▁حفلات	-14172
▁ديدات	-14173
▁سيعمل	-14174
▁غربية	-14175
▁للنفط	-14176
▁مارتن	-14177
▁مبالغ	-14178
▁وتنيك	-14179
▁الاستق	-14180
▁الاستي	-14181
▁البقاع	-14182
▁الجميل	-14183
▁الجهات	-14184
▁الرأسم	-14185
▁الشبان	-14186
▁الطوائ	-14187
▁العملة	-14188
▁العنزي	-14189
▁العيوب	-14190
▁العيون	-14191
▁الغابة	-14192
▁الغداء	-14193
▁الغربي	-14194
▁الغيار	-14195
▁الفارق	-14196
▁الفتاة	-14197
▁الفرات	-14198
▁الفرار	-14199
فسي	-14200
▁"(	-14201
▁"؛	-14202
▁ok	-14203
▁ot	-14204
▁oy	-14205
▁oz	-14206
▁ضط	-14207
▁ضل	-14208
▁ضى	-14209
▁ضُ	-14210
▁ضِ	-14211
▁ضْ	-14212
يلسي	-14213
▁:56	-14214
▁rop	-14215
▁ؤنا	-14216
▁ئبة	-14217
▁ائف	-14218
▁ببر	-14219
▁تفض	-14220
▁حقل	-14221
▁راة	-14222
▁راد	-14223
▁راط	-14224
▁راغ	-14225
▁ردن	-14226
▁ريز	-14227
▁سطر	-14228
▁صبر	-14229
▁ضرة	-14230
▁ضول	-14231
▁ضين	-14232
▁طقس	-14233
▁عبر	-14234
▁كسي	-14235
▁يئة	-14236
▁يبر	-14237
▁ِنَ	-14238
ابسات	-14239
تمعات	-14240
▁أزمة	-14241
▁ابين	-14242
▁الثّ	-14243
▁جوني	-14244
▁رابة	-14245
▁راعة	-14246
▁راقة	-14247
▁راية	-14248
▁صائل	-14249
▁صحفي	-14250
▁غلاف	-14251
▁غلال	-14252
▁قليل	-14253
▁لاية	-14254
▁لسوق	-14255
▁لمبر	-14256
▁وصور	-14257
▁ولان	-14258
▁يتجه	-14259
▁ينهي	-14260
▁أمثال	-14261
▁البيط	-14262
▁الحبر	-14263
▁الخبر	-14264
▁الرقة	-14265
▁الصبر	-14266
▁الصرف	-14267
▁حديثا	-14268
▁داعيا	-14269
▁صناعة	-14270
▁عراقي	-14271
▁لمفضل	-14272
▁مثلها	-14273
▁نظرنا	-14274
▁والتخ	-14275
▁ينيات	-14276
▁احتجاز	-14277
▁الفردي	-14278
▁الفرصة	-14279
▁الفرنس	-14280
▁الفروع	-14281
▁الفقرة	-14282
▁الفكري	-14283
▁الفوري	-14284
▁الفوضى	-14285
▁القائد	-14286
▁القابل	-14287
▁القادة	-14288
▁القاري	-14289
▁القاطع	-14290
▁القاعة	-14291
▁القالب	-14292
▁القديس	-14293
▁القراء	-14294
▁القرفة	-14295
▁القريب	-14296
▁القصير	-14297
▁القضيب	-14298
▁القمار	-14299
رغم	-14300
▁1/	-14301
▁Eu	-14302
▁ّف	-14303
الوج	-14304
▁آدم	-14305
▁أدي	-14306
▁أوج	-14307
▁بدف	-14308
▁بوج	-14309
▁جدي	-14310
▁عاق	-14311
▁فمن	-14312
▁قدي	-14313
▁كأن	-14314
▁ندي	-14315
▁وأب	-14316
▁وأت	-14317
▁وأج	-14318
▁وأذ	-14319
▁وأغ	-14320
▁وأك	-14321
▁وأي	-14322
▁ونف	-14323
▁يلو	-14324
▁echn	-14325
▁ألكس	-14326
▁اذبة	-14327
▁الرّ	-14328
▁الغش	-14329
▁بادة	-14330
▁تضمن	-14331
▁حزمة	-14332
▁حقول	-14333
▁سبات	-14334
▁عامي	-14335
▁عطية	-14336
▁كرات	-14337
▁كلما	-14338
▁لابة	-14339
▁لترك	-14340
▁لمدي	-14341
▁ماذا	-14342
▁منصب	-14343
▁موذج	-14344
▁نعرض	-14345
▁وألا	-14346
▁وأما	-14347
▁وأنت	-14348
▁وأول	-14349
▁يديك	-14350
▁إعلان	-14351
▁اتساع	-14352
▁البدي	-14353
▁البوس	-14354
▁الجمي	-14355
▁الرما	-14356
▁الرمل	-14357
▁المثا	-14358
▁بالتد	-14359
▁بالدي	-14360
▁بنشاط	-14361
▁بيئية	-14362
▁تكرار	-14363
▁توقيت	-14364
▁رازيل	-14365
▁سيطرت	-14366
▁عملاق	-14367
▁فريدة	-14368
▁لشراء	-14369
▁للمنت	-14370
▁مجهزة	-14371
▁والطب	-14372
▁وبدأت	-14373
▁وصلاح	-14374
▁وقدرة	-14375
▁inform	-14376
▁الجراح	-14377
▁الرائد	-14378
▁الفتنة	-14379
▁القناة	-14380
▁القوات	-14381
▁القوية	-14382
▁الكاري	-14383
▁الكافر	-14384
▁الكامل	-14385
▁الكبار	-14386
▁الكتلة	-14387
▁الكرات	-14388
▁الكرام	-14389
▁الكروي	-14390
▁الكورد	-14391
▁الكوري	-14392
▁الكولا	-14393
▁الكومي	-14394
▁الكيان	-14395
▁اللباس	-14396
▁اللجنة	-14397
▁اللحام	-14398
▁اللذان	-14399
▁/9	-14400
▁1:	-14401
▁ly	-14402
▁آي	-14403
اندة	-14404
خراط	-14405
سمار	-14406
وردة	-14407
▁1.3	-14408
▁ood	-14409
▁تاس	-14410
▁ثلث	-14411
▁داس	-14412
▁ردا	-14413
▁شاس	-14414
▁شدة	-14415
▁عدا	-14416
▁فاس	-14417
▁كدة	-14418
▁لدة	-14419
▁ندة	-14420
▁هدا	-14421
▁وأُ	-14422
▁ورغ	-14423
▁يثم	-14424
▁يدة	-14425
▁Play	-14426
▁بدلا	-14427
▁بييض	-14428
▁تهدد	-14429
▁توقف	-14430
▁دخول	-14431
▁سلين	-14432
▁قالة	-14433
▁كالح	-14434
▁كتشف	-14435
▁كوني	-14436
▁لحما	-14437
▁للدا	-14438
▁لمدا	-14439
▁لمفر	-14440
▁لولا	-14441
▁محام	-14442
▁نياء	-14443
▁وأين	-14444
▁وضية	-14445
▁وطرق	-14446
▁وقرر	-14447
▁ومصر	-14448
▁ويخت	-14449
▁يؤثر	-14450
▁يتسم	-14451
جماعات	-14452
▁إجراء	-14453
▁اسباب	-14454
▁البدا	-14455
▁التدا	-14456
▁الحجم	-14457
▁الشرط	-14458
▁الصلب	-14459
▁القاس	-14460
▁الماس	-14461
▁بدليل	-14462
▁بلدية	-14463
▁تحادي	-14464
▁تفعيل	-14465
▁ضطراب	-14466
▁كتابا	-14467
▁مجهول	-14468
▁والاس	-14469
▁والدة	-14470
▁ولولا	-14471
▁يتطلع	-14472
▁يحتفل	-14473
▁الزمني	-14474
▁السنين	-14475
▁الشخصي	-14476
▁اللغات	-14477
▁الليبي	-14478
▁المؤلف	-14479
▁المائي	-14480
▁المادي	-14481
▁المالى	-14482
▁المتبق	-14483
▁المتعا	-14484
▁المتعد	-14485
▁المتعل	-14486
▁المتفق	-14487
▁المتنا	-14488
▁المثلث	-14489
▁المثلى	-14490
▁المجاز	-14491
▁المحام	-14492
▁المحجر	-14493
▁المحيط	-14494
▁المخاب	-14495
▁المخيم	-14496
▁المدخل	-14497
▁المدرب	-14498
▁المرئي	-14499
قيح	-14500
قيه	-14501
ويه	-14502
▁Pe	-14503
سيقي	-14504
لاقي	-14505
▁21,	-14506
▁أحت	-14507
▁اضط	-14508
▁اطي	-14509
▁اقي	-14510
▁باج	-14511
▁بوع	-14512
▁ثقة	-14513
▁ثية	-14514
▁جاج	-14515
▁حاج	-14516
▁شوي	-14517
▁ضحت	-14518
▁فاج	-14519
▁قاً	-14520
▁قرى	-14521
▁كوي	-14522
▁لقت	-14523
▁لوي	-14524
▁موي	-14525
▁وفه	-14526
▁ياج	-14527
▁يلب	-14528
▁(199	-14529
▁ائهم	-14530
▁بغرض	-14531
▁تختص	-14532
▁حقاً	-14533
▁راقي	-14534
▁راوي	-14535
▁روبر	-14536
▁رياح	-14537
▁شديد	-14538
▁شريط	-14539
▁عالى	-14540
▁عانة	-14541
▁كالش	-14542
▁كوبا	-14543
▁لمقي	-14544
▁لممت	-14545
▁مقار	-14546
▁وازي	-14547
▁وَيَ	-14548
▁يظهر	-14549
▁أربعة	-14550
▁أشجار	-14551
▁أنبوب	-14552
▁ائمين	-14553
▁التقي	-14554
▁الجوي	-14555
▁الحاج	-14556
▁السوي	-14557
▁الصدر	-14558
▁الضرر	-14559
▁الغيب	-14560
▁الفرص	-14561
▁القوي	-14562
▁النقي	-14563
▁بالعا	-14564
▁بدوري	-14565
▁تشويه	-14566
▁جديده	-14567
▁حديثي	-14568
▁خريجي	-14569
▁روبرت	-14570
▁مسلمة	-14571
▁موضحة	-14572
▁ويترك	-14573
▁يتكون	-14574
▁ينتظر	-14575
▁الأصفر	-14576
▁الاولي	-14577
▁الركبة	-14578
▁الفقيه	-14579
▁المحاس	-14580
▁المراة	-14581
▁المربع	-14582
▁المرجح	-14583
▁المرسل	-14584
▁المرضى	-14585
▁المريض	-14586
▁المزاج	-14587
▁المساء	-14588
▁المساس	-14589
▁المساف	-14590
▁المسبق	-14591
▁المسجد	-14592
▁المصمم	-14593
▁المطار	-14594
▁المطور	-14595
▁المعال	-14596
▁المعرض	-14597
▁المعهد	-14598
▁المغار	-14599
رتب	-14600
كرت	-14601
▁BC	-14602
▁ُّ	-14603
▁ّد	-14604
رتون	-14605
وثيق	-14606
▁-24	-14607
▁://	-14608
▁Med	-14609
▁ity	-14610
▁أرت	-14611
▁تفك	-14612
▁خرف	-14613
▁رحل	-14614
▁سرت	-14615
▁سوب	-14616
▁صحت	-14617
▁صوب	-14618
▁طرف	-14619
▁عوب	-14620
▁غوب	-14621
▁فرت	-14622
▁قرن	-14623
▁كيس	-14624
▁هرت	-14625
▁وحث	-14626
▁ويخ	-14627
▁ويض	-14628
▁ويُ	-14629
▁0183	-14630
▁أغنى	-14631
▁أكتب	-14632
▁استج	-14633
▁الهر	-14634
▁بسلا	-14635
▁تامة	-14636
▁تخدم	-14637
▁خطير	-14638
▁فاقم	-14639
▁كرار	-14640
▁كيان	-14641
▁لأني	-14642
▁لملح	-14643
▁مقام	-14644
▁نهضة	-14645
▁وانق	-14646
▁وثات	-14647
▁ومرت	-14648
▁ويتم	-14649
▁ويحت	-14650
▁ويست	-14651
▁ويلا	-14652
▁ويين	-14653
▁ياسة	-14654
▁يحلم	-14655
▁يخرج	-14656
▁يران	-14657
▁يزيل	-14658
▁يفية	-14659
▁ustom	-14660
▁أعداد	-14661
▁إعفاء	-14662
▁الشرف	-14663
▁العرف	-14664
▁اهمية	-14665
▁تدليك	-14666
▁تفكيك	-14667
▁توثيق	-14668
▁حمراء	-14669
▁رجلاً	-14670
▁رياضي	-14671
▁فأصبح	-14672
▁قائمة	-14673
▁لأننا	-14674
▁لديها	-14675
▁مارات	-14676
▁وذكرت	-14677
▁يترتب	-14678
▁البعوض	-14679
▁التنقل	-14680
▁الجانب	-14681
▁القليل	-14682
▁المغني	-14683
▁المقاب	-14684
▁المقال	-14685
▁المقام	-14686
▁المقعد	-14687
▁المكثف	-14688
▁المكلف	-14689
▁الملكي	-14690
▁الملوك	-14691
▁المناق	-14692
▁المنبر	-14693
▁المنحة	-14694
▁المنذر	-14695
▁المنشأ	-14696
▁المنصة	-14697
▁المنعم	-14698
▁المنكر	-14699
لوس	-14700
ميص	-14701
▁ef	-14702
▁ei	-14703
▁ek	-14704
▁ep	-14705
▁ev	-14706
رمذي	-14707
رورة	-14708
نتوس	-14709
▁:39	-14710
▁ids	-14711
▁آبل	-14712
▁إسن	-14713
▁ادل	-14714
▁انش	-14715
▁بوس	-14716
▁بيح	-14717
▁تمي	-14718
▁جيش	-14719
▁هوب	-14720
▁هوس	-14721
راهية	-14722
▁ابدا	-14723
▁اماة	-14724
▁اناة	-14725
▁براز	-14726
▁بنات	-14727
▁بيضة	-14728
▁تهتم	-14729
▁دائل	-14730
▁روسة	-14731
▁صنعت	-14732
▁ضافة	-14733
▁طباق	-14734
▁طنجة	-14735
▁قميص	-14736
▁كاتب	-14737
▁للمي	-14738
▁مكتب	-14739
▁ميلا	-14740
▁هادة	-14741
▁وائح	-14742
▁وجيه	-14743
▁ودور	-14744
▁وفحص	-14745
▁يأكل	-14746
▁يؤدى	-14747
▁يرًا	-14748
▁يغفر	-14749
ومنيوم	-14750
▁-2016	-14751
▁إسناد	-14752
▁ارتها	-14753
▁الأطل	-14754
▁التمي	-14755
▁التوس	-14756
▁الحفظ	-14757
▁الحمي	-14758
▁الدوس	-14759
▁العبث	-14760
▁الفوس	-14761
▁القوس	-14762
▁بالرد	-14763
▁عقلية	-14764
▁فإنها	-14765
▁كوبون	-14766
▁مسبوق	-14767
▁مِينَ	-14768
▁والمي	-14769
▁ويذكر	-14770
▁الأدبي	-14771
▁الحقول	-14772
▁الدقيق	-14773
▁الزبير	-14774
▁الفيوم	-14775
▁المنهج	-14776
▁المهام	-14777
▁الموجة	-14778
▁الموصل	-14779
▁الموضة	-14780
▁المولد	-14781
▁المولى	-14782
▁الميزة	-14783
▁الميكر	-14784
▁الناجم	-14785
▁النادي	-14786
▁النخبة	-14787
▁النداء	-14788
▁النشرة	-14789
▁النعمة	-14790
▁النفوذ	-14791
▁النقاب	-14792
▁النقاد	-14793
▁النقاط	-14794
▁النقطة	-14795
▁النقود	-14796
▁النقيب	-14797
▁النهضة	-14798
▁النوبة	-14799
اؤل	-14800
وتا	-14801
▁.7	-14802
▁NA	-14803
▁ئه	-14804
▁ثا	-14805
▁ثث	-14806
▁ثع	-14807
▁ثي	-14808
▁ثْ	-14809
▁َا	-14810
▁115	-14811
▁3.5	-14812
▁ize	-14813
▁lex	-14814
▁rib	-14815
▁إنج	-14816
▁بدر	-14817
▁بغي	-14818
▁ثرا	-14819
▁ثرت	-14820
▁ثني	-14821
▁ثير	-14822
▁ريض	-14823
▁شاش	-14824
▁لاث	-14825
▁لكت	-14826
▁متب	-14827
▁متت	-14828
▁متص	-14829
▁متي	-14830
▁يتش	-14831
▁يتط	-14832
▁يتي	-14833
▁ّرة	-14834
▁orex	-14835
▁أزيد	-14836
▁احفظ	-14837
▁استر	-14838
▁استغ	-14839
▁استق	-14840
▁حراك	-14841
▁ختام	-14842
▁زائد	-14843
▁زينة	-14844
▁عاشو	-14845
▁عربي	-14846
▁عصام	-14847
▁علنا	-14848
▁فسوف	-14849
▁لمئة	-14850
▁متاع	-14851
▁متدا	-14852
▁مترو	-14853
▁متري	-14854
▁متعد	-14855
▁متقد	-14856
▁متها	-14857
▁متوق	-14858
▁وريس	-14859
▁وقطر	-14860
▁يتان	-14861
▁يتون	-14862
▁يتين	-14863
▁يوحي	-14864
▁أجسام	-14865
▁اجزاء	-14866
▁استاد	-14867
▁استنا	-14868
▁الشاذ	-14869
▁الغرض	-14870
▁الكند	-14871
▁بحركة	-14872
▁تأليف	-14873
▁لمحطة	-14874
▁مبنية	-14875
▁منهما	-14876
▁وانية	-14877
▁وباما	-14878
▁وصوله	-14879
▁ينتهي	-14880
▁الظلام	-14881
▁المسار	-14882
▁المستع	-14883
▁المنصب	-14884
▁النووي	-14885
▁النيكل	-14886
▁الهادي	-14887
▁الهامة	-14888
▁الهامش	-14889
▁الهلال	-14890
▁الهواء	-14891
▁الهوية	-14892
▁الوباء	-14893
▁الوجود	-14894
▁الوحدة	-14895
▁الورقة	-14896
▁الوصول	-14897
▁الوقود	-14898
▁الوقوع	-14899
اهة	-14900
وفى	-14901
وفي	-14902
يوف	-14903
▁ux	-14904
سلطة	-14905
▁(7)	-14906
▁أرز	-14907
▁ائِ	-14908
▁ابع	-14909
▁امع	-14910
▁بسب	-14911
▁بوف	-14912
▁ركن	-14913
▁سوف	-14914
▁عوف	-14915
▁غاز	-14916
▁كاي	-14917
▁كجم	-14918
▁لاه	-14919
▁لتا	-14920
▁لتت	-14921
▁لتد	-14922
▁لتز	-14923
▁لتص	-14924
▁نوف	-14925
▁نوك	-14926
▁واه	-14927
▁وضة	-14928
▁وفد	-14929
▁يسب	-14930
▁يفع	-14931
▁أسأل	-14932
▁اختر	-14933
▁استه	-14934
▁امور	-14935
▁باحة	-14936
▁بوقف	-14937
▁تكاب	-14938
▁ريدا	-14939
▁زهور	-14940
▁طاقم	-14941
▁طرحت	-14942
▁عدمه	-14943
▁فلقد	-14944
▁لبات	-14945
▁لتقي	-14946
▁لتنا	-14947
▁لتهم	-14948
▁لتون	-14949
▁لموف	-14950
▁هاني	-14951
▁واحي	-14952
▁وجدة	-14953
▁وعاش	-14954
▁يكتب	-14955
▁ادخال	-14956
▁الأسب	-14957
▁الخوف	-14958
▁الشاه	-14959
▁الصخر	-14960
▁الغرب	-14961
▁الغوص	-14962
▁الْأَ	-14963
▁تختلف	-14964
▁تمكنك	-14965
▁لكنها	-14966
▁معترف	-14967
▁موظفي	-14968
▁نكبوت	-14969
▁واللج	-14970
▁والوف	-14971
▁وبيان	-14972
▁وتوفي	-14973
▁الأزرق	-14974
▁الحالت	-14975
▁السعال	-14976
▁السمنة	-14977
▁الضيوف	-14978
▁الوكيل	-14979
▁الوهاب	-14980
▁اليدين	-14981
▁اليمنى	-14982
▁اليومي	-14983
▁امتصاص	-14984
▁امتلاك	-14985
▁امريكا	-14986
▁انتهاء	-14987
▁انخفاض	-14988
▁انسداد	-14989
▁انضمام	-14990
▁انعقاد	-14991
▁انفصال	-14992
▁اهتمام	-14993
▁بأسلوب	-14994
▁بأسماء	-14995
▁بأنواع	-14996
▁بإرسال	-14997
▁بإزالة	-14998
▁بإعداد	-14999
اقط	-15000
نكر	-15001
▁.8	-15002
▁ذة	-15003
▁ذف	-15004
▁ذل	-15005
▁ذن	-15006
▁ذُ	-15007
دادي	-15008
▁:21	-15009
▁أتى	-15010
▁اسل	-15011
▁بمز	-15012
▁دوء	-15013
▁ذاء	-15014
▁ذائ	-15015
▁ذار	-15016
▁ذان	-15017
▁ذرا	-15018
▁ذوي	-15019
▁ذيب	-15020
▁ذيل	-15021
▁روز	-15022
▁شكر	-15023
▁غسل	-15024
▁فكر	-15025
▁كسل	-15026
▁لسل	-15027
▁مكر	-15028
▁نجم	-15029
▁نكر	-15030
▁وبأ	-15031
▁ياة	-15032
▁يسل	-15033
لامات	-15034
▁أمور	-15035
▁إنّه	-15036
▁اهده	-15037
▁بمصر	-15038
▁بيها	-15039
▁تيال	-15040
▁جزائ	-15041
▁ضامن	-15042
▁فائق	-15043
▁لكات	-15044
▁للمض	-15045
▁وبيا	-15046
▁وتلك	-15047
▁وحات	-15048
▁ولذا	-15049
▁يصعب	-15050
▁ينظم	-15051
▁/2011	-15052
▁إيجاد	-15053
▁الجزء	-15054
▁السكر	-15055
▁الشكر	-15056
▁المتأ	-15057
▁المتد	-15058
▁المتس	-15059
▁المتع	-15060
▁تساقط	-15061
▁تنسيق	-15062
▁حبيبي	-15063
▁دخوله	-15064
▁سيظهر	-15065
▁لمجلس	-15066
▁مساكن	-15067
▁مكاتب	-15068
▁منصبه	-15069
▁ويوضح	-15070
▁الاعلى	-15071
▁الحارة	-15072
▁المتاح	-15073
▁المترا	-15074
▁المتعة	-15075
▁المتقد	-15076
▁المتوا	-15077
▁المتور	-15078
▁المعاد	-15079
▁النادى	-15080
▁بإعادة	-15081
▁بإغلاق	-15082
▁بإنتاج	-15083
▁باتجاه	-15084
▁باستمر	-15085
▁بالأمر	-15086
▁بالأمن	-15087
▁بالانت	-15088
▁بالانج	-15089
▁بالدين	-15090
▁بالذات	-15091
▁بالقدس	-15092
▁بالقرب	-15093
▁بالماء	-15094
▁بالمست	-15095
▁بالملا	-15096
▁بالموا	-15097
▁بالنظر	-15098
▁بانورا	-15099
▁ّط	-15100
▁"..	-15101
▁ble	-15102
▁احة	-15103
▁اكي	-15104
▁جحة	-15105
▁صحة	-15106
▁صقر	-15107
▁ضحة	-15108
▁عثر	-15109
▁عفش	-15110
▁فهي	-15111
▁لرح	-15112
▁معا	-15113
▁معز	-15114
▁معص	-15115
▁معط	-15116
▁معك	-15117
▁معن	-15118
▁معي	-15119
▁وإج	-15120
▁وإح	-15121
▁يدل	-15122
وانات	-15123
ياطين	-15124
▁أحلى	-15125
▁الزئ	-15126
▁بارة	-15127
▁بسحب	-15128
▁تحضر	-15129
▁جارة	-15130
▁حارة	-15131
▁دارة	-15132
▁رسان	-15133
▁زارة	-15134
▁شرية	-15135
▁ضوية	-15136
▁قارة	-15137
▁كلات	-15138
▁لأنّ	-15139
▁لالة	-15140
▁مارة	-15141
▁معاء	-15142
▁معقد	-15143
▁معية	-15144
▁ورصة	-15145
▁يارة	-15146
▁يسوع	-15147
▁أنهما	-15148
▁إليكم	-15149
▁ائيات	-15150
▁اشترك	-15151
▁الجند	-15152
▁الحزن	-15153
▁بمطار	-15154
▁سلطنة	-15155
▁فإننا	-15156
▁قصيرة	-15157
▁لغاية	-15158
▁نيوتن	-15159
▁والمث	-15160
▁والمج	-15161
▁والمح	-15162
▁والمط	-15163
▁والمع	-15164
▁والمغ	-15165
▁والمف	-15166
▁والمق	-15167
▁وسائط	-15168
▁وساعد	-15169
▁ومجلس	-15170
▁ويزيد	-15171
▁الإخوة	-15172
▁التطبي	-15173
▁الزئبق	-15174
▁الصوتي	-15175
▁العصبي	-15176
▁القارة	-15177
▁ببساطة	-15178
▁بتحديد	-15179
▁بتصميم	-15180
▁بتعديل	-15181
▁بتقديم	-15182
▁بتقنية	-15183
▁بتناول	-15184
▁بتنظيم	-15185
▁بتنفيذ	-15186
▁بتوزيع	-15187
▁بتوفير	-15188
▁بثلاثة	-15189
▁براديش	-15190
▁بزيارة	-15191
▁بشعبية	-15192
▁بصراحة	-15193
▁بطاقات	-15194
▁بعضهما	-15195
▁بعناية	-15196
▁بكلمات	-15197
▁بكميات	-15198
▁بلوماس	-15199
مكن	-15200
المر	-15201
نائس	-15202
▁أكت	-15203
▁أكن	-15204
▁ألغ	-15205
▁أوك	-15206
▁اصي	-15207
▁اكن	-15208
▁تحس	-15209
▁جمر	-15210
▁حقن	-15211
▁دمر	-15212
▁ركت	-15213
▁سفن	-15214
▁سكن	-15215
▁سمر	-15216
▁سيح	-15217
▁طحة	-15218
▁فحة	-15219
▁كمد	-15220
▁لَة	-15221
▁مشا	-15222
▁نكت	-15223
▁وكت	-15224
▁يحة	-15225
▁ices	-15226
▁اقوى	-15227
▁انظر	-15228
▁بجدة	-15229
▁بفتح	-15230
▁تدلة	-15231
▁تيون	-15232
▁حزبه	-15233
▁حيدر	-15234
▁صيلي	-15235
▁عميل	-15236
▁فأخذ	-15237
▁فتحي	-15238
▁قائم	-15239
▁كلِّ	-15240
▁لمحة	-15241
▁لمكن	-15242
▁لوحة	-15243
▁محلل	-15244
▁وقات	-15245
▁وقام	-15246
▁يكذب	-15247
▁الأوز	-15248
▁الجمر	-15249
▁الحمر	-15250
▁الخمر	-15251
▁الرسم	-15252
▁السكن	-15253
▁الطاح	-15254
▁الطار	-15255
▁الطاع	-15256
▁الطما	-15257
▁الطوا	-15258
▁الطوب	-15259
▁الطول	-15260
▁الطين	-15261
▁القمر	-15262
▁المعن	-15263
▁باهظة	-15264
▁بحلول	-15265
▁بسرعة	-15266
▁تأويل	-15267
▁ترقية	-15268
▁جازان	-15269
▁شهداء	-15270
▁كساره	-15271
▁مشابه	-15272
▁وكتبت	-15273
▁يُمكن	-15274
▁الأنبا	-15275
▁الجولة	-15276
▁الخبير	-15277
▁الدوام	-15278
▁الزميل	-15279
▁الزهرة	-15280
▁الزواج	-15281
▁الصانع	-15282
▁القبلة	-15283
▁بمختلف	-15284
▁بمدرسة	-15285
▁بمشروع	-15286
▁بمعرفة	-15287
▁بمنطقة	-15288
▁بموضوع	-15289
▁بنغازي	-15290
▁بنهاية	-15291
▁بولاية	-15292
▁بيانات	-15293
▁تأشيرة	-15294
▁تاريخه	-15295
▁تايوان	-15296
▁تبارات	-15297
▁تتداول	-15298
▁تتراوح	-15299
▁-4	-15300
▁-7	-15301
▁Ah	-15302
▁ّز	-15303
▁-14	-15304
▁ارج	-15305
▁افِ	-15306
▁تِي	-15307
▁ديت	-15308
▁ستع	-15309
▁عطل	-15310
▁منق	-15311
▁منك	-15312
▁وبت	-15313
▁وبج	-15314
▁وبس	-15315
▁وبش	-15316
▁وبق	-15317
▁وبل	-15318
▁وبن	-15319
▁وجة	-15320
▁ولإ	-15321
▁ولب	-15322
▁ولف	-15323
▁ولق	-15324
▁ولى	-15325
▁يمر	-15326
▁اجرة	-15327
▁اجين	-15328
▁باقة	-15329
▁تعيد	-15330
▁حققه	-15331
▁صابة	-15332
▁غبات	-15333
▁فإني	-15334
▁لاجئ	-15335
▁للصف	-15336
▁لممر	-15337
▁ليّة	-15338
▁ماسة	-15339
▁مالة	-15340
▁منال	-15341
▁منام	-15342
▁منبر	-15343
▁منحة	-15344
▁منحت	-15345
▁منية	-15346
▁هونج	-15347
▁وأمر	-15348
▁وبدا	-15349
▁وبما	-15350
▁وبني	-15351
▁وبها	-15352
▁وتمت	-15353
▁ولار	-15354
▁وللا	-15355
▁ولما	-15356
▁ولمة	-15357
▁ولهم	-15358
▁ولون	-15359
▁ولية	-15360
▁ولين	-15361
▁أتذكر	-15362
▁المذك	-15363
▁بالتش	-15364
▁بعضها	-15365
▁زراعة	-15366
▁اختطاف	-15367
▁الحائط	-15368
▁الشئون	-15369
▁الكافي	-15370
▁المحرم	-15371
▁المهني	-15372
▁امتداد	-15373
▁تتواجد	-15374
▁تجارية	-15375
▁تجعلها	-15376
▁تحميله	-15377
▁تراخيص	-15378
▁تستفيد	-15379
▁تستقبل	-15380
▁تسربات	-15381
▁تشارلز	-15382
▁تشكيلة	-15383
▁تصفيات	-15384
▁تطورات	-15385
▁تعرضها	-15386
▁تعرفها	-15387
▁تعليقا	-15388
▁تفاصيل	-15389
▁تقدمها	-15390
▁تناولت	-15391
▁تُعتبر	-15392
▁ثانوية	-15393
▁جماعية	-15394
▁جماهير	-15395
▁جورجيا	-15396
▁حالياً	-15397
▁حديثاً	-15398
▁حرارية	-15399
اقب	-15400
صلب	-15401
▁١٨	-15402
صلات	-15403
صلين	-15404
▁:55	-15405
▁ins	-15406
▁ise	-15407
▁pre	-15408
▁أمن	-15409
▁ائز	-15410
▁اتب	-15411
▁بتب	-15412
▁تصل	-15413
▁حاق	-15414
▁حرج	-15415
▁حمن	-15416
▁زمن	-15417
▁عرج	-15418
▁عمن	-15419
▁غوط	-15420
▁فرج	-15421
▁فصل	-15422
▁لنس	-15423
▁مسج	-15424
▁مشغ	-15425
▁نصل	-15426
▁وجي	-15427
▁ينغ	-15428
غيلية	-15429
▁oday	-15430
▁أمرت	-15431
▁احات	-15432
▁اطار	-15433
▁ايات	-15434
▁اينة	-15435
▁بيات	-15436
▁بيعه	-15437
▁جنسي	-15438
▁حققت	-15439
▁ديات	-15440
▁ذيات	-15441
▁رشاد	-15442
▁قيات	-15443
▁لممن	-15444
▁ليها	-15445
▁ميات	-15446
▁ناية	-15447
▁ندرك	-15448
▁نعود	-15449
▁نيات	-15450
▁وتصل	-15451
▁ونشر	-15452
▁ينيا	-15453
▁يوقع	-15454
▁يَأْ	-15455
▁أجندة	-15456
▁اعمال	-15457
▁الانع	-15458
▁الباق	-15459
▁الثوب	-15460
▁الدرج	-15461
▁الشرج	-15462
▁الفرج	-15463
▁الْمَ	-15464
▁انتظر	-15465
▁دفعها	-15466
▁صندوق	-15467
▁لالية	-15468
▁محاكم	-15469
▁موحدة	-15470
▁ناوين	-15471
▁واتير	-15472
▁والاق	-15473
▁وطموح	-15474
▁يعاقب	-15475
كمبيوتر	-15476
▁التنفس	-15477
▁الجابر	-15478
▁الحيات	-15479
▁المؤسس	-15480
▁المتصل	-15481
▁حسابات	-15482
▁حصاءات	-15483
▁حقاقات	-15484
▁حياتهم	-15485
▁خرسانة	-15486
▁خصوصية	-15487
▁خصومات	-15488
▁خطابات	-15489
▁خلالها	-15490
▁دائرية	-15491
▁داليات	-15492
▁دراسات	-15493
▁رائيلي	-15494
▁ربيجان	-15495
▁رجانات	-15496
▁ردوغان	-15497
▁رسومات	-15498
▁رشادات	-15499
اطر	-15500
فضة	-15501
قاط	-15502
▁(99	-15503
▁ams	-15504
▁ice	-15505
▁أوت	-15506
▁اتا	-15507
▁ادت	-15508
▁انة	-15509
▁انح	-15510
▁انز	-15511
▁انض	-15512
▁بره	-15513
▁بوض	-15514
▁جسد	-15515
▁خاط	-15516
▁خوض	-15517
▁رّد	-15518
▁ساط	-15519
▁شاط	-15520
▁شوت	-15521
▁عوض	-15522
▁فوت	-15523
▁قرص	-15524
▁لكى	-15525
▁ماة	-15526
▁محا	-15527
▁محط	-15528
▁موش	-15529
▁نوت	-15530
▁هوض	-15531
▁يصل	-15532
▁uter	-15533
▁أعيش	-15534
▁إنني	-15535
▁اندة	-15536
▁انست	-15537
▁انما	-15538
▁انمي	-15539
▁اننا	-15540
▁انون	-15541
▁انيا	-15542
▁انين	-15543
▁بتهم	-15544
▁بلده	-15545
▁تحرص	-15546
▁تدفق	-15547
▁شاري	-15548
▁شريف	-15549
▁عقود	-15550
▁غيار	-15551
▁فاوت	-15552
▁كأول	-15553
▁للمز	-15554
▁لموت	-15555
▁مقهى	-15556
▁وبوت	-15557
▁وفاء	-15558
▁وقوف	-15559
▁أثبتت	-15560
▁إسقاط	-15561
▁افراد	-15562
▁الارض	-15563
▁الانك	-15564
▁الحوض	-15565
▁الخاط	-15566
▁الروح	-15567
▁العوض	-15568
▁انجاز	-15569
▁بوضوح	-15570
▁للأمن	-15571
▁لنفسك	-15572
▁متراً	-15573
▁متكرر	-15574
▁مخاطر	-15575
▁مقياس	-15576
▁وفاته	-15577
▁ولتين	-15578
▁ويمكن	-15579
▁يتعلق	-15580
▁إسلامي	-15581
▁تتعامل	-15582
▁ريموند	-15583
▁سابقًا	-15584
▁سباقات	-15585
▁ستحتاج	-15586
▁ستستمر	-15587
▁ستقرام	-15588
▁ستيكية	-15589
▁سريعاً	-15590
▁سيارتك	-15591
▁سياسات	-15592
▁شاركوا	-15593
▁شخصيات	-15594
▁شعارات	-15595
▁شنغهاي	-15596
▁شيوعًا	-15597
▁صدارات	-15598
▁طبيعية	-15599
▁.6	-15600
هُوَ	-15601
▁:05	-15602
▁أسم	-15603
▁بسم	-15604
▁بلف	-15605
▁تجب	-15606
▁سلف	-15607
▁سيئ	-15608
▁قيه	-15609
▁كلف	-15610
▁لسم	-15611
▁محب	-15612
▁محج	-15613
▁محذ	-15614
▁محر	-15615
▁محس	-15616
▁محض	-15617
▁محف	-15618
▁محق	-15619
▁محل	-15620
▁محو	-15621
▁يكل	-15622
▁َةٌ	-15623
▁َهُ	-15624
▁iPad	-15625
▁ownl	-15626
▁reak	-15627
▁أعلى	-15628
▁إليك	-15629
▁بدور	-15630
▁بريت	-15631
▁تباك	-15632
▁تسهم	-15633
▁حايا	-15634
▁خيمة	-15635
▁ذاتي	-15636
▁رحيب	-15637
▁ريان	-15638
▁ريبة	-15639
▁ريحة	-15640
▁غاية	-15641
▁فيلا	-15642
▁كهذا	-15643
▁لملف	-15644
▁محاس	-15645
▁محبي	-15646
▁محرك	-15647
▁محلي	-15648
▁محمل	-15649
▁محول	-15650
▁مكثف	-15651
▁مونة	-15652
▁وظفي	-15653
▁وعائ	-15654
▁الاسم	-15655
▁الحلف	-15656
▁المحب	-15657
▁المسح	-15658
▁المكس	-15659
▁توقفت	-15660
▁جارات	-15661
▁ختيار	-15662
▁دارات	-15663
▁رارات	-15664
▁سارات	-15665
▁سيوية	-15666
▁شارات	-15667
▁طارات	-15668
▁غارات	-15669
▁أنغولا	-15670
▁إيجابي	-15671
▁اقتباس	-15672
▁الأموا	-15673
▁الدافع	-15674
▁الصخري	-15675
▁القاضي	-15676
▁المحبة	-15677
▁النسبة	-15678
▁رويترز	-15679
▁طواحين	-15680
▁عائدات	-15681
▁عائلية	-15682
▁عاليات	-15683
▁عبارات	-15684
▁عسكريا	-15685
▁عسكرية	-15686
▁عصابات	-15687
▁عقارات	-15688
▁عقوبات	-15689
▁علاجات	-15690
▁علاجها	-15691
▁عمليات	-15692
▁عمودية	-15693
▁عيادات	-15694
▁غذائية	-15695
▁فسيرات	-15696
▁فنلندا	-15697
▁فيتنام	-15698
▁قادرًا	-15699
▁="	-15700
▁gm	-15701
▁pt	-15702
ازير	-15703
قتها	-15704
▁Per	-15705
▁atu	-15706
▁enn	-15707
▁ؤاد	-15708
▁إنك	-15709
▁اوز	-15710
▁حاض	-15711
▁حصة	-15712
▁خاض	-15713
▁رآن	-15714
▁رضا	-15715
▁ريخ	-15716
▁رير	-15717
▁ريع	-15718
▁ريغ	-15719
▁ريه	-15720
▁ريو	-15721
▁ضطر	-15722
▁ضعي	-15723
▁طوع	-15724
▁ظرة	-15725
▁عاً	-15726
▁عمد	-15727
▁غاض	-15728
▁كوز	-15729
▁لوع	-15730
▁مزد	-15731
▁ناً	-15732
▁ياض	-15733
▁يلق	-15734
▁orld	-15735
▁أَمْ	-15736
▁بكسل	-15737
▁تتخذ	-15738
▁تشين	-15739
▁تعام	-15740
▁تميل	-15741
▁راند	-15742
▁ربعة	-15743
▁ريين	-15744
▁صارى	-15745
▁عبدا	-15746
▁لحظة	-15747
▁لماً	-15748
▁معاً	-15749
▁نتها	-15750
▁ورام	-15751
▁وفون	-15752
▁ونعم	-15753
▁وَلَ	-15754
▁يرام	-15755
▁يزعم	-15756
▁2016/	-15757
▁Video	-15758
▁ature	-15759
▁أحدهم	-15760
▁العكس	-15761
▁الفوز	-15762
▁الكلب	-15763
▁بالاض	-15764
▁تتكون	-15765
▁تكبير	-15766
▁خصائص	-15767
▁رأينا	-15768
▁رجالي	-15769
▁قبالة	-15770
▁قدرات	-15771
▁مزدوج	-15772
▁نازير	-15773
▁وعالم	-15774
▁ومعظم	-15775
▁ويبدو	-15776
▁يسيطر	-15777
▁إدارات	-15778
▁إعلامي	-15779
▁الضارة	-15780
▁المحطة	-15781
▁المدين	-15782
▁الوادي	-15783
▁برلمان	-15784
▁قانوني	-15785
▁قراراً	-15786
▁قرارها	-15787
▁قريباً	-15788
▁قفازات	-15789
▁قليلاً	-15790
▁كاملاً	-15791
▁كبيرًا	-15792
▁كتيريا	-15793
▁كثيراً	-15794
▁كلاهما	-15795
▁كيرالا	-15796
▁لأسعار	-15797
▁لأولئك	-15798
▁لإدارة	-15799
▁OL	-15800
▁ut	-15801
متها	-15802
ونيت	-15803
يتها	-15804
▁17,	-15805
▁:20	-15806
▁إند	-15807
▁إيب	-15808
▁برأ	-15809
▁تحل	-15810
▁تعز	-15811
▁جيت	-15812
▁دمت	-15813
▁رفت	-15814
▁سلع	-15815
▁ضمت	-15816
▁علب	-15817
▁عًا	-15818
▁لرؤ	-15819
▁هيت	-15820
عبارة	-15821
▁coin	-15822
▁info	-15823
▁أبوا	-15824
▁اربة	-15825
▁ايير	-15826
▁بعكس	-15827
▁بلغت	-15828
▁بورد	-15829
▁تحاد	-15830
▁تحدي	-15831
▁تحمي	-15832
▁تحية	-15833
▁تعطل	-15834
▁تعقد	-15835
▁تعقي	-15836
▁تعمل	-15837
▁تعيش	-15838
▁داثة	-15839
▁صادق	-15840
▁ضائع	-15841
▁فالإ	-15842
▁لوية	-15843
▁معًا	-15844
▁نائس	-15845
▁وائق	-15846
▁ودعم	-15847
▁وقاف	-15848
▁يحسن	-15849
▁يراه	-15850
▁يضطر	-15851
اخستان	-15852
▁/10/2	-15853
▁أنيقة	-15854
▁الانض	-15855
▁السلب	-15856
▁السيئ	-15857
▁الشيب	-15858
▁الصمت	-15859
▁الطلب	-15860
▁الفيت	-15861
▁الميت	-15862
▁بحرية	-15863
▁حاملة	-15864
▁رفيعة	-15865
▁صاحبة	-15866
▁طبقات	-15867
▁لانية	-15868
▁معالم	-15869
▁وأثار	-15870
▁واللب	-15871
▁وبنات	-15872
▁وجميع	-15873
▁ولابد	-15874
▁اضطراب	-15875
▁القضاء	-15876
▁المراد	-15877
▁بعبارة	-15878
▁حقوقهم	-15879
▁رؤيتها	-15880
▁شخصيته	-15881
▁لإرسال	-15882
▁لإطلاق	-15883
▁لإعادة	-15884
▁لإنتاج	-15885
▁لإنقاذ	-15886
▁لإيران	-15887
▁لاتخاذ	-15888
▁لاتفاق	-15889
▁لافتاً	-15890
▁لافروف	-15891
▁لبناني	-15892
▁لتاريخ	-15893
▁لتبادل	-15894
▁لتتمكن	-15895
▁لتجارة	-15896
▁لتجاوز	-15897
▁لتجربة	-15898
▁لتحديد	-15899
▁DF	-15900
▁ru	-15901
▁yl	-15902
هادة	-15903
▁/09	-15904
▁اقب	-15905
▁ايب	-15906
▁بأي	-15907
▁برض	-15908
▁بمخ	-15909
▁بوط	-15910
▁جهد	-15911
▁ذبح	-15912
▁شاي	-15913
▁شيب	-15914
▁غرض	-15915
▁فهد	-15916
▁فيب	-15917
▁قسط	-15918
▁قيب	-15919
▁كيب	-15920
▁مهد	-15921
▁نهي	-15922
▁هيب	-15923
▁وءة	-15924
▁وسأ	-15925
اهرات	-15926
ديرية	-15927
راعنة	-15928
▁برات	-15929
▁بصوت	-15930
▁بنود	-15931
▁ترات	-15932
▁ثقيل	-15933
▁خليف	-15934
▁سرات	-15935
▁شرات	-15936
▁شعبي	-15937
▁غرات	-15938
▁فارق	-15939
▁قالب	-15940
▁قطعت	-15941
▁لائق	-15942
▁معرض	-15943
▁نزيف	-15944
▁وأرض	-15945
▁ورات	-15946
▁وكيل	-15947
▁يرات	-15948
▁إتباع	-15949
▁إنشاء	-15950
▁التفت	-15951
▁الجهد	-15952
▁الريح	-15953
▁العرض	-15954
▁العهد	-15955
▁القرض	-15956
▁الكتر	-15957
▁المحا	-15958
▁المحر	-15959
▁المحس	-15960
▁المحظ	-15961
▁بالمه	-15962
▁بلوما	-15963
▁تعارض	-15964
▁رأسية	-15965
▁فصائل	-15966
▁لاعبو	-15967
▁مازال	-15968
▁مضخات	-15969
▁نهيان	-15970
▁والتر	-15971
▁ومشار	-15972
▁إجمالي	-15973
▁إدارية	-15974
▁المحال	-15975
▁المحرك	-15976
▁المرات	-15977
▁الوالد	-15978
▁بشهادة	-15979
▁ستغرام	-15980
▁لتأكيد	-15981
▁لتحسين	-15982
▁لتحضير	-15983
▁لتحقيق	-15984
▁لتحميل	-15985
▁لتسجيل	-15986
▁لتسهيل	-15987
▁لتصنيع	-15988
▁لتعزيز	-15989
▁لتغطية	-15990
▁لتغيير	-15991
▁لتمكين	-15992
▁لتمويل	-15993
▁لتناول	-15994
▁لتنظيف	-15995
▁لحماية	-15996
▁لخدمات	-15997
▁لزراعة	-15998
▁لساعات	-15999
جزأ	-16000
فعت	-16001
لعت	-16002
▁05	-16003
▁ry	-16004
▁Ser	-16005
▁png	-16006
▁ral	-16007
▁إعت	-16008
▁ادن	-16009
▁ازل	-16010
▁افه	-16011
▁باص	-16012
▁بنك	-16013
▁تهر	-16014
▁حاص	-16015
▁زهر	-16016
▁شوك	-16017
▁لاص	-16018
▁100%	-16019
▁تحكي	-16020
▁تعلق	-16021
▁تعلم	-16022
▁تلمي	-16023
▁ثاني	-16024
▁داني	-16025
▁طوله	-16026
▁عشان	-16027
▁عليا	-16028
▁غاني	-16029
▁كاني	-16030
▁للمخ	-16031
▁للمد	-16032
▁للمص	-16033
▁للمه	-16034
▁وحسب	-16035
▁وسيد	-16036
▁وللت	-16037
▁وليك	-16038
▁يعمل	-16039
▁يوقف	-16040
ربونات	-16041
▁اسرار	-16042
▁العشر	-16043
▁الغال	-16044
▁الكيك	-16045
▁المحل	-16046
▁بتهمة	-16047
▁بوينت	-16048
▁تتغير	-16049
▁تعاني	-16050
▁تعلمت	-16051
▁حيوية	-16052
▁دالله	-16053
▁عبادة	-16054
▁كأنها	-16055
▁لاحقا	-16056
▁للماء	-16057
▁للمرا	-16058
▁للمرة	-16059
▁مساهم	-16060
▁واتخذ	-16061
▁والتب	-16062
▁والته	-16063
▁والخب	-16064
▁وبناء	-16065
▁وتترك	-16066
▁يتجزأ	-16067
▁اختلاف	-16068
▁ارتداء	-16069
▁ارتفعت	-16070
▁اللوات	-16071
▁المحاص	-16072
▁المحور	-16073
▁اندلعت	-16074
▁بالمئة	-16075
▁كثيرًا	-16076
▁لتطبيق	-16077
▁لصناعة	-16078
▁لعملية	-16079
▁لفزيون	-16080
▁للبحوث	-16081
▁للبقاء	-16082
▁للتجار	-16083
▁للتخلص	-16084
▁للتصدي	-16085
▁للحديث	-16086
▁للحوار	-16087
▁للحياة	-16088
▁للخروج	-16089
▁للدولة	-16090
▁للرياض	-16091
▁للشباب	-16092
▁للشرطة	-16093
▁للطاقة	-16094
▁للعثور	-16095
▁للعراق	-16096
▁للفنان	-16097
▁للقضاء	-16098
▁للقطاع	-16099
مَّ	-16100
▁/8	-16101
▁Cr	-16102
▁آة	-16103
ركيز	-16104
▁/19	-16105
▁10,	-16106
▁ead	-16107
▁rom	-16108
▁ادئ	-16109
▁بلق	-16110
▁بيز	-16111
▁تتد	-16112
▁تتغ	-16113
▁تتق	-16114
▁تَّ	-16115
▁جنة	-16116
▁حنة	-16117
▁ذَا	-16118
▁رَّ	-16119
▁زيز	-16120
▁سعت	-16121
▁طنة	-16122
▁فجر	-16123
▁فَّ	-16124
▁كنة	-16125
▁نسى	-16126
▁نَّ	-16127
▁وإخ	-16128
▁وقب	-16129
▁يسة	-16130
▁الزق	-16131
▁بدعم	-16132
▁تترك	-16133
▁تتسم	-16134
▁تتصل	-16135
▁تتهم	-16136
▁جدية	-16137
▁ذكير	-16138
▁صفاء	-16139
▁عليم	-16140
▁كالف	-16141
▁لملق	-16142
▁محطة	-16143
▁مُست	-16144
▁نوري	-16145
▁وجمع	-16146
▁يفصل	-16147
▁-2019	-16148
▁/2015	-16149
▁Crush	-16150
▁التمه	-16151
▁التَّ	-16152
▁الجنة	-16153
▁الحلق	-16154
▁الخلق	-16155
▁الدَّ	-16156
▁الرَّ	-16157
▁السَّ	-16158
▁الشَّ	-16159
▁الطلق	-16160
▁القلق	-16161
▁اللاس	-16162
▁اهتما	-16163
▁ثُمَّ	-16164
▁ستاني	-16165
▁سعادة	-16166
▁قطرات	-16167
▁نقدية	-16168
▁ومسان	-16169
▁اختصاص	-16170
▁الأخوة	-16171
▁الإناث	-16172
▁الحساب	-16173
▁العادي	-16174
▁القادر	-16175
▁المجام	-16176
▁النضال	-16177
▁تقلبات	-16178
▁تكاليف	-16179
▁راتيجي	-16180
▁للكبار	-16181
▁للكتاب	-16182
▁للكثير	-16183
▁للمجلس	-16184
▁للمزيد	-16185
▁للموقع	-16186
▁للمياه	-16187
▁للنظام	-16188
▁للوقوف	-16189
▁لمصلحة	-16190
▁لمفعول	-16191
▁لمنيوم	-16192
▁لموريت	-16193
▁لموضوع	-16194
▁لولاية	-16195
▁ليشيات	-16196
▁مؤامرة	-16197
▁مؤخرًا	-16198
▁مؤشرات	-16199
▁07	-16200
▁AT	-16201
▁ld	-16202
▁pg	-16203
▁ps	-16204
▁px	-16205
▁ؤه	-16206
جملة	-16207
▁Mod	-16208
▁ave	-16209
▁erb	-16210
▁iPh	-16211
▁أنس	-16212
▁اجم	-16213
▁ادم	-16214
▁اعم	-16215
▁تقر	-16216
▁حجب	-16217
▁خيص	-16218
▁ساك	-16219
▁ستة	-16220
▁ستح	-16221
▁ستس	-16222
▁ستص	-16223
▁سته	-16224
▁شاك	-16225
▁طعم	-16226
▁كاك	-16227
▁مخص	-16228
▁ناك	-16229
▁وجم	-16230
▁وعن	-16231
▁أوبك	-16232
▁تدور	-16233
▁ترغب	-16234
▁دياً	-16235
▁ستتم	-16236
▁سترا	-16237
▁سترة	-16238
▁ستور	-16239
▁ستية	-16240
▁ستيك	-16241
▁سيون	-16242
▁شكرا	-16243
▁فنية	-16244
▁لورد	-16245
▁لِكَ	-16246
▁معاك	-16247
▁معجم	-16248
▁منجم	-16249
▁مودي	-16250
▁نعمل	-16251
▁هيلا	-16252
▁وباك	-16253
▁وبدء	-16254
ستانية	-16255
▁-2017	-16256
▁اغلاق	-16257
▁اكرتا	-16258
▁الأعم	-16259
▁العفش	-16260
▁الْمُ	-16261
▁اموال	-16262
▁تخريج	-16263
▁تشهده	-16264
▁تطعيم	-16265
▁حياتك	-16266
▁دورات	-16267
▁زانية	-16268
▁غانية	-16269
▁فالية	-16270
▁كانية	-16271
▁لعلاج	-16272
▁معارك	-16273
▁وبشكل	-16274
▁iPhone	-16275
▁التعلم	-16276
▁الحبيب	-16277
▁المنام	-16278
▁بطارية	-16279
▁ستانية	-16280
▁لمانية	-16281
▁لمعرفة	-16282
▁مازالت	-16283
▁ماكينة	-16284
▁مباراة	-16285
▁مبيدات	-16286
▁مبيوتر	-16287
▁مترجمة	-16288
▁متقدمة	-16289
▁متنوعة	-16290
▁متواصل	-16291
▁متوافق	-16292
▁متوقعة	-16293
▁مجانًا	-16294
▁مجدداً	-16295
▁مجريات	-16296
▁محاربة	-16297
▁محاضرة	-16298
▁مخالفة	-16299
بلج	-16300
▁6)	-16301
▁AA	-16302
▁AN	-16303
▁Af	-16304
▁An	-16305
▁As	-16306
▁At	-16307
▁Av	-16308
▁-27	-16309
▁ure	-16310
▁أبل	-16311
▁اضى	-16312
▁بمؤ	-16313
▁بمض	-16314
▁بمط	-16315
▁بمع	-16316
▁بمق	-16317
▁بمك	-16318
▁بمه	-16319
▁تبد	-16320
▁ثقل	-16321
▁حبل	-16322
▁رقل	-16323
▁سبل	-16324
▁فلم	-16325
▁لخص	-16326
▁وقم	-16327
▁ical	-16328
▁obal	-16329
▁اجات	-16330
▁بادر	-16331
▁بماء	-16332
▁بملا	-16333
▁تادة	-16334
▁حنبل	-16335
▁دجاج	-16336
▁رائط	-16337
▁راشد	-16338
▁عبده	-16339
▁عدّة	-16340
▁غادة	-16341
▁قادة	-16342
▁للتد	-16343
▁معقل	-16344
▁ملاك	-16345
▁وحين	-16346
▁ولدت	-16347
▁يكمن	-16348
▁ينوي	-16349
▁ِّين	-16350
▁إسلام	-16351
▁الإبل	-16352
▁التخص	-16353
▁الثدي	-16354
▁الثمن	-16355
▁الحبل	-16356
▁الحقل	-16357
▁الفيس	-16358
▁المعا	-16359
▁النقل	-16360
▁الواي	-16361
▁تتحمل	-16362
▁جيداً	-16363
▁رسالة	-16364
▁ريمون	-16365
▁صورته	-16366
▁فتيات	-16367
▁مدبلج	-16368
▁وأكدت	-16369
▁وأنها	-16370
▁واليس	-16371
▁ورؤية	-16372
▁الأغلب	-16373
▁الاصلي	-16374
▁التقاط	-16375
▁التميم	-16376
▁الحادة	-16377
▁السادة	-16378
▁السكان	-16379
▁الصورة	-16380
▁المادة	-16381
▁للمادة	-16382
▁مخيمات	-16383
▁مرتفعة	-16384
▁مرسيدس	-16385
▁مركبات	-16386
▁مسئولي	-16387
▁مساحات	-16388
▁مسارات	-16389
▁مساهمة	-16390
▁مسبقًا	-16391
▁مستشار	-16392
▁مستعدة	-16393
▁مستقرة	-16394
▁مستقيم	-16395
▁مستوصف	-16396
▁مسلحين	-16397
▁مشاهير	-16398
▁مشهورة	-16399
عباء	-16400
▁alt	-16401
▁rec	-16402
▁the	-16403
▁أشر	-16404
▁أصر	-16405
▁ئلا	-16406
▁ارش	-16407
▁اعب	-16408
▁بحد	-16409
▁بنس	-16410
▁تشر	-16411
▁تلك	-16412
▁صعب	-16413
▁صفي	-16414
▁طفي	-16415
▁ففي	-16416
▁فلك	-16417
▁لشر	-16418
▁لفي	-16419
▁هلك	-16420
▁يجز	-16421
▁يجه	-16422
▁يفي	-16423
▁إلاّ	-16424
▁اثبت	-16425
▁اربع	-16426
▁امعة	-16427
▁بآخر	-16428
▁بتين	-16429
▁تتجه	-16430
▁دولا	-16431
▁رأسي	-16432
▁رافي	-16433
▁ربيا	-16434
▁رغبة	-16435
▁ضاعف	-16436
▁فاخر	-16437
▁فيدة	-16438
▁قضية	-16439
▁لتلك	-16440
▁متلك	-16441
▁وأقل	-16442
▁وتعب	-16443
▁وروح	-16444
▁يلين	-16445
▁أصالة	-16446
▁أعباء	-16447
▁أوقات	-16448
▁إرسال	-16449
▁الالع	-16450
▁الانص	-16451
▁الانه	-16452
▁السلك	-16453
▁الصعب	-16454
▁امرات	-16455
▁انتقل	-16456
▁ستشهد	-16457
▁عتراف	-16458
▁كالها	-16459
▁متزوج	-16460
▁مقالة	-16461
▁ناهيك	-16462
▁وتأتي	-16463
▁وسفات	-16464
▁ونسبة	-16465
▁يواصل	-16466
▁ِّدين	-16467
▁اختارت	-16468
▁الأيدي	-16469
▁الدوحة	-16470
▁السيدة	-16471
▁المؤكد	-16472
▁المراح	-16473
▁باليوم	-16474
▁بتجربة	-16475
▁لاتحاد	-16476
▁للجهات	-16477
▁مشواره	-16478
▁مصادرة	-16479
▁مطابقة	-16480
▁معادلة	-16481
▁معارضة	-16482
▁معاوية	-16483
▁معايير	-16484
▁معطيات	-16485
▁معظمها	-16486
▁معظمهم	-16487
▁معلومة	-16488
▁معناها	-16489
▁مغادرة	-16490
▁مغربية	-16491
▁مقاتلي	-16492
▁مقالات	-16493
▁مقومات	-16494
▁مكانية	-16495
▁ملائمة	-16496
▁مماثلة	-16497
▁ممثلين	-16498
▁مملوكة	-16499
ردن	-16500
▁آآ	-16501
▁ؤا	-16502
بعوث	-16503
تعون	-16504
ردات	-16505
▁105	-16506
▁آلي	-16507
▁آمر	-16508
▁آند	-16509
▁أمم	-16510
▁ئيس	-16511
▁برد	-16512
▁ترد	-16513
▁خطة	-16514
▁روك	-16515
▁سطة	-16516
▁شطة	-16517
▁فرد	-16518
▁قطة	-16519
▁لحد	-16520
▁لطة	-16521
▁مدب	-16522
▁وطة	-16523
▁وكأ	-16524
▁ونص	-16525
▁ونك	-16526
▁ونه	-16527
▁ونى	-16528
▁يرد	-16529
▁يوص	-16530
▁أسيس	-16531
▁جاري	-16532
▁حالا	-16533
▁ريطة	-16534
▁زيلي	-16535
▁فالش	-16536
▁فالن	-16537
▁للحد	-16538
▁للرد	-16539
▁لواح	-16540
▁هاري	-16541
▁واري	-16542
▁وخطط	-16543
▁وزات	-16544
▁وعنه	-16545
▁وقتا	-16546
▁وندا	-16547
▁ونسب	-16548
▁ونست	-16549
▁ونهم	-16550
▁ونيا	-16551
▁ونين	-16552
▁ياري	-16553
▁2010،	-16554
▁الأنه	-16555
▁البرد	-16556
▁الجسر	-16557
▁السرد	-16558
▁السطح	-16559
▁الطرد	-16560
▁الفرد	-16561
▁بِمَا	-16562
▁سلمية	-16563
▁فاءات	-16564
▁لقوات	-16565
▁مستوط	-16566
▁منخفض	-16567
▁واحدا	-16568
▁وبذلك	-16569
▁وكأنه	-16570
▁وكبار	-16571
▁يتحرك	-16572
▁يرتكب	-16573
▁يقترب	-16574
▁التماس	-16575
▁الثبات	-16576
▁الرئاس	-16577
▁الطالب	-16578
▁تمهيدا	-16579
▁تناوله	-16580
▁مفردات	-16581
▁مناسبة	-16582
▁منتظمة	-16583
▁منظومة	-16584
▁مواجهة	-16585
▁مواضيع	-16586
▁مواطنا	-16587
▁ميكاني	-16588
▁ميونيخ	-16589
▁ندرويد	-16590
▁نسائية	-16591
▁نسانية	-16592
▁نستعرض	-16593
▁نشاطات	-16594
▁نشرتها	-16595
▁نيكولا	-16596
▁هندسية	-16597
▁هولندا	-16598
▁وأحكام	-16599
▁َ،	-16600
ابتن	-16601
دمية	-16602
▁-19	-16603
▁How	-16604
▁oun	-16605
▁unn	-16606
▁أدم	-16607
▁اتش	-16608
▁اتص	-16609
▁اتف	-16610
▁اتك	-16611
▁اتي	-16612
▁ايج	-16613
▁ايه	-16614
▁بتأ	-16615
▁بيج	-16616
▁سطح	-16617
▁صدم	-16618
▁ظات	-16619
▁ظار	-16620
▁ظبي	-16621
▁ظور	-16622
▁مسح	-16623
▁هدم	-16624
▁يظن	-16625
▁يله	-16626
▁ِين	-16627
▁rack	-16628
▁اتجه	-16629
▁اترك	-16630
▁اتنا	-16631
▁اتور	-16632
▁الزر	-16633
▁براء	-16634
▁بشدة	-16635
▁بطرح	-16636
▁تموت	-16637
▁جزئي	-16638
▁دائي	-16639
▁زراء	-16640
▁ستوك	-16641
▁صوته	-16642
▁فعيل	-16643
▁قَبْ	-16644
▁لاثة	-16645
▁لموك	-16646
▁مساع	-16647
▁هائل	-16648
▁وأسر	-16649
▁وتوك	-16650
▁يضاف	-16651
▁ينام	-16652
▁أجانب	-16653
▁أقيمت	-16654
▁إلهام	-16655
▁اقترب	-16656
▁الزنا	-16657
▁الزور	-16658
▁العفو	-16659
▁القتل	-16660
▁المدم	-16661
▁المنع	-16662
▁الوار	-16663
▁الولا	-16664
▁بمجلس	-16665
▁بوجود	-16666
▁بيضاء	-16667
▁تستطع	-16668
▁تمثلت	-16669
▁تيمية	-16670
▁زمنية	-16671
▁للاخت	-16672
▁ليسوا	-16673
▁لَّمَ	-16674
▁مصرية	-16675
▁مكياج	-16676
▁نووية	-16677
▁والاث	-16678
▁يقارب	-16679
▁الفئات	-16680
▁الكردي	-16681
▁كتابات	-16682
▁وأسعار	-16683
▁وأسلوب	-16684
▁وأعضاء	-16685
▁وأفراد	-16686
▁وأفكار	-16687
▁وأمراض	-16688
▁وأيضاً	-16689
▁وإدارة	-16690
▁وإصابة	-16691
▁وإضافة	-16692
▁وإعادة	-16693
▁وإعداد	-16694
▁وإعلان	-16695
▁وإلغاء	-16696
▁وإيجاد	-16697
▁وإيران	-16698
▁واتباع	-16699
▁yn	-16700
وصات	-16701
▁:18	-16702
▁sub	-16703
▁أخر	-16704
▁أكل	-16705
▁أنج	-16706
▁أنك	-16707
▁أنْ	-16708
▁أوص	-16709
▁ارم	-16710
▁بأق	-16711
▁حلت	-16712
▁رهن	-16713
▁صوص	-16714
▁ظلت	-16715
▁نفى	-16716
▁وقص	-16717
▁ّها	-16718
▁ّون	-16719
▁2001	-16720
▁أخطأ	-16721
▁أندا	-16722
▁أنكر	-16723
▁أنها	-16724
▁اعية	-16725
▁الغد	-16726
▁الغر	-16727
▁الغن	-16728
▁الهب	-16729
▁بداد	-16730
▁جوية	-16731
▁خرية	-16732
▁ساعه	-16733
▁شباط	-16734
▁شراف	-16735
▁عقلك	-16736
▁لموص	-16737
▁مراً	-16738
▁مناص	-16739
▁مهور	-16740
▁وأثر	-16741
▁واحة	-16742
▁وايت	-16743
▁وجهك	-16744
▁وضبط	-16745
▁وقسم	-16746
▁وقعة	-16747
▁وقعت	-16748
▁وقلة	-16749
▁وقود	-16750
▁وقول	-16751
▁وقية	-16752
▁وقيف	-16753
▁وقين	-16754
▁وماً	-16755
▁يجار	-16756
▁َّهُ	-16757
▁أسلوب	-16758
▁السعي	-16759
▁الغاء	-16760
▁الغار	-16761
▁الغام	-16762
▁الغدة	-16763
▁الغرف	-16764
▁الغسل	-16765
▁الغير	-16766
▁تحالف	-16767
▁تحسين	-16768
▁حصوله	-16769
▁راوية	-16770
▁سيادة	-16771
▁شراكة	-16772
▁شيئاً	-16773
▁شيوعا	-16774
▁للجيش	-16775
▁وازية	-16776
▁احتلال	-16777
▁اقتراح	-16778
▁التخرج	-16779
▁العباد	-16780
▁الملحق	-16781
▁الهبوط	-16782
▁رئيسية	-16783
▁لإصدار	-16784
▁لكيفية	-16785
▁واتخاذ	-16786
▁واحدًا	-16787
▁واختلف	-16788
▁واستمر	-16789
▁واضحاً	-16790
▁واقعية	-16791
▁والآخر	-16792
▁والأمر	-16793
▁والأهم	-16794
▁والإست	-16795
▁والانت	-16796
▁والبحث	-16797
▁والبرت	-16798
▁والترب	-16799
▁2%	-16800
▁2/	-16801
▁EN	-16802
▁ئم	-16803
▁Red	-16804
▁Soc	-16805
▁ابا	-16806
▁ابك	-16807
▁ابْ	-16808
▁اسة	-16809
▁بدو	-16810
▁برح	-16811
▁تضر	-16812
▁جعي	-16813
▁ركب	-16814
▁سسة	-16815
▁صدى	-16816
▁صرح	-16817
▁فرح	-16818
▁مشي	-16819
▁وسة	-16820
▁يرح	-16821
▁ينب	-16822
▁ينج	-16823
▁ينح	-16824
▁ينه	-16825
▁ينو	-16826
▁ينَ	-16827
▁أداة	-16828
▁ابات	-16829
▁ابعت	-16830
▁ابقة	-16831
▁ابني	-16832
▁ابها	-16833
▁ابية	-16834
▁ابير	-16835
▁اراً	-16836
▁بيرة	-16837
▁خدمت	-16838
▁دمير	-16839
▁ديرة	-16840
▁رالي	-16841
▁طبيق	-16842
▁عديد	-16843
▁غيرة	-16844
▁فالي	-16845
▁قوية	-16846
▁لالي	-16847
▁مؤقت	-16848
▁مشاع	-16849
▁مشعل	-16850
▁مشهد	-16851
▁ميرة	-16852
▁هالي	-16853
[...]
