<unk>
	


!
"
#
$
%
&
'
(
)
*
+
,
-
.
/
0
1
2
3
4
5
6
7
8
9
:
;
<
=
>
?
@
A
B
C
D
E
F
G
H
I
J
K
L
M
N
O
P
Q
R
S
T
U
V
W
X
Y
Z
[
\
]
^
_
`
a
b
c
d
e
f
g
h
i
j
k
l
m
n
o
p
q
r
s
t
u
v
w
x
y
z
{
|
}
~
¡
¢
£
¤
¥
¦
§
©
«
¬
­
®
°
±
¶
·
»
¿
À
Á
Â
Ã
Ä
Å
Ç
È
É
Ê
Í
Î
Ï
Ñ
Ó
Ö
×
Ø
Ù
Ú
Ü
Ý
ß
à
á
â
ã
ä
å
æ
ç
è
é
ê
ë
ì
í
î
ï
ð
ñ
ò
ó
ô
õ
ö
÷
ø
ù
ú
û
ü
ý
ÿ
ā
ă
ą
ć
Č
č
Đ
đ
ē
ę
ě
ğ
ī
İ
ı
Ł
ł
ń
ō
ő
Œ
œ
ř
ś
Ş
ş
Š
š
ţ
ū
ů
ų
ź
ż
ž
ƒ
ư
ș
ț
ɑ
ɔ
ə
ɛ
ɪ
ʃ
ʊ
ʻ
ˆ
ˈ
ː
̀
́
̃
̄
̅
̇
̈
̊
̧
̨
̯
̲
̶
̷
̿
͡
Α
Δ
Ε
Μ
Ξ
Σ
Φ
Ω
ά
έ
ή
ί
α
β
γ
δ
ε
η
θ
ι
κ
λ
μ
ν
ο
π
ρ
ς
σ
τ
υ
φ
χ
ω
ό
ύ
Ђ
Ѓ
Є
Ѕ
І
Ј
Љ
Њ
Ў
Џ
А
Б
В
Г
Д
Е
З
И
К
Л
М
Н
О
П
Р
С
Т
У
Ф
Х
Ч
Ш
Щ
Я
а
б
в
г
д
е
ж
з
и
й
к
л
м
н
о
п
р
с
т
у
ф
х
ц
ч
ш
щ
ъ
ы
ь
э
ю
я
ё
ђ
ѓ
є
ѕ
і
ї
ј
њ
ћ
ќ
ў
џ
Ґ
ґ
қ
Ү
ү
ա
ե
ն
ր
ְ
ִ
ַ
ָ
ּ
א
ב
ג
ד
ה
ו
ז
ח
ט
י
ך
כ
ל
ם
מ
ן
נ
ס
ע
פ
צ
ק
ר
ש
ת
؇
،
؏
؛
؜
؟
ء
آ
أ
ؤ
إ
ئ
ا
ب
ة
ت
ث
ج
ح
خ
د
ذ
ر
ز
س
ش
ص
ض
ط
ظ
ع
غ
ػ
ـ
ف
ق
ك
ل
م
ن
ه
و
ى
ي
ً
ٌ
ٍ
َ
ُ
ِ
ّ
ْ
ٓ
ٔ
ٕ
ٖ
ٗ
ٞ
٠
١
٢
٣
٤
٥
٦
٧
٨
٩
٪
٫
٬
٭
ٰ
ٱ
ٲ
ٳ
ٴ
ٹ
ٺ
ٻ
پ
ٿ
چ
ڈ
ڑ
ڕ
ژ
ڤ
ڨ
ک
ڪ
ڭ
گ
ڳ
ڵ
ڷ
ں
ھ
ہ
ۃ
ۆ
ۇ
ۈ
ی
ێ
ې
ے
۔
ە
ۖ
ۗ
ۚ
۝
۞
۟
ۡ
ۢ
ۤ
ۥ
ۦ
۩
۪
۫
۰
۱
۲
۳
۴
۵
۶
۷
۸
۹
ܐ
ܒ
ܓ
ܕ
ܗ
ܘ
ܚ
ܝ
ܟ
ܠ
ܡ
ܢ
ܥ
ܩ
ܪ
ܫ
ܬ
ܳ
ܵ
ं
क
ग
ज
ट
त
द
न
प
ब
भ
म
य
र
ल
व
स
ह
ा
ि
ी
ु
े
ो
्
।
ং
ব
র
ল
া
ি
ে
্
ஐ
ஜ
த
ம
ி
்
ක
න
ල
්
ි
ก
ข
ค
ง
จ
ช
ด
ต
ท
น
บ
ป
พ
ม
ย
ร
ล
ว
ส
ห
อ
ะ
ั
า
ิ
ี
ื
ุ
ู
เ
แ
โ
ไ
่
้
์
๑
ა
ი
რ
ღ
ᅠ
ḥ
ạ
ả
ế
ề
ệ
ị
ố
ộ
ợ
​
‌
‍
‎
‏
‐
–
—
‘
’
‚
“
”
„
†
‡
•
‪
‫
‬
‭
‮
‰
′
‹
›
⁃
⁄
⁠
⁣
⁦
⁧
⁩
₪
€
⃣
←
↑
→
↓
↩
↵
⇐
⇒
⇧
−
√
∞
∫
≈
≡
≤
≥
⋅
⋆
⏤
─
━
│
═
▁
█
░
▓
■
□
▪
▫
▬
▲
▶
▷
►
▼
◀
◄
◆
◉
◊
○
●
◔
◘
◦
☀
☄
★
☆
☎
☑
☕
☝
☺
☼
♀
♂
♛
♠
♡
♢
♣
♥
♦
♪
♫
⚠
⚡
⚽
⛔
✅
✌
✍
✓
✔
✨
✪
✿
❀
❇
❊
❖
❝
❞
❤
❰
❱
⠀
⦁
⬅
⬇
⭐
⭕
ⴰ
ⵉ
ⵍ
ⵎ
ⵏ
ⵓ
ⵙ
ⵜ
、
。
《
》
「
」
【
】
い
う
お
か
が
こ
し
す
た
っ
て
で
と
な
に
の
は
ま
ら
り
る
れ
を
ん
ア
イ
カ
ク
グ
コ
シ
ジ
ス
タ
ッ
ツ
テ
ト
ド
ビ
フ
プ
マ
ラ
リ
ル
レ
ロ
ン
・
ー
一
上
中
人
体
前
台
国
在
多
大
天
年
文
新
日
时
有
本
灣
现
用
的
简
繁
語
达
返
體
高
국
기
대
민
번
보
스
어
역
이
한





























﴾
﴿
︎
️
﻿
￼
�
🇦
🇧
🇩
🇪
🇬
🇮
🇰
🇱
🇲
🇳
🇴
🇵
🇶
🇷
🇸
🇹
🇺
🇿
🌟
🌷
🌸
🌹
🌺
🍃
🏆
🏻
🏼
👇
👈
👉
👌
👍
👏
👑
💎
💐
💔
💕
💖
💗
💙
💚
💛
💜
💡
💥
💪
💯
💻
📌
📍
📕
📖
📗
📘
📙
📚
🔔
🔥
🔴
🔵
🔸
🔹
🕔
🖤
😀
😁
😂
😅
😉
😊
😋
😍
😎
😘
😢
😭
😱
🙁
🙂
🙏
🤍
🤔
🤣
🤩
🥇
🥰
▁ب
▁ف
▁أ
▁ل
▁ع
وا
▁ت
ية
من
لا
ات
▁في
ما
▁من
ار
▁ي
لت
ان
ين
لى
▁وا
ها
▁ك
لي
الت
▁إ
ير
لأ
▁الت
را
لع
ون
الأ
ول
▁الأ
▁ح
▁س
ري
ام
.

لس
الع
نا
مع
ست
لك
▁ق
▁ه
▁الع
▁على
لح
لب
ور
دي
الا
▁ن
لف
اب
لق
▁أن
الح
▁ج
الس
وم
▁الا
▁الس
▁الح
يا
دة
لج
دا
لة
▁ش
وق
▁خ
الب
مر
هم
لن
لإ
الج
مت
لد
لش
▁ر
وي
▁مع
مح
▁عن
الف
الق
مي
وت
▁الب
له
▁الج
الإ
▁الق
الش
ذا
بي
▁الف
▁د
لص
▁ص
▁الش
وع
..
▁،
لخ
الن
▁الإ
▁إلى
وب
اع
الك
رة
لر
▁2
الد
ائ
اء
▁ما
اد
مة
اف
وس
مس
▁الك
▁الن
الص
الخ
▁ط
وف
مد
رب
▁الد
كن
الر
▁الخ
▁الص
ارة
رك
▁1
مل
▁الر
وج
ود
لذ
لط
قة
▁وت
مج
عد
مص
اح
الذ
▁"
الي
لو
▁(
▁الذ
▁التي
▁مح
اس
عة
يد
▁ان
مش
نت
ني
بر
▁أو
▁لا
وأ
▁وال
▁وأ
يل
قد
يس
▁20
قي
▁غ
الط
يف
▁-
وك
▁ذ
▁الط
است
رف
▁تح
سب
لمن
وه
نة
اص
لغ
خر
لما
ذه
اج
▁وق
ًا
مست
لث
المن
▁تع
مق
▁علي
لمت
مط
الث
لية
▁المن
الو
▁آ
▁كان
يت
▁هذا
▁است
المت
▁يت
▁المت
لله
وز
مك
▁بن
▁وي
▁الو
موا
وح
▁مص
▁ث
وض
مب
كر
بة
اه
الله
ولا
اً
▁وه
▁الث
خت
لمع
▁الي
يع
كل
▁الله
▁مت
دم
يرة
▁وم
لال
حد
المع
▁أي
اط
▁ز
▁مج
مث
▁ول
▁هذه
ية،
اق
كون
مكن
شر
▁..
▁الذي
يات
▁المع
راء
لمح
▁كل
▁إن
▁بين
سي
مه
ديد
▁والت
صل
رض
ارات
بل
المح
أن
اله
▁وب
▁.
▁بعد
▁مس
▁لت
لات
ثر
▁المح
▁هو
▁مر
الما
▁كس
اني
▁ض
▁وك
لام
ته
جر
▁وف
ند
لمس
▁أك
▁وس
لمر
ة،
عا
ئيس
▁الما
▁يع
لز
▁اله
▁لم
الغ
في
00
يم
▁وع
مؤ
ركة
حة
▁مش
هر
▁بع
▁ذلك
▁تق
ولة
رات
▁مط
تب
المس
المر
خص
▁201
طة
رق
فا
بد
وات
▁المس
ريق
▁خلال
▁قد
وص
حت
عر
▁المر
سم
كم
▁وج
▁كسارة
رد
فس
اري
▁با
▁تت
وط
▁مد
رج
ورة
▁الغ
لمش
يث
▁أس
▁الأس
in
ولي
مال
لمص
سة
فض
نية
▁3
تي
▁هي
▁أع
▁يمكن
▁:
الز
لمست
المص
حن
ــ
▁كما
▁الز
ذلك
▁المص
▁فى
قل
وري
كس
▁وح
وى
از
َّ
المش
عي
افة
الة
لمج
إن
er
▁المش
▁العا
لآ
فع
لنا
الى
▁له
عب
▁تج
المست
▁بت
هد
تى
▁المست
▁العام
رائ
مية
نع
دات
▁بش
خد
زي
اض
لمد
الآ
وية
▁مق
▁مست
▁حيث
▁الآ
المج
▁تص
▁تن
ئة
▁عند
▁اليوم
▁المج
تما
تها
▁بد
20
ثير
اش
نس
دد
▁أب
يب
انية
ينة
▁ولا
وقع
لوا
▁يق
▁عام
المد
ميع
تص
▁قا
مثل
▁العال
ومن
▁الأم
كت
▁المد
فت
▁سي
▁الاست
▁مك
▁مب
وة
رس
▁عليه
ناء
مز
▁بح
▁ون
▁.

لمق
▁غير
▁قبل
▁ومن
حنة
كي
جه
لموا
مان
رية
▁دا
حي
an
النا
▁به
بار
▁قال
▁يج
رت
عم
ربية
المق
مو
▁تش
ملك
▁النا
▁حتى
حدة
▁المق
▁تس
ملي
▁هنا
▁وز
on
▁نا
تر
▁للت
▁بعض
اي
خل
▁مطحنة
▁الى
عل
▁بر
مين
جل
▁ور
▁اح
ملا
▁للب
بت
▁«
ارك
لض
مرا
▁4
▁اب
قط
وان
زة
▁لي
▁أنه
قا
▁عمل
الموا
▁5
در
فر
▁0
صر
ه،
وإ
▁الموا
حق
▁تم
▁أكثر
▁والأ
▁وإ
بح
تج
موع
▁كب
عية
أس
فضل
يان
لاق
مام
or
صول
▁إذا
▁ات
بع
▁عا
خرى
مخ
ابة
▁اس
مغ
ضا
▁أح
مخت
خدام
ومة
▁محمد
اصة
ضي
ها،
ظام
▁مؤ
كا
▁وهو
▁موا
▁التع
▁...

▁A
مات
▁خط
▁الرئيس
غير
▁يوم
ar
طم
الض
ين،
ظر
▁اع
صة
وش
تح
▁وفي
موقع
ديدة
يج
قيق
▁الض
▁كانت
▁آلة
▁تط
طن
عت
لمط
es
▁يكون
رار
▁العمل
▁لأ
at
بات
خدم
▁عبد
▁رئيس
لاث
ديث
ركات
امل
▁ولكن
فق
▁ست
▁ثم
▁وص
كز
يار
▁|
فة
هب
قدم
ودة
▁,
▁–
▁التج
با
▁الإس
▁والا
لمب
▁تأ
▁P
عار
وني
وما
المط
▁العالم
▁والع
▁التح
al
لمؤ
▁بشكل
▁لأن
▁المط
▁S
▁محطم
en
▁مثل
مض
▁الحجر
▁فإن
▁لكن
▁السيا
▁مصر
كية
ريد
طقة
عود
▁بأ
يط
دى
▁جميع
▁تد
▁حس
▁طحن
ليل
راق
▁فر
ئية
▁مي
نب
▁أص
لوم
اعة
المب
المؤ
▁قط
▁المب
داد
▁ار
اك
الات
اريخ
ليم
لمك
▁المؤ
وير
يش
روع
▁يتم
▁C
الوا
▁وقد
▁t
▁نفس
▁M
▁بها
▁هناك
ربي
رح
▁بأن
داول
▁

نان
مار
▁تست
▁الانت
".

▁أخ
به
▁تحت
فاع
▁حول
▁...
▁6
شف
داء
▁البح
ارج
لوق
▁كيف
ميل
▁19
▁يح
عات
صف
يني
▁ظ
▁أم
وخ
▁للبيع
▁يس
بط
هي
▁بالت
اة
▁يست
▁شركة
▁الوا
لري
▁بط
▁أحد
وث
▁شي
المك
مختلف
▁لك
نى
21
قع
ic
نام
▁أش
▁المك
▁دي
سبة
▁فيها
▁عدد
ينا
▁للأ
▁إلا
ضاء
اخت
▁التن
▁فيه
▁عبر
ئي
يادة
راج
▁عب
▁حد
افظ
تاب
موس
سبب
اعد
موض
ونة
هل
▁/
▁للا
سات
وار
جم
يارات
▁الأخ
▁p
▁إلي
▁نق
▁اخت
▁يد
▁الحك
لمي
ورية
انون
▁سن
الوق
صد
▁لن
▁العربية
رير
▁الوق
ريب
عدين
▁والس
▁ملي
لل
بيق
او
▁الدول
▁وقا
واء
▁والح
لمغ
موعة
▁المتحدة
▁انت
▁بك
ارية
الري
▁وقال
اخ
▁لها
دارة
▁يش
▁رس
ائل
لرا
▁8
▁10
it
▁وكان
لاح
▁وض
▁لإ
▁الأول
مف
بق
▁مصنع
▁منذ
ضافة
▁دون
▁تكون
▁أفضل
▁ام
▁وش
▁ري
▁لح
رى
▁موقع
▁الري
جتما
فل
▁الأع
▁بإ
يه
▁لع
▁را
نامج
ريقة
▁للح
▁7
▁تك
▁حق
▁وهي
▁اق
▁الذين
▁الذهب
رفة
داً
لمز
▁فقط
▁بس
▁أف
▁الكرة
تمع
الرا
لاً
المغ
وَ
▁فت
"،
لمه
▁آخر
▁للع
زل
وظ
▁التق
يفة
جة
ديم
لدا
▁الصح
جد
ولى
▁يجب
▁الرا
et
ou
▁المغ
ضاف
om
سية
▁بل
لاد
▁)
لسط
ابات
:

مما
زا
▁[
▁بي
انب
▁بق
▁الوز
لاف
▁ين
غي
▁أخرى
مُ
المز
كد
▁s
عودية
▁سعر
is
▁والب
▁تف
الدا
▁اج
▁تلك
لان
▁معدات
▁الاس
وذلك
▁الاق
▁الدا
▁T
ّة
▁الوط
▁والإ
▁وذلك
لاج
▁لج
▁خام
فال
يران
▁والتي
▁وط
ضع
▁استخدام
وين
▁ود
هما
وائ
▁c
▁القر
نوب
▁وخ
يام
لها
كة
▁الصين
▁المز
جا
▁الجز
ed
▁عملية
▁ترك
اذ
▁وأن
▁كبير
لومات
...
▁منها
▁ذات
▁ليس
أة
حدث
؟

تصاد
موج
▁وما
يق
شار
ادر
▁عليها
نتاج
مون
بية
راف
ياة
▁شخص
قيقة
▁البر
▁او
ظم
▁مما
ياً
▁إس
المه
▁الخط
مَ
▁الشي
▁لق
لاء
▁أق
▁بال
حم
ية.
as
فاق
ومع
▁المه
▁يُ
▁m
▁اف
اقة
▁G
تم
غم
▁اي
غط
▁بالإ
باب
ائر
▁الفر
مارات
▁بما
▁عندما
▁الوقت
ضر
▁ها
▁نت
حو
ابق
▁الهند
▁ومع
▁الان
▁9
▁أيض
وسط
▁السعودية
▁قائ
▁الأح
▁الفك
ويل
▁طريق
عادة
ي،
▁أد
جراء
ودي
▁مرا
مهم
▁مخ
▁أما
▁تر
دمات
قال
راض
ياء
▁والق
le
ظهر
▁مختلف
ورد
▁مجلس
▁الآن
كان
موضوع
▁فقد
ظيم
▁أج
▁الاجتما
he
وقف
▁لدي
يز
▁والد
▁مه
▁العديد
ميز
▁أول
للا
فيذ
لوب
تك
الية
هاز
▁الإع
ولار
منت
امعة
ملكة
رها
▁مجموعة
▁ابن
ac
شة
▁سحق
▁صح
▁الناس
اللا
▁هل
▁كنت
▁تخ
قم
▁الكثير
201
▁والف
لكتر
غيرة
▁الأمري
واع
▁اللا
ing
ذكر
▁الرياض
ِّ
ابع
▁بالن
▁لب
رنت
▁أبو
يك
وبي
re
هة
▁لد
ية.

ونا
وركس
▁وَ
▁والن
▁12
▁B
▁الأط
وله
▁واست
▁200
امة
لمخ
▁القط
▁الخاصة
ملة
زيز
وجد
▁جديدة
اث
▁بسبب
يح
▁والش
نين
▁ولي
برا
▁كبيرة
مبر
حلة
▁عمر
ل،
▁وقت
بس
واصل
▁أهم
ــــ
▁والج
▁سيا
احة
ماء
▁بج
▁واحد
ظمة
▁تب
▁الاحت
عيد
▁2021
ميم
لَ
زب
ات،
▁البي
▁الشر
▁إع
مملكة
▁الإنس
زمة
▁ثلاث
المخ
▁نوع
▁لما
نج
راد
▁فه
ضة
▁الطبي
سن
▁العامة
تبر
ro
مخر
اعدة
▁المخ
▁أبي
-1
يين
ياه
دمة
وجه
ساء
▁أنها
بير
الل
▁فيما
▁مث
وفر
▁2020
am
▁العق
كثر
▁السعر
▁D
ad
▁يمكنك
رام
▁الأولى
طر
اركة
▁الأمر
▁أث
▁عق
▁داخل
▁التط
ناعة
▁وهذا
▁التص
مقد
▁11
تجات
▁عدم
مري
▁15
خذ
▁منه
ريف
▁الثاني
▁احت
▁نظ
▁الفت
وغ
▁الولا
▁أجل
▁الدولة
هم،
▁F
el
▁مدينة
)

▁عل
▁خاصة
us
لملك
ion
▁يا
وء
▁والذ
▁قر
▁والخ
▁وسل
▁بص
▁بالا
▁الخاص
رائيل
انة
▁ضد
كري
▁H
خب
وإن
▁نظام
▁أحمد
مها
المي
▁الأش
مبي
il
▁R
▁الرس
)،
▁التس
▁التعدين
كتور
ربع
م،
▁سنة
▁الشركة
▁الل
▁جز
▁حين
▁دائ
▁مشروع
▁أيضا
▁ملا
▁الخارج
▁للس
ربة
▁برنامج
▁باست
▁للش
▁واحدة
▁حالة
▁لل
▁الحكومة
▁الأمن
▁وإن
▁شر
ادي
▁الجمع
الملك
▁وجود
وغير
▁للق
▁الحديد
▁صف
▁وزير
▁وزارة
▁يؤ
22
▁14
▁وغير
راً
ماً
راسة
▁L
▁والص
▁نج
▁مز
سل
▁وضع
▁الماضي
▁العراق
▁الملك
▁مض
▁أمام
تل
▁المي
لمان
▁فع
▁بالق
وريا
يري
▁للج
اول
سين
▁الإسلام
اطق
▁اش
▁E
▁يص
▁بالع
اهرة
واب
راتيج
▁يحت
هدف
▁العم
▁العربي
▁صلى
ديو
▁بيع
▁أط
ده
▁لس
رجة
▁دور
ملف
▁الشخص
▁حجر
ويت
ية

▁مليون
▁I
▁الثلاث
شرة
قر
يمة
فاء
▁f
لدي
ولوج
ضية
لْ
▁الدين
▁الحصول
▁جديد
▁شيء
▁تاريخ
املة
▁الفلسط
باح
▁نها
▁كثير
▁للإ
▁ارت
جيل
هود
شاء
تحاد
جب
فط
ؤول
علق
▁وسلم
▁وتح
▁ولم
▁عرض
▁h
دل
▁المجتمع
▁نحو
لمملكة
لامي
ليق
المملكة
▁يقول
دت
▁الفوركس
ابل
▁دولار
...

▁إط
▁تطبيق
▁d
جز
▁أغ
هرب
▁سب
ضح
لاب
يلي
▁التد
▁#
▁التش
▁أكبر
▁b
مول
▁منطقة
ab
دث
▁المملكة
ِن
▁بالأ
▁قام
▁الشعب
▁فأ
▁ذكر
▁النظام
▁الرئيسية
▁تنا
▁كتاب
ائق
للي
▁لش
يدة
▁والك
▁ألف
نف
▁الشيخ
▁السلط
عى
ابعة
تين
فظ
▁نس
▁عنه
▁*
رين
وبا
▁المنطقة
ترا
ان،
نك
وال
▁عالية
رعة
كرة
اللي
دف
▁بوا
اهد
افظة
اهم
▁الحر
لحة
▁مف
نق
عاون
أت
لمرا
وبة
المرا
▁ضمن
!

حاب
سبوع
▁والر
▁جد
▁سوف
▁الجديد
▁كيفية
بيل
دق
-0
ot
▁اللي
▁البحث
▁مرة
مخروط
▁المرا
َا
يارة
▁الفحم
اعات
احونة
لفة
▁بيان
قبل
طلب
▁الأرض
حات
▁الحديث
▁18
▁خص
ريط
▁الدولي
▁الوطني
ريقيا
▁W
▁الصف
داف
اراة
and
▁·
▁2019
▁التداول
اتف
▁الولايات
غيير
هور
▁جنوب
نيع
اسبة
مياه
▁بدا
▁نص
▁2018
يو
راط
دية
▁مستوى
▁شهر
▁وعلى
▁الاقتصاد
▁مركز
▁حل
خط
▁الأمير
▁اخ
جهزة
اسم
ائية
يرا
▁طريقة
▁شركات
▁إدارة
▁المزيد
▁إذ
▁المنت
خول
انا
▁الجديدة
▁الأج
ريم
وعة
▁لكل
▁القد
قب
▁رقم
▁العرب
▁منت
▁صور
هُ
▁التف
▁أنا
▁المالية
▁قص
▁حك
مليات
رش
▁(1
▁الاع
لين
▁اعت
▁حساب
▁w
▁الشركات
يص
▁التى
▁التأ
ol
▁الدكتور
▁لذلك
لمين
ويات
انيا
تا
جهة
▁لهم
▁بالف
▁فريق
ارب
▁الاتحاد
رع
طيع
▁السلام
▁جاء
ِي
▁موس
▁السوق
وبر
▁حدث
▁القانون
▁أَ
▁عشر
▁وأضاف
ادرة
50
▁البط
رر
▁كسارات
كار
طاء
حيح
▁تستخدم
▁طلب
▁13
▁نشر
▁للد
▁100
سكر
▁N
احن
اجة
▁لتح
▁الأن
هن
خاص
راب
▁مكان
اسية
ارس
لعب
▁للن
▁لدى
▁العل
ولات
الدي
رامج
▁اليمن
▁الأد
زام
▁حا
عودي
▁سنوات
روس
▁تعالى
▁طاحونة
▁الترك
▁أسعار
▁المصري
▁الحق
روف
▁جانب
▁الأخرى
▁لمن
▁مدير
ضل
غيل
حية
ابقة
نترنت
ائف
▁لو
▁شب
▁مغ
▁تُ
▁طبي
اصيل
ow
▁30
▁جدا
▁البلد
▁ني
▁بناء
ent
ماية
id
ليا
لامة
▁والذي
حب
تمر
لمث
▁تداول
المث
▁الحياة
ديل
اتب
انع
▁الإلكتر
▁دول
▁وان
ائج
▁نش
▁o
ag
▁عبدا
▁المث
▁لـ
والي
▁انه
يئة
مْ
▁رب
▁مخروط
▁الإمارات
▁الخام
وتر
▁الإنسان
داع
▁“
▁رائ
مود
▁الدي
▁الكس
▁عال
جي
ادل
اته
عض
▁اك
وفير
▁ينا
▁الساعة
▁»
▁كور
▁بالح
▁للف
▁بار
▁بالس
تيجة
لملا
▁بالإضافة
ورا
▁بـ
جال
الملا
نائية
▁أيضًا
▁لص
▁النق
حل
ينية
▁وظ
▁أنواع
).

▁الداخ
▁فلا
داث
▁المركز
جار
زيد
ينات
خصص
ليز
▁تحميل
▁وجه
خرج
كلة
▁يعني
▁الملا
مير
▁مجا
▁الشع
▁يأ
احب
▁تحقيق
ec
▁16
▁الثالث
▁الأف
مورد
اية
▁أمر
لسلة
▁دولة
▁تقدم
وست
ضمن
ه.
الها
قاف
▁المعلومات
▁أعلن
ظيف
▁السن
ها.

لـ
▁سيت
e

ى،
ثمار
▁لان
ونية
▁وتع
▁حديث
للج
▁ماك
▁جمع
رقة
ها.
▁الشرق
▁إنتاج
▁يك
راءة
▁اص
▁توا
لموقع
ُّ
اللج
الموقع
لغة
▁واس
▁بلا
▁ترا
دود
▁24
ميس
/1
مفت
هداف
واج
بدأ
▁والمع
▁عدة
▁قائمة
▁الموقع
▁2017
جاج
▁صغيرة
▁مجال
اغ
ين.
هاب
▁l
لموس
▁التاريخ
▁وفق
ونات
▁اللج
▁كتب
لاقة
جراءات
لاة
ارع
▁الصنا
▁بالنسبة
▁السابق
حص
الموس
زم
▁مل
واق
▁وث
ضم
الجة
▁قال:
▁2016
خور
▁O
قت
▁in
ه.

--
▁العالمية
▁لقد
oo
▁السود
زال
▁خارج
▁صنع
▁الموس
▁أثناء
▁بيت
▁للك
صابة
اسي
خابات
▁روا
▁the
اشرة
▁حسب
▁مُ
آن
▁دع
سسة
▁17
▁الأعمال
▁تقديم
▁طن
▁الفريق
لظ
▁إق
▁المواطن
▁رأ
▁يقوم
ومي
▁بالك
st
▁رؤ
ائي
وحة
▁الآخر
▁البلاد
▁للط
▁المواد
▁مو
موت
اشة
▁عد
لوس
كنولوج
ماع
▁رأس
ا،
▁؟
▁تقوم
سسات
▁نحن
▁رسول
ين.

▁إنه
▁تؤ
لقة
▁نف
▁لنا
▁وكذلك
▁كافة
سط
سباب
ناة
ur
▁اد
▁ته
لاقات
الظ
▁المجلس
▁الإنترنت
▁ـ
ونس
▁تعمل
▁الوطنية
ملت
الـ
نسي
▁الأور
▁بان
).
تهم
▁حص
▁استع
الْ
اسب
▁بمن
قول
كمة
طلق
▁سواء
عام
▁البيان
▁الأص
بيع
▁مهم
▁الظ
▁يخ
رأ
ورات
▁تأثير
غة
▁والط
خة
قف
▁الأمريكية
▁الخيارات
▁نفسه
▁أيام
▁خدمة
000
▁خاص
ومية
▁إد
▁بكل
طف
لة،
▁25
▁الـ
▁جني
ترك
ممت
▁الحي
لمف
غب
انات
▁شراء
ئب
▁بالج
▁بدون
ay
لموج
المف
▁يف
▁المشروع
الموج
اء،
▁الرح
▁حر
ظف
▁الشباب
▁سوق
ذج
.c
راع
▁يعمل
▁التعليم
▁الشعر
▁أنّ
....
ئات
▁الموج
ولت
ذر
اسة
▁فهو
▁سوريا
▁المدينة
▁النفط
تبار
▁أمس
▁صناعة
▁ينت
▁وليس
▁ير
يا،
▁آلات
▁المف
للب
▁نهاية
▁بالب
حوق
▁الدرا
▁نقل
▁زوج
هات
▁رح
شي
▁فترة
▁بغ
:1
مذ
▁حيات
▁جهاز
▁فقال
ضور
▁لاع
▁يوجد
جع
▁زيادة
▁للر
▁اض
".
▁للغ
لموضوع
▁a
مرار
اكل
▁ساعة
▁مساء
الموضوع
▁الثانية
▁تعرف
▁موضوع
ادة
▁قطع
هير
تز
▁الخلي
جاز
صى
وصل
ويد
▁سلسلة
▁تصنيع
طي
خدمة
▁الها
▁الموضوع
30
/0
▁لاست
▁أيضاً
▁يكن
▁شك
▁عليك
تنا
ادات
▁قرار
▁وبعد
اكت
سر
م

▁الأخيرة
▁الطاقة
بدو
▁موج
اجر
▁إليه
▁اسم
▁كث
اللب
فاظ
وآ
▁أور
اولة
▁لبنان
وضح
▁جامعة
ملاء
▁عقد
يال
▁لط
صار
كات
ليف
▁الفي
خبار
▁للص
ri
▁التواصل
▁اللب
▁g
▁لمدة
بول
كو
▁بينما
▁الجمه
ستان
▁الاتص
▁الأطفال
▁ليست
▁كورونا
▁الخارجية
▁الجما
▁قانون
▁دبي
هار
▁لف
▁محطة
▁حجم
مم
رط
▁المحت
▁إضافة
▁الأربع
اصمة
▁المال
دين
باء
▁الات
▁السعودي
▁الجيش
▁الفترة
ونيو
▁تصميم
▁جي
▁أت
▁المرأة
▁وآ
▁of
اشر
▁مقابل
▁الرسم
▁فتح
▁السياسية
▁الدولية
▁والث
▁الخميس
▁الوزراء
هِ
▁والاست
ch
لمختلف
المختلف
ومات
▁المختلف
▁ذلك،
▁عض
بحث
َر
زن
ثة
▁باب
▁كون
▁يب
هيم
▁21
▁2022
▁الكهرب
▁الحس
▁الاجتماعي
طلاق
▁النبي
▁{
%D
▁السوري
▁منهم
▁اه
▁السب
▁النها
▁مختلفة
صلاح
▁بالش
▁القائ
ران
ذية
▁السياسي
وبات
موقف
ضى
زين
قافة
▁حال
em
▁صاحب
▁لأنه
جارة
ناصر
▁المقا
un
كسير
▁خلف
لمة
▁الحرب
ممكن
لّ
▁ارتفاع
▁أفريقيا
▁وين
▁اكت
▁ثلاثة
▁أهل
▁العملات
▁لهذا
▁كي
ندق
ريع
▁تغ
مالي
ون،
▁U
يْ
▁إش
▁فوق
▁لكم
▁معلومات
▁نسبة
▁التجارية
اريع
▁and
راتيجية
▁مباشرة
▁الصخور
ظة
▁الوطن
فير
بال
▁الصحة
▁كذلك
▁هم
▁بلد
▁الإق
▁إعادة
▁المصرية
▁كت
منة
ريل
كيل
روج
▁أعمال
.com
▁اجتما
▁أخبار
▁القاد
▁أمري
اهدة
▁يعد
▁الاخت
▁1.
:4
طاق
▁الخدمات
▁تعدين
ثار
▁باستخدام
▁نتيجة
تصادي
"

▁التطبيق
!!
عرف
ديق
▁صباح
▁بالد
صب
▁لله
▁وتق
حا
▁شع
▁السيد
▁ويت
▁تنفيذ
▁الفلسطيني
كام
ياس
▁وكانت
▁وغ
ريدة
▁‏
▁خدمات
▁"أ
-2
▁ملف
ردشة
تمام
ذب
▁الأق
▁الكتاب
▁الرق
▁حقوق
▁جما
▁فلسط
ًا،
رسة
]

▁درجة
ك،
لور
لمياه
▁أعلى
▁الْ
▁أست
المياه
▁القدم
وّ
متع
شن
▁>
▁اط
ابت
راز
▁الإعلام
هاء
▁الماء
▁عَ
▁القاهرة
جن
▁بشأن
▁الغذا
دأ
سام
▁الداخلية
شرين
▁خمس
▁عائ
ia
شد
اهر
روض
▁دين
▁المياه
▁الدم
خفض
علم
▁المعدات
▁نمو
عرض
دع
احث
▁ظل
▁بداية
للق
▁تقد
عاية
وهم
▁دعم
منا
▁الدفاع
ليات
▁عالم
▁للخ
ؤا
▁22
ub
كنولوجيا
▁بلغ
نسية
نيا
سطة
▁جزء
ادن
اللق
لماء
▁باسم
رز
▁تنت
▁أقل
يرات
▁القص
جرة
وضع
▁علم
لمو
قاء
▁السبت
▁J
ric
▁قطاع
▁الجسم
▁إسرائيل
▁المغرب
برز
▁الطب
▁اختيار
▁أكت
فيف
▁أساس
▁اللجنة
سا
▁فض
▁ويمكن
▁عمليات
تمد
▁اللق
نقلة
▁مسحوق
▁عنها
▁وتش
ارت
ؤلاء
شل
▁الكويت
▁روس
▁حسن
▁طب
▁التك
▁طوي
شرات
ملح
▁بات
▁الأكثر
مور
▁الخب
▁مواقع
يلة
▁V
▁الأسعار
▁صورة
سكرية
اا
ew
وذ
▁الإرها
▁أشهر
▁احصل
ذهب
لعاب
▁:

▁الأه
▁مليار
▁الأرد
:0
اطر
▁صحيفة
ريح
مِن
▁يعتبر
▁رفع
▁نوف
لمقد
طع
tp
المقد
جوم
ter
▁والمن
im
▁وبالت
▁إي
▁تعد
▁تقرير
ناك
حقق
▁المصن
▁الروس
pp
▁تطوير
▁تما
▁ومح
▁بخ
ثنين
▁لمع
▁المقد
▁يناير
طا
راجع
▁رغم
▁العالمي
المو
ؤال
ig
▁الأحد
▁معظم
▁ضر
حدى
▁اث
▁سبيل
▁بالر
▁علاج
▁شكل
▁وسط
▁طالب
»،
▁الجمعة
▁وبين
▁عم
▁قوات
غل
تَ
▁كم
▁قوله
▁الصغيرة
▁تركيا
لبة
▁للاست
▁تنظيم
لَّ
▁السيارات
▁المو
رائيلي
▁بير
وائد
▁يَ
▁تلق
لمهم
▁البن
▁النص
ation
▁التخ
ه

▁فن
:3
دون
لوف
▁القيام
سمبر
رم
▁وصف
قق
▁الأمريكي
▁23
▁الثنائية
صا
▁اللاعب
▁لجنة
اتها
▁مارس
▁أمن
فاض
▁مقد
مرة
▁أكتوبر
مقراط
▁حركة
:5
▁K
يوب
طط
▁بواسطة
▁القرآن
▁البحر
ديات
▁بنا
▁تحديد
مبيوتر
▁شبكة
▁n
ياج
ؤون
▁النبات
سكري
ريبة
▁كلمة
ir
▁تعليق
▁الجهاز
▁يعرف
▁اللبن
▁شعب
▁الحالي
▁فق
▁مَ
▁إج
راضي
لرائ
ّا
الرائ
ظروف
ليمية
الوس
دائ
▁الواقع
لاك
▁إيران
اً،
اليا
▁بمع
▁البناء
▁المرك
▁50
امي
▁المنتجات
▁الرائ
▁الأسهم
ut
المهم
▁تمت
دة،
▁المناطق
وسف
يته
▁وسائل
كور
▁تحتاج
بن
ابية
▁الشهر
كيد
▁سلط
غا
▁الوصول
▁عز
صور
▁الأسبوع
▁أكد
ذة
▁بحث
▁الصور
▁البشر
▁رمض
▁الشه
طفال
▁كامل
▁رسم
▁ريا
ئاسة
▁المختلفة
▁البرنامج
▁وأكد
عمل
▁لعبة
نْ
▁دراسة
▁المهم
ميد
▁خلا
▁سير
▁دفع
▁حزب
▁سيكون
▁التعاون
▁الوس
خراج
▁قيمة
فسير
مة،
▁مباراة
▁بذلك
ضايا
▁بالص
يانة
موال
تبة
▁to
▁القطاع
▁التجارة
زات
▁والمت
ul
▁وتن
▁حب
▁التنفيذ
▁الأز
ريس
▁الحل
▁الاش
للغة
لوك
▁الانترنت
اللغة
▁صالح
ديا
▁وأع
ريك
▁المسلمين
▁v
تقد
▁العد
▁الرغم
وليو
-201
ختلف
▁العب
كَ
▁الحكم
ين

▁مصادر
لمُ
لسل
▁معالجة
▁لاح
▁الكبير
▁(أ
qu
▁الحا
جاح
▁بنسبة
ماس
▁الجميع
▁الجزائر
▁قدم
▁سبت
▁المنتج
اعر
حاس
▁المقبل
▁نوفمبر
▁إبرا
▁تريد
▁البيت
▁والمس
▁تناول
مالية
وها
▁افضل
▁السنة
▁جيد
▁المنزل
لمض
▁2015
المض
▁اللغة
المُ
▁قسم
طب
بيب
▁الفنان
▁يونيو
▁أنت
▁تكلفة
iv
لاع
ئلة
▁المحلية
▁وأشار
▁عليهم
قرار
▁بهذا
فاف
لوج
▁للمر
▁أرب
▁المض
▁تغيير
ندي
▁رد
مكان
اما
بو
شفى
▁الرجل
▁النساء
▁إطار
▁الطريق
لبية
10
ّر
قييم
▁بف
▁ديسمبر
▁المُ
ياد
▁الجيري
ليه
اذا
▁هيئة
رة،
▁البعض
▁بسي
عتبر
▁فهي
▁مصدر
▁السعر

صدار
▁أهمية
مظ
▁صوت
مأ
ers
▁أرض
▁الجانب
ارنة
▁تعتبر
افي
▁المسؤول
افحة
حث
طوير
شطة
▁سبتمبر
▁وتت
فتح
ائدة
▁حوالي
نيف
ندوق
▁الذى
لِ
سان
لمورد
▁توفير
راقي
ريعة
▁يط
▁ظهر
هولة
ثمر
▁نقطة
▁ريال
▁والتع
▁منتجات
▁العلاج
▁26
▁يقدم
▁حي
براير
▁رجل
▁المجا
▁الحب
▁المرحلة
مولة
المورد
للح
▁ضع
فعل
▁هؤلاء
طح
▁سعيد
مى
▁الثلاثاء
زاء
▁تعرض
▁١
..

▁الجام
▁قلب
▁وحدة
تاح
▁بالط
▁إست
▁الإد
قيم
بقى
/201
كب
8%
▁فَ
▁الطفل
ائع
▁مِن
▁الفق
▁تز
▁الإسلامية
▁لمس
▁بالخ
وجيه
▁قطر
▁المورد
جاب
▁فان
نائي
▁يريد
وزيع
▁الخص
ريمة
راعة
ميزة
▁طرق
اللح
▁المشاركة
▁كر
ارق
ra
▁الكب
ww
طق
▁دقيقة
▁للو
ادت
▁نتائج
▁نز
ضيف
▁الجنوب
▁2014
كير
eb
ليب
▁الشمس
▁النظر
▁كن
▁وعن
▁مايو
▁رمضان
▁الإنج
▁الاسمنت
و"
▁٢
▁اللح
عال
ريات
▁اتفاق
▁النس
وو
تق
▁دليل
ارف
▁الاتصا
▁العلم
▁خالد
▁زيت
▁الاقتصادية
�

▁محت
▁لدينا
▁27
▁عش
▁(2
▁؛
▁صغير
▁قوة
▁شه
▁كلا
▁الخليج
▁بث
رص
جاه
▁الصحية
▁هدف
ويس
يوم
▁يحدث
الور
▁القوات
اريات
ن،
حين
▁الإلكتروني
▁والو
».

اون
▁الطرق
▁قناة
▁حياة
تماد
▁'
َب
▁الرمل
▁إحدى
os
▁درا
ادث
▁أمير
▁الأشخاص
▁الدوري
▁مناطق
▁الإير
خاذ
فقة
▁الاتصال
▁وتس
▁Y
▁إنشاء
▁واله
▁28
▁جعل
▁السف
خام
شاف
▁ليب
▁وهم
▁كانوا
▁المصنعة
▁البيانات
//
ساب
ine
لمات
▁الإدارة
:2
▁قالت
▁Al
▁در
▁نطاق
▁بني
▁هاتف
بعة
▁•
لملف
▁النفس
▁برامج
مدا
الملف
▁سين
سطس
واعد
▁الور
▁مكتب
▁أصحاب
مميز
▁مدى
▁السلطة
▁شهد
▁الاجتماعية
▁إح
▁آل
▁الثقاف
مدة
حاد
▁وتم
▁أوروبا
▁جع
برى
▁للحصول
▁بأنه
▁زيارة
يسي
▁إبراهيم
▁العملية
▁الهيئة
عَ
▁الملف
طات
▁نادي
▁الاحتلال
د،
▁قدر
▁جهة
▁يأتي
زالة
ess
راك
▁الجامعة
▁الروا
▁ولاية
▁وقالت
▁السودان
غر
▁الإنتاج
خصصة
ttp
سمى
▁صحيح
▁النوع
▁تسجيل
▁وبالتالي
ابي
مارسة
طور
▁أصبح
▁اغ
▁سمع
▁القرار
▁عبدالله
▁الصحي
▁مسؤول
▁إيج
▁المستخدمة
بيض
▁بور
▁الرمال
لمخت
▁صد
▁سبب
المخت
طاع
▁عص
▁العاصمة
▁حكم
فعة
▁يوليو
▁فمن
▁العمر
ind
▁بلاد
▁محافظة
▁فبراير
ائزة
فيد
وقات
خيص
▁القرن
ct
▁وحتى
▁بدأت
▁والغ
يون
▁معه
▁الطعام
▁تحديث
امين
فية
إذا
▁المخت
▁متر
▁In
hat
▁لهذه
▁اخبار
ويتر
▁e
م.
▁2013
▁الانتخابات
▁غس
عمة
كُ
▁بأس
▁وير
um
▁يتعلق
▁فهم
▁قلي
▁باع
يتها
لته
▁النحاس
صبح
▁الصفحة
▁الإش
▁الخبر
▁الاستثمار
▁إليها
▁المستخدم
موح
▁للمن
▁لر
▁وست
حاء
ائد
ريت
▁الكريم
▁العلاقات
بين
▁الأربعاء
سارة
▁يستخدم
▁الثان
نبية
دير
▁رفض
▁متن
▁وانت
▁المحمول
▁إطلاق
يدر
قيقي
▁فك
▁التر
▁الدع
▁الإج
▁والمح
▁وكل
▁الأما
▁تحدث
▁نصف
لسة
://
▁مفت
▁البريط
▁يحتاج
▁تصل
الوف
▁خيارات
موز
ائح
▁اذا
▁طويلة
▁عبارة
▁قب
ساد
لوان
▁كأس
▁عما
نادق
99
▁خب
▁الدور
ديمة
ـــ
▁سيد
▁بدأ
هادة
وفي
▁+
▁الخدمة
ستر
▁موض
كال
نون
▁فيديو
ليد
▁أعلنت
َة
قى
▁رسالة
▁بهدف
ضب
ناع
ارض
▁الأوسط
فادة
est
▁فإنه
نات
▁روسيا
▁الأمور
▁بهذه
▁متعد
▁سا
صح
هج
▁القلب
▁وغيرها
▁النار
▁ذا
▁خطة
▁الأمم
▁يصل
▁2.
فاوض
انه
▁وكالة
ابلة
▁شيئ
لون
▁الفيديو
▁زا
▁معد
نائ
صاص
▁حكومة
عين
▁الوضع
▁البنك
▁كثيرة
▁وإذا
و،
▁شمال
▁إجراء
▁تساعد
▁رج
▁بِ
▁المطلوب
▁جودة
▁السابقة
▁لماذا
صفات
oc
▁يساعد
صلة
▁معرفة
▁بب
▁البار
op
رفع
▁المدير
هه
▁الهاتف
نز
▁يجعل
▁لمح
قيلة
بعض
▁تجاه
عاد
▁سيتم
▁الوف
أي
▁القدس
▁المواطنين
مته
▁&
▁الطلب
▁الأوروبي
ويق
▁تشغيل
هيل
▁رؤية
▁جمي
▁..

خفاض
شا
▁بدء
طوا
▁الدعم
▁يؤدي
▁الاعت
▁افت
▁طرف
▁جيدة
كبر
11
▁الوزارة
▁مطاحن
▁بقي
اره
▁مباشر
▁نائب
▁إث
▁المادة
ناه
▁وعدم
▁مشكلة
▁البد
كذا
▁العملاء
رّ
▁تكسير
▁الاتفاق
▁عيد
▁المدني
▁ولو
▁النت
▁المعد
▁خير
ة.
▁الإسلامي
ندس
▁الحد
ore
وامل
▁جنيه
▁المستوى
her
▁كار
▁الديمقراط
▁لاب
▁العراقي
▁الكر
▁المطرقة
عمال
▁التعامل
مفر
▁تنظيف
▁نيوز
▁الاه
▁العث
▁المعادن
▁يبدو
▁وتأ
__
▁تض
▁29
▁وات
لامية
سد
▁ترامب
▁الأب
▁مرحلة
▁الكسارات
▁لذا
وبية
جلة
▁ممت
▁الدست
نسا
▁تفاصيل
▁سابق
▁ربما
▁المؤتمر
ريحات
▁لغ
ته،
ياب
▁نظر
نه
▁40
ّل
▁الأساسية
موعد
▁الفني
▁بحيث
▁بمح
▁يزيد
▁on
▁الزوج
وراء
اربة
تيب
قائق
▁موقف
▁ساعات
▁ملك
▁لتق
▁توفر
بحت
▁جداً
▁الحدود
▁بنفس
all
▁حرب
▁شعر
▁مخت
▁الاقتصادي
40
بيت
▁أعضاء
▁قول
▁بمج
▁فرصة
▁الدخول
ليزية
ظار
▁المباراة
▁قامت
▁يمن
▁الدائ
▁يحتوي
▁محمود
▁صع
لمانيا
ارضة
▁خصوص
بدا
عيم
▁y
▁لديك
▁ماذا
▁رياض
▁فيل
راث
لول
ير،
فاءة
▁التالي
▁لتن
ليس
وْ
▁الصورة
حيان
افر
▁تَ
اليات
▁ماكينة
ريا
▁إنها
▁السورية
▁مصانع
▁الشرطة
▁PM
▁التالية
▁الحالة
يروس
▁غالب
▁الطبية
▁المصنع
▁الجن
مبيعات
▁وعند
▁وهذه
حر
▁بذ
/2
▁مشاهدة
▁تحمل
▁الجودة
لمذ
▁قراءة
▁للمس
صال
لمانية
▁التربية
▁بمد
هاد
▁"ت
▁منظمة
▁الطائ
▁أغسطس
▁المقب
▁للمش
▁الصلاة
ات.
فى
9%
▁تفسير
▁أحدث
▁محافظ
▁المثا
يبة
ات

▁حماية
▁القب
▁الأغ
▁العض
ناول
▁أخذ
▁بحسب
▁اكثر
▁دار
▁وكيف
▁الفلسطينية
▁فعل
▁النمو
متها
يّ
▁مواد
شاط
▁عاما
▁إف
▁وأس
60
وانين
لالة
المذ
▁مجموع
▁مؤسسة
َّة
▁عادة
▁أبرز
جح
▁كاملة
▁بنت
▁أجهزة
▁كرة
ناية
رجان
اور
▁معا
%D8%
▁مؤك
▁ومس
▁مهمة
▁سوى
هذا
▁علينا
لمها
▁سلي
قدر
▁خلق
▁غرب
لمفت
▁كشف
ضيع
المفت
▁199
شب
▁المصدر
▁فلسطين
▁امت
خرة
▁المذ
▁الشاشة
اقات
▁المنتخب
ك.
▁الحركة
ُوا
▁الرحمن
▁يغ
جير
الوج
▁المنش
عش
لهم
▁ومت
انت
نا،
▁توق
▁ألا
▁العسكرية
ورت
ادية
▁متنقلة
▁صلاح
ئين
▁المفت
▁تحتوي
▁لموا
▁عرف
▁انتها
▁الطريقة
َد
▁الجزء
▁الأخبار
▁أنهم
ak
▁الانس
ابر
▁http
▁التنمية
▁بطريقة
حف
ارير
▁الياب
ْر
ــــــــ
▁لكي
ي.
▁خلي
نيات
قية
ممن
▁تمكن
▁البلا
▁الإسرائيلي
ib
▁والمش
هلة
▁ضرورة
▁يوسف
رسا
فقات
ار،
▁وأوضح
▁أر
▁وصل
▁للمع
خوان
▁مؤشر
وذكر
▁مواجهة
▁أهداف
▁الكسارة
ّه
هم.

▁شأن
our
▁الشخصية
▁الأست
▁الابت
مراض
▁الطلاب
اخر
زع
▁الصناعية
▁فيروس
رجمة
ممارسة
▁تعل
ي

▁الكبيرة
▁دخول
▁2011
للع
▁عضو
داة
ov
▁اجتماع
▁جن
▁الحزب
▁سيارة
▁2012
▁بشر
طبيق
▁العزيز
rus
▁الفرق
نوان
▁فيلم
لفزي
واتف
▁01
▁الوج
▁المحلي
▁أبريل
▁تكن
▁ظهور
؟؟
▁الذات
▁أسباب
▁الكت
▁المحمولة
▁نجاح
خصوص
▁أنحاء
ap
▁والله
▁محد
▁وذكر
اني،
سيا
تجاه
▁تعزيز
▁الرسمي
▁توجد
ill
▁الخيار
▁طائ
▁العليا
هم.
e.
▁النقد
▁د.
▁منع
▁لاف
▁وراء
عملة
▁و"
▁ينب
▁لقاء
▁الأخير
واجه
لوسط
مثلة
الوسط
▁مري
اللع
دي،
ألة
▁Get
ماني
▁معنى
▁فما
▁الباب
▁الأسمنت
ذن
▁الاستع
▁اما
▁لَ
▁الساد
▁شرق
12
▁م

لمري
▁مات
▁العرض
▁الني
علقة
▁الزمن
▁بيانات
المري
ينما
▁عمان
▁فرض
اليف
▁الوسط
لامات
▁اللع
▁حدثنا
▁تث
▁الهواء
▁سج
▁الالت
▁الحمل
ook
▁السبب
▁لمج
▁تظهر
▁مقارنة
▁صحة
ستخدم
.5
▁بتح
▁مرت
▁الدراسة
▁الأيام
▁اللازمة
▁مناف
▁وهناك
▁عنوان
قص
▁ممكن
▁قصة
▁الاص
▁بالفعل
فذ
▁لتع
▁أسبوع
▁إعلان
▁كش
▁قدرة
▁ونحن
▁دائما
▁المري
ياجات
▁أداء
▁لاعب
رانيت
▁قضية
▁از
اصل
زاب
▁انا
نَ
ري،
ونَ
▁بالمن
▁لز
▁المؤسسات
▁والموا
تد
▁العص
▁للغاية
▁النقل
▁غرفة
رسانة
ّد
▁تونس
▁لأنها
▁علاقة
▁لخ
▁منصة
▁أز
▁الموسم
▁تقول
▁فكرة
جاوز
▁والي
ريج
▁الإعلان
▁سبق
▁والز
▁المكان
▁نموذج
▁المعروف
th
▁آلاف
▁السلطات
▁الخير
▁بالض
▁مقا
عامل
▁المجال
▁إِ
▁كام
▁سف
نوات
▁بكر
وام
▁تجربة
▁وظائف
▁فس
▁خيار
▁الاح
▁المستقبل
▁الدورة
▁محاولة
▁حالات
اوز
▁الده
يطرة
▁اللقاء
▁يستطيع
▁طف
مئة
▁القول
ليزي
ِين
▁الطبيعي
قوم
هوم
▁الغاز
تري
▁الجمهورية
ايير
▁مجتمع
ئل
▁الكمبيوتر
راحة
وكس
▁الموجودة
▁العالم،
ميات
▁حز
▁لجميع
ويا
▁الضغط
▁انتشار
زيل
▁اقرأ
▁اليد
▁مرض
ضير
▁سأ
▁الحسن
▁العسكري
▁التابعة
▁سعد
▁فصل
▁الأبيض
▁أصبحت
تبع
جعة
ايا
▁تجارة
▁قم
ip
▁عين
▁مشاكل
▁منح
▁زمن
▁المجموعة
ونه
▁لات
▁وتج
▁العائ
▁for
ملعب
▁مؤتمر
وانات
خير
اطة
80
▁انها
ik
▁الوح
ذار
▁والتن
▁الأهلي
حسب
يريا
حول
▁استق
لوجه
▁الطبيعية
روب
ويض
▁مادة
قه
ويج
الوجه
▁واضح
▁الإمام
▁Pric
▁فوائد
وافق
▁المواقع
▁التب
▁الهدف
▁الشب
▁كاف
▁اتصل
▁ابت
ورو
▁ألمانيا
▁واق
ًا.
▁الإن
غلاق
شنطن
قبة
▁المركزي
▁St
od
▁مجانية
▁الإست
▁r
هلك
رسال
ر،
▁اللَّ
▁نعم
ويم
▁رجال
▁النواب
▁قتل
سون
▁حدود
▁القضاء
▁السفر
▁انته
▁الفرنسي
▁الوجه
ang
▁ولد
▁الاثنين
▁is
▁النظ
▁بنك
▁الجلد
▁إضاف
▁يوما
▁مصن
▁الله،
رجات
:00
▁لتحقيق
▁التفاصيل
▁نفسها
▁خبر
▁الماضي،
▁السيارة
▁غزة
▁تشكيل
▁الخلا
▁وخاصة
▁فإذا
ور،
▁الأحمر
المها
▁لفت
وراق
▁الصوت
▁يلي
▁منظ
▁الزيت
▁أُ
▁تعلم
امن
▁الأقل
▁ليت
ديقة
▁مها
▁الحقيقة
▁سيارات
▁شرح
ذي
▁التحقيق
دان
تُ
▁منز
▁توص
▁مشاركة
وتين
▁الأجهزة
▁لإن
▁الإجراءات
ردد
▁حصل
▁تجد
▁بالغ
▁60
▁الفصل
اطع
▁لكرة
og
▁التدريب
▁جه
▁عناصر
▁منزل
▁الثورة
▁نشاط
رقام
▁الاجتماع
▁نقاط
▁يرج
▁تأس
تبط
ائب
ليك
if
▁(3
▁بدور
▁الجاري
▁التجار
▁اقتصاد
.0
▁بسرعة
▁أض
▁أطلق
ملات
يض
▁الاول
صات
صاب
9%8
▁خلالها
▁للموا
25
▁وقف
▁المحكمة
سس
▁السنوات
عْ
▁البرامج
▁الأسواق
▁موعد
▁المها
▁يمت
ليمي
▁استراتيجية
مكانية
تركة
▁قلت
اضي
داية
خا
▁لمش
زان
▁الفنية
▁برا
▁بطولة
▁الأعلى
▁ضغط
لماني
▁الأجنبية
▁ستكون
أَ
▁معدل
▁قي
▁والمج
▁الغربية
▁شرك
▁عشرة
▁التشغيل
▁سنت
مشق
▁فرص
وسع
▁دوري
▁لكنه
▁نب
▁بالذ
▁جمه
▁استث
▁الجهات
خم
▁امر
آت
▁القدرة
راح
▁القائمة
▁رضي
بهة
▁ويش
ازل
قلة
شط
▁القديمة
ort
طفى
▁لمص
▁k
وجود
ورك
▁والتح
واري
لوع
ادم
▁حقيقة
▁الاستث
▁Re
▁تبدأ
ودا
▁مجرد
▁نسب
▁روح
طوانة
▁العين
▁للمست
▁ليبيا
▁؟

▁الطرف
رامة
▁الإرهاب
▁بعدما
للوا
وعية
▁العلمي
▁لديه
▁أه
▁الحالية
يره
▁الشريف
▁شاهد
غبة
اوي
▁الكبرى
منى
▁ماكينات
▁الجزائ
▁لديها
▁تعريف
لية،
مانية
▁الحج
ce
▁النادي
▁أرد
▁الأزمة
▁الثالثة
لموت
على
▁عربي
يقة
ظل
▁بز
▁الحالات
▁يه
▁الوزن
واد
▁القيا
▁تقع
يميا
الموت
av
مالك
▁اللعبة
▁عقب
▁المناف
.1
▁إما
▁سم
▁حفظ
فص
▁اسعار
▁ويس
▁مسلسل
▁الحكومية
▁(ب
▁يذكر
▁وأح
اللوا
▁لض
▁رائعة
▁يقع
▁أمريكا
▁القيادة
▁النو
▁أبناء
▁أجزاء
▁الحرارة
لممكن
الممكن
بيه
▁الممكن
ئنا
▁31
رطان
▁واسع
مميزة
▁قوية
▁مستويات
▁التقرير
▁عباس
لمون
ها

**
▁يعيش
▁البريد
/20
▁العلماء
art
▁فيت
▁كوب
▁ينبغي
باط
▁المحافظ
يلم
nd
▁تحسين
▁واسعة
طال
دار
▁صنا
▁حوا
▁أربعة
عو
▁AM
▁05
▁النز
▁1-
▁بتق
▁تمر
▁يحمل
▁عامة
طار
▁الأميركي
مخد
▁أخبر
▁باك
▁الحض
▁الغذائية
▁النف
سف
▁متعددة
▁الغرب
▁أدوات
▁صفحة
ريبا
▁09
▁ضبط
▁فرنسا
▁يظهر
▁الرئيسي
ذف
▁دائم
▁اللوا
▁المكتب
▁ممن
▁الرأس
▁يحي
ائص
▁القوة
out
one
▁فل
▁الكاتب
ارقة
▁النتائج
ممثل
٠٠
▁صار
▁بحق
▁بتاريخ
▁مخطط
▁الموت
▁بمش
قات
▁منا
مِ
▁الأمنية
▁حسين
▁ومست
▁خرج
▁حدوث
▁معرض
دخل
▁التعب
▁عليكم
▁مكافحة
▁بمس
▁التجاري
▁تأتي
وقيت
▁الإصابة
▁البرلمان
أل
▁وبي
▁الموظف
لي،
▁!
▁المؤمن
ارا
▁يعود
ثمان
▁وجد
ont
فز
▁المشكلة
ماعيل
▁إجراءات
▁وتص
ews
▁"إ
▁واض
▁المتعلقة
هام
▁الرابع
▁ايضا
▁مين
▁وإنما
▁للعمل
واز
▁أنك
▁بغداد
▁جمال
▁الباحث
▁ماي
▁احد
▁الأفضل
َيْ
▁العلاقة
▁سياسة
▁مالك
▁عبدالع
فات
ابه
▁سكان
▁ملح
▁تمام
ادرات
▁قت
يمان
▁يز
▁الشعبي
كومة
▁500
▁الالكتر
▁الأردن
▁الماضية
▁التعليق
▁لعب
▁ذهب
وزارة
باع
س،
▁التنظيم
▁العلمية
▁تستطيع
▁المشارك
▁للمح
ونغ
▁سام
%D9%8
▁قاعدة
▁الطحن
▁عهد
لوي
▁تجهي
▁الحفاظ
▁الجمعية
كلات
▁الرؤ
▁قيام
▁السكر
▁i
▁كلية
ail
خلص
▁جهود
ّم
▁بهم
▁النوم
▁اليوم،
▁بوك
▁السج
▁يزال
▁جاه
قوط
▁بالما
لبي
▁مساحة
▁تهتز
▁إعداد
▁بمر
موق
▁والمر
قام
▁The
له،
▁2010
▁طول
▁st
لتها
▁الدقيقة
▁وفقا
▁قيا
▁واح
▁مدار
ach
هوة
▁حالي
▁شباب
▁مطالب
▁المتوسط
▁الفوز
▁البيئة
ابون
▁الحال
▁استمرار
▁لعد
▁نست
▁برج
فرة
▁ومش
▁تقييم
▁الرجال
روة
قيقية
▁توقع
▁وأنا
▁نح
ة.

طلاع
▁كلمات
pt
▁اتخاذ
▁فندق
▁الدولار
ندية
▁التغ
▁يجوز
▁الأساس
وظبي
لغاء
▁القوى
ندر
▁دقائق
▁والآ
▁الرسمية
▁مجلة
▁الحوث
are
سك
▁الدنيا
▁أربع
▁الزرا
▁تحويل
كسارة
▁خمسة
▁الكتب
لُ
حرك
▁سان
تراك
▁وقع
خي
ant
ائه
▁شارك
▁الحوار
▁جان
▁‪
▁بريط
▁شخصية
ماد
دالة
▁عمرو
سَ
يفا
▁مقر
▁الوظ
▁واشنطن
ob
▁والمص
▁الاتجاه
▁أعرف
▁الأميركية
▁مجانا
▁الضر
▁المناسبة
▁الإلكترونية
▁الثقافة
▁بصورة
▁قض
غال
▁المقال
سيم
▁اللون
▁الكلام
بلو
▁الأموال
يي
▁محا
▁طرح
▁08
24
▁مظ
▁تصريحات
ate
▁المشاريع
زون
▁يوفر
▁أخرى،
▁الملابس
▁المؤسسة
▁استش
▁ريمون
ht
لمل
▁مميز
▁بينهم
▁نور
▁أثر
راه
----
▁حملة
▁العلوم
▁02
▁03
▁صندوق
▁القادمة
▁الحقيقي
▁سطح
▁"ب
واجد
ائن
▁عربية
▁ويتم
▁حاجة
▁تشمل
▁والمست
▁ويست
▁الرياضية
▁أزمة
▁عبدالعزيز
طلبات
▁يبلغ
ياط
امت
▁pro
▁‫
جابة
▁مشاريع
▁لأي
15
▁دخ
▁اخر
▁المدارس
راليا
▁العاب
ِينَ
غان
▁Ar
▁مكت
▁رائع
▁الفكر
▁التون
احات
واني
قاط
▁الجنس
▁الطالب
مزي
▁البحرين
وسطة
راتيجيات
▁العودة
▁2-
ختيار
▁انخفاض
▁الأستاذ
ملية
املات
▁شاشة
المل
▁الأشياء
شح
الوع
▁المنظ
▁بطاقة
▁أنفس
▁تشرين
▁الجزيرة
▁منتخب
▁سبح
▁سليمان
▁مياه
خطيط
▁فوز
▁ومنها
▁198
▁شروط
رائم
▁المدن
▁نسخة
▁07
▁الفن
▁ثانية
قاد
▁والمؤ
ment
▁البيع
▁السياسة
▁الكهرباء
ادئ
لممت
▁السي
▁ملايين
▁الاخ
▁الحديثة
ات.

▁الصيف
▁البشرة
▁تغير
▁المحافظة
مفاوض
▁يمثل
▁ضرب
▁اللبناني
▁الأرب
بخ
رفض
▁مناسبة
الممت
▁معها
نش
▁X
▁فج
▁سلمان
19
▁عط
▁الدراسات
▁المثال
▁لون
صيد
▁المل
▁إصدار
▁المنظمة
بَ
ost
▁الوزير
▁العمليات
▁لديهم
▁المدرسة
▁جريدة
يدا
▁الكوا
▁يحصل
▁القض
▁قيادة
▁عديدة
▁بينها
▁الممت
هـ
▁وترك
▁فكان
▁الإف
▁فهذا
▁ممارسة
ًا.

ولية
▁المسلحة
يدي
يراً
▁اختبار
مويل
▁ولن
ud
▁ثابت
▁منتج
▁كهرب
▁الوحيد
▁الصحيح
▁مدة
df
▁عاد
اتهم
▁القضية
حتاج
▁تركيب
▁يرى
▁ملاح
▁المحد
بعاد
▁إب
▁المنز
ّن
▁دمشق
وجة
▁ففي
▁أفراد
▁الوع
▁لين
▁الأمراض
ي.

نص
▁الحقوق
▁التحكم
أكيد
▁وفاة
ويه
▁تحرير
▁US
وي،
▁تجهيز
▁لوح
ex
اقشة
▁معروف
▁مدريد
act
▁كمية
▁وصول
▁السؤال
ist
▁تسبب
رائيلية
ah
▁التسجيل
▁re
▁النات
▁كثيرا
▁المرض
سى
▁ويح
43
▁والتعليم
▁انتاج
▁التركية
▁فرق
▁مؤخ
▁أين
▁دورة
▁توزيع
ِر
▁وبعض
▁تحليل
▁الحجم
طلع
ديه
▁تماما
▁القيمة
▁العالي
▁ومص
▁قاد
▁موسى
▁الواحد
%D8%A
عداد
تش
▁المحجر
▁التكنولوجيا
▁الحجارة
▁والم
▁لتس
▁تدريب
مَّ
عون
▁تجمع
▁شبه
▁شهادة
اعم
▁كلام
عة،
70
ئك
روا
▁يسمح
جين
▁باعتبار
▁بض
▁الرئ
▁سك
▁06
▁سورية
▁المقبلة
▁والمق
▁بعيد
▁الفرد
▁العثور
كوين
▁تجاوز
تال
▁الخض
ره
▁عروض
▁نقدم
▁داخ
▁المالي
للو
دادات
▁دائرة
تة
▁ند
▁عَلَ
▁منش
▁كريم
▁جام
وائل
▁مباريات
▁أننا
▁الطبيب
يء
ثرة
▁المشترك
▁كري
▁المهندس
-20
وظيف
تباط
غطية
▁المستثمر
▁لعام
▁04
ظات
▁التقلي
▁البشرية
فيض
▁المناسب
▁معينة
▁الجوية
▁حاليا
▁فلم
▁خطر
قرة
▁مرور
ارد
▁الخرسانة
لقى
▁إمكانية
▁وأما
كمال
▁فكية
▁تمن
هلاك
16
▁والأس
▁ومج
▁سياسية
▁كتابة
واة
▁انف
▁التغيير
▁للز
▁حمد
▁استغ
▁مخروطية
انس
▁You
▁دخل
▁الخامس
▁تواجه
▁مأ
▁الحسين
▁يبدأ
▁اعتبار
▁اللواء
▁3.
▁والمد
▁الأراضي
▁حض
كادي
▁خطوة
ودية
▁رمز
▁مصطفى
انى
▁واحت
▁الحاجة
▁كانون
يخ
▁اللاعبين
▁إزالة
▁التعليمية
▁الدفع
ليزيا
▁بوص
▁متوسط
ect
جهيز
▁الأسود
▁تحقق
▁سما
لظروف
▁بمق
▁بأنها
ph
▁مول
ver
▁أدى
▁الإنسانية
اللو
الظروف
▁التنا
تصف
كند
▁المهنية
ass
▁قطعة
▁العدد
▁الوحدة
فعيل
▁وسيط
▁غسل
قطاع
يقى
بيد
▁سجل
▁جمعية
▁ورد
▁السابع
م.

▁وذ
ائحة
كاء
▁تدخل
بلوما
▁لأول
قاذ
▁وجاء
▁المسجد
13
▁المسيح
▁شاء
▁الفندق
طرة
▁فوركس
فن
▁الظروف
▁عج
▁أسماء
23
▁يقل
▁منخفض
▁تبحث
▁تزال
▁بالو
▁بول
▁انتهاء
▁طوال
لليل
▁الحوا
▁الاستخدام
فاعل
الليل
▁المشاكل
ئة،
سائر
▁الزواج
وارع
▁النجاح
▁الضوء
▁يحب
▁th
▁ليلة
هى
▁السياحة
▁الشمالية
▁الجمهور
▁نجد
▁اللو
▁مسؤ
▁العراقية
▁المغربي
هو
▁الصلب
لقي
▁بلغت
▁شن
▁مِنْ
▁رش
يسى
▁ومؤ
▁المطاحن
▁المعدنية
▁انواع
ب،
▁بالكامل
▁قريب
وداء
▁النائب
▁البش
ذيب
▁الصناعة
▁الجولة
14
▁معين
▁ولذلك
▁الساح
▁بحاجة
▁تصريح
▁الرج
▁إنما
▁جاءت
تها،
▁والاق
.com/
▁الليل
▁بمدينة
▁للتح
ity
عبة
▁)

s://
▁السلع
▁الرياضة
▁النب
بعد
▁سؤال
▁مدرسة
▁لوحة
▁الاسم
▁وأف
▁السير
ابيع
▁بسهولة
▁والعمل
ريقي
▁ثالث
فَ
▁الامت
▁ورب
▁المقاومة
▁للمت
▁تجعل
▁صب
▁ضعف
▁الجبس
▁الأمة
▁الحص
▁جماعة
▁المعارضة
خال
▁احمد
▁فا
▁المخاطر
▁الأنب
▁الشعبية
▁الثقيلة
▁اتجاه
▁%
▁الأحداث
▁رك
▁خطوات
▁عاماً
▁صيانة
▁مشيرا
▁البص
▁35
مراء
▁300
▁زين
▁مجاني
▁إلكتر
▁الفع
▁مساءً
▁إقامة
▁ياس
مخرج
▁هر
همية
▁السما
▁ذو
▁الخلف
وية،
ريبي
▁لكنها
▁فص
زق
أكد
لطة
▁معنا
▁حلول
▁العنف
▁لتش
▁باس
▁صرف
▁الواق
وهات
▁الجد
رافي
▁الاد
▁مراكز
▁محجر
▁للمج
▁القسم
طلح
▁يبحث
▁الشرقية
رتفاع
▁حاج
زز
▁وصلت
▁الأكبر
▁النهائي
▁قرب
▁كف
▁ترى
مارية
▁الفساد
▁"ح
▁أوا
▁متنوعة
▁الصينية
اليب
75
▁إصابة
▁العناصر
▁الإيراني
▁عودة
▁=
▁تراجع
▁اتحاد
رخ
▁(ع
سيق
▁مسل
▁كبار
▁أون
▁السينما
▁اليهود
للغ
لملح
▁تكر
▁الدردشة
رفي
▁عرب
رسل
pl
ختار
جمات
▁Sh
الملح
▁وسوف
▁لند
▁ماليزيا
▁كندا
iz
▁داعش
▁الإسب
▁الأداء
اهمة
18
▁بالقرب
ard
▁والسيا
▁الفض
ك.

▁الوث
▁بوابة
▁مرات
مثيل
اللغ
▁لآ
امية
▁الته
▁ولكنه
▁النشاط
▁صلاة
مـ
▁الهلال
أتي
▁كنا
▁زي
▁الأساسي
▁الموارد
▁التاس
لفزيون
درة
▁هى
▁الفرنسية
شت
ورج
▁تعتمد
▁أبوظبي
▁مذ
قطع
ًّا
▁مستشفى
▁متابعة
▁الألعاب
▁رق
▁تمثل
▁مشارك
65
▁مكة
▁إخ
▁بري
▁الكهربائية
▁تقنية
▁Price

▁الأسد
▁مهما
▁غرف
ack
▁الماض
▁مخالف
▁رواية
▁السيطرة
▁بيد
▁للتن
▁الصانع
قلت
▁الملح
▁اللغ
▁‎
جمة
▁يرت
شاب
▁محل
▁سر
▁الاف
▁اون
▁وتابع
▁ليف
▁الاج
ive
▁عاج
▁بسيطة
▁استخراج
اشات
لمفر
همة
ملع
▁الأسطوانة
▁دردشة
هول
▁جس
Tub
▁جدة
▁التنفيذي
▁البطولة
▁de
▁أحب
▁الدستور
▁80
▁ملموس
▁خلاف
وجل
▁وسي
المفر
▁يعتمد
▁حفل
انوني
▁Ch
▁منتدى
ولد
▁يقا
رتز
▁الخمس
▁ناحية
▁مبدأ
▁(4
▁لحق
▁فحص
نها
▁البداية
▁الشت
ترح
▁العقد
▁المعت
▁المتنقلة
▁الروح
▁والات
▁تخص
▁فلما
▁الفائ
▁التركي
▁لمر
▁وأكثر
▁قصيرة
▁الصحفي
▁طبق
▁المفر
▁محكمة
▁سورة
▁آثار
فيدة
▁أخر
▁يصبح
لرياض
▁للأطفال
▁عملا
▁خطوط
وائية
▁ملابس
▁بيروت
اجم
وضاع
ووف
زاز
▁ويقول
▁الرقم
▁جذ
▁نقص
▁صدر
▁مطار
نَّ
ندا
فف
ينغ
▁الافت
قيب
▁بتن
▁المتوقع
▁وظيفة
ئت
▁مون
ادق
راكة
▁باريس
▁سياسي
▁التحالف
▁الجرانيت
▁المجالات
▁تعديل
▁علا
زر
▁ثاني
يَ
▁لصالح
▁قائد
▁زيد
▁أراد
نبي
nl
▁العهد
▁مالية
▁أصل
▁مواطن
▁واع
▁الصباح
▁كلها
▁لغة
▁وكأن
ضاع
ith
▁عثمان
▁بينهما
ليمات
▁سريع
▁اند
▁مربع
▁يسمى
▁فور
▁المزيد

▁الارد
▁سرعة
نيسة
▁المعرفة
ّي
قة،
▁يدخل
▁القراءة
▁الآلات
▁تصنيف
▁ثان
▁2009
▁قواعد
▁رحلة
▁صديق
▁توجيه
▁ويع
▁المتحدث
▁الهي
ُر
▁الأسنان
▁الحلقة
قَ
▁ممتاز
▁البالغ
▁الإيج
▁المقدمة
اااا
▁بالله
▁ده
▁إنت
▁حزيران
▁اهم
مارس
▁اول
عه
▁القانونية
▁ضمان
▁القضايا
▁كَ
قس
▁طويل
ولأ
▁كله
راس
ئه
▁قادر
ماك
▁الفيروس
▁استمر
▁تشير
▁قليل
▁ترغب
▁وتد
هالي
كبة
▁مساعد
▁ملفات
ِنَّ
▁الكامل
▁0.
▁وأنه
▁امرأة
▁3-
▁صحي
بارات
رفية
▁تي
مفاوضات
ينيا
▁التفكير
▁بقيمة
لموقف
▁اللبنانية
▁برشل
▁غز
▁تدفق
▁تبلغ
▁مسب
▁حضور
▁كأ
35
وراً
جيع
▁الفيلم
▁بأي
سْ
يراد
زايد
حك
▁افتتاح
▁غياب
».
▁وهل
وقة
eu
▁تتم
▁بها،
▁تنزيل
▁مقتل
▁يؤكد
▁—
▁التقنية
▁مستعملة
▁قرية
▁بالمع
الموقف
▁العاملين
▁التوا
▁وموا
▁أولا
يقاف
▁متجر
):
اعدات
▁ووف
كُمْ
▁فعا
ore

▁التخلص
▁الروسية
شى
▁أشخاص
▁بريطانيا
يفون
صابات
▁وأش
▁يلت
▁الشكل
▁الاخبار
▁الغس
▁الرسول
▁الكشف
age
▁فِي
▁روب
▁السكان
▁لشركة
▁النه
▁"س
▁تعالى:
وم،
▁احتج
▁الاتصالات
يتي
شفيات
▁العصر
▁السادس
▁البيضاء
▁الأسباب
▁جلسة
▁عصر
▁الرابعة
▁هكذا
▁والتق
▁البحرية
ل

كية،
ريطة
▁التحرير
تبطة
ساس
▁كيلو
▁الامارات
▁البخ
نيين
▁موت
▁قضايا
▁الموقف
▁ولأ
▁الرد
ندات
▁حقق
▁منتصف
▁نع
▁us
مئات
▁Q
معة
▁الصرف
▁فقط،
وفيق
▁الشارع
▁تعود
▁حف
دو
▁المدى
▁علامة
غوط
ast
▁تضم
▁الزمالك
▁طبيعي
▁بعدها
▁الأحيان
ies
حَ
▁تويتر
▁((
طنا
▁سيف
▁نه
90
▁البنوك
▁البريطانية
حاق
of
▁يض
كما
▁الرخام
▁تشهد
-10
▁الرأي
▁الشيء
▁المغربية
▁تتضمن
▁بالتعاون
مَا
▁ظروف
▁فاع
▁نفسي
▁بعنوان
▁حمل
8

▁أحداث
▁400
▁الخروج
قامة
▁الاهتمام
▁المصادر
▁واقع
▁أداة
44
▁الآخرين
ome
▁ابو
▁درجات
مسك
▁واضحة
▁بفضل
ردة
▁4.
▁جميل
▁تابع
,,
▁تقريب
gle
▁يشعر
s.
aw
▁j
▁YouTub
▁فكر
▁تزيد
ووا
▁تصبح
▁الاث
ُونَ
▁البع
▁اللهم
▁المنام
علام
▁البلدان
▁الرسوم
▁مفهوم
▁70
1

▁الصناعي
▁بحضور
▁الإيط
▁بالي
ناق
يسيا
▁وعدد
▁الشرعية
▁حما
▁٢٠
▁مدرب
كندرية
ديلات
▁تعيين
17
بوط
▁(1)
▁هـ
اخرى
▁ثنائي
واريخ
▁الأسرة
رافية
per
▁الجهود
اطئ
ووضع
▁للات
امام
▁by
w.
▁السكن
aba
▁إصلاح
▁ارتفع
▁الروسي
▁اخرى
▁شرطة
▁وعندما
▁تطبيقات
وانب
شكل
▁الموردين
▁أعراض
▁ويُ
▁بكثير
▁المهمة
▁مصالح
▁كأن
تان
▁سبحانه
▁تا
▁عاش
▁لابد
▁انس
▁تحصل
▁لبعض
▁تطور
▁المتهم
▁Pro
راغ
▁المصاب
▁ووضع
▁الربح
▁امام
فه
رائب
▁الخطوة
▁32
▁به،
▁للنا
يحي
▁الأطراف
▁الخصوص
▁العقود
مكين
▁لفة
ai
▁الأمين
▁مراجعة
▁الطيران
▁يحيى
▁اجل
ك

▁الجامعات
▁فات
▁القديم
نسيق
قيات
قدمة
ide
▁أمين
▁"الت
▁وأخ
▁التركيز
وتيوب
▁الانتخ
▁عقود
ear
▁النباتات
▁وأص
▁ماء
لة.
▁يقال
▁المباشر
▁التصميم
▁تعليم
▁الآية
طورة
▁فار
ديدا
▁بالمر
كلم
▁آسيا
طى
▁وأي
عاة
▁بمص
▁مبلغ
▁كشفت
▁بعضها
▁لِ
▁له،
▁للتع
▁المقرر
▁المدنية
▁250
ite
▁إجمالي
ماذج
▁الحرة
▁الجنوبية
▁إنجاز
هرة
▁سعود
▁الرقمية
▁ورئيس
▁شهدت
▁تشكل
ّى
▁الأصل
▁إرسال
▁النشر
افية
▁بسيط
▁حضر
يرية
▁ومد
▁رسوم
▁برئاسة
▁فقال:
فايات
▁https://
للاج
مخصصة
▁هش
▁لتج
ماغ
▁لتص
▁الكلمات
▁توجه
لمخد
▁متى
▁وربما
حدد
▁ذوي
مئ
اللاج
وحيد
المخد
45
▁ذي
▁الساخ
▁المشتركة
▁الاستق
ق،
▁التقدم
▁العملة
▁الإعلامي
▁ملع
▁دينار
▁سيما
▁أمريكي
▁}
▁المدرب
▁شعار
▁الداخلي
▁توقف
▁تؤدي
▁وتف
▁الصهي
▁الثانوية
▁ستة
▁لمواجهة
▁جدًا
▁الأوراق
خمة
▁al
▁الكيميا
▁بتع
ish
▁الحصى
▁قوي
▁ملعب
▁العش
▁جائزة
▁الاستفادة
▁يعاني
علان
▁والض
▁المنتدى
▁بعضهم
واك
هُمْ
▁بتوقيت
▁المخد
تْ
ولع
رهاب
حه
▁نفسك
راوح
▁الزراعة
ناً
اطعة
▁وكيل
ستي
6

▁وفى
▁اللاج
▁مبارك
ون.
▁الهجرة
مطار
و.
2

▁سهلة
لاند
▁والاجتما
▁أى
ة

▁ثنا
ord
▁تولي
▁الإخوان
▁(ي
hats
▁لدعم
▁الملكي
-19
7

▁pdf
▁الديمقراطية
▁الدكت
▁ويجب
▁حاول
▁الزجاج
▁للي
بحاث
▁تختلف
▁مزيد
▁دقيق
▁اليون
3

▁واخت
ly
ترب
▁نيج
▁الحيوانات
▁الأعضاء
نيه
ينه
لايات
▁علاقات
▁مسلم
▁45
ry
▁ترت
▁إفريقيا
▁برشلونة
▁يجري
▁محرك
سلام
▁قرارات
▁مؤسسات
▁الرئيسية/
ain
▁عالمية
▁الكاملة
▁crus
▁تأسيس
تصر
اظ
ادلة
▁أستراليا
صيل
▁رحمه
▁كُ
ibaba
▁يملك
اكمة
▁مجالات
▁عُ
▁;
▁شيخ
وضيح
▁حج
ناط
يطان
▁منصور
pr
▁يشير
▁الثلاثة
وره
▁أنظمة
▁الإسرائيلية
▁مقدمة
▁فعاليات
عدام
▁أماكن
▁فوري
▁طفل
▁يعتقد
▁السعود
▁$
▁الانق
▁تجار
▁الثقة
▁وجدت
/3
وشر
▁الوظائف
▁ضوء
اضر
بة،
▁الإثنين
▁أظهر
▁النصر
غار
ائها
▁وبد
يما
رقية
▁التطبيقات
▁جدول
▁مصر،
سيد
▁لمد
▁ووا
▁الترب
▁بسعر
▁"ف
o.
▁الامن
▁مارك
دوز
▁عليه،
▁"إن
▁المساعدة
ت،
▁لفترة
▁تسمح
ضامن
▁جلس
▁الرطب
ثناء
▁Z
▁المريض
oogle
▁الأوروبية
▁197
▁شارع
▁وهنا
لاص
www.
▁للذ
▁اكتشاف
حْ
ترف
واه
شيات
▁شديد
▁بتص
▁أطفال
▁وجل
نين،
▁شاب
▁المحتوى
ِهِ
▁المتحدة،
▁يتطلب
▁أولاً
▁فرع
▁يتحدث
ريقية
▁العظيم
▁التكسير
▁انق
▁الصالح
عتقد
▁النهاية
▁العقل
▁الصراع
يرة،
az
▁بعدم
لمأ
▁الكرب
ندرويد
ريحة
▁الذكية
........
▁ولكنها
يل،
▁الشام
end
▁غذا
وته
▁ورقة
عن
اؤ
لعة
▁العالية
وفرة
▁المرور
▁مسألة
▁الداخل
▁الملفات
المأ
▁​
▁أجر
ياً،
▁قياس
67
▁السماء
▁فئة
▁حسابات
▁وتب
نة،
▁مساعدة
▁لمك
▁ملت
▁2008
▁مورد
▁بقوة
▁البرت
▁مدا
▁ومق
▁اعتبر
▁الأدوية
▁أسهم
▁بموج
▁جون
مذه
▁وابن
▁بمث
▁اليومية
▁عسكرية
▁الدينية
دَ
▁كلما
▁90
اتل
▁استخدامها
▁سلامة
▁ولع
بادة
سير
دونيسيا
▁ص

صي
▁الرابط
ارئ
▁نصر
▁يدل
▁باكستان
هان
▁أوس
▁شيئا
▁رأي
▁للض
▁المصالح
للعب
▁لندن
▁أنَّ
▁الحرية
▁(5
▁المأ
▁التأمين
▁إشارة
▁تقارير
▁القاعدة
اكس
▁سقوط
دمير
اللعب
▁مراحل
▁عكس
4

مضي
▁مستقبل
▁فرد
-12
▁الذكر
▁تواصل
بداع
▁تصوير
ونها
▁at
ياز
ّع
لمظ
▁150
ميلة
▁بتس
ستيك
▁اسمه
زيارة
▁عنا
”.

ذاب
▁تسعى
▁منك
▁أكثر

ني،
▁العما
▁الأماكن
▁المسرح
حايا
▁ألعاب
▁حظ
▁العمال
▁البياني
▁المكر
و

▁لاين
▁الإصلاح
▁المحيط
▁الغرفة
▁البور
▁السريع
ثبت
9

▁جوجل
▁الفور
بيعة
▁وإلى
▁القومي
▁اذ
شية
▁بالمد
موم
المظ
▁الموافق
▁نيوي
▁الانسان
َرَ
مييز
صفح
ولاً
ضون
▁علماء
▁ويج
دام
▁فهل
▁PM

▁كوم
▁يوميا
▁الامري
▁ترتيب
▁اللعب
هَ
▁وتر
▁وحد
▁عامل
دامة
▁يضع
▁الحكوم
▁يشكل
▁بمناسبة
ust
▁ولما
لملي
▁لمت
▁ثقافة
▁سكن
▁أكدت
▁@
▁قائلا
▁المالك
▁تكنولوجيا
▁يحاول
▁يجد
▁لـ"
لقاء
▁لضمان
يّة
يغة
▁الهجوم
▁الأرج
خصة
بي،
▁لتقديم
▁مور
▁القهوة
كاة
▁أغلب
▁مسار
▁ويب
▁مهرجان
.‏
الملي
▁ناصر
ئمة
▁اعتماد
▁تتميز
▁برس
▁باله
▁الحاج
وعات
▁أولى
▁المستشار
▁كلّ
▁اتفاقية
لندا
▁الأخضر
▁إيط
▁سري
▁الشاب
▁(ت
▁المظ
▁آب
▁الدهون
▁شئ
▁أبطال
ركان
▁إنّ
▁لسنة
▁القبض
▁المجموع
▁يعل
▁>>
▁السوداني
▁حرارة
▁انطلاق
▁تور
▁الغربي
▁السمو
وائز
▁الحمد
رفيه
▁وأضافت
▁الكالس
▁مبر
▁"ع
قين
ran
فيفة
▁الموجود
▁تؤثر
دوات
وسيع
▁والمرا
▁الصيد
▁زايد
▁غيار
▁استطاع
هَا
▁تعيش
▁خطأ
▁والسلام
▁الألمانية
▁دعا
رادة
يتم
▁يومي
▁الخطوات
▁نهائي
كمل
▁صفوف
ول،
▁الآثار
غني
ولين
▁ترب
▁com
بوب
▁السيسي
▁مطلوب
▁الشاعر
▁حصلت
اتي
▁موجود
▁النيابة
▁الرعاية
▁غسيل
▁الملي
/10
ريبات
-200
▁التهاب
راص
3.
▁جوز
بطة
▁السويس
▁الملكية
ظاه
▁معهم
▁سعودي
تام
سرائيل
▁عسكري
▁لمعرفة
ينو
▁العلامة
البة
▁وتخ
▁أفكار
كاني
ell
الَّ
▁جميلة
بوك
▁المتح
▁انتخابات
▁وشر
App
▁تذ
▁الإدارية
نَا
▁يفت
صالات
▁خطاب
▁وتطوير
ائط
لقت
قدير
▁تهدف
▁والري
▁لوك
▁كفاءة
▁نقوم
▁مم
▁....
▁وجهة
▁حرص
مفيدة
▁الصحافة
▁الرسالة
▁يخرج
▁معرف
▁آن
▁محطات
▁مسئ
▁العج
لالات
▁الخطاب
▁التابع
▁تبقى
▁أشار
▁بجانب
":
سبق
▁«أ
▁إير
ّة،
روح
▁الخلاف
▁فضلا
وميت
▁بخصوص
▁لأس
زنة
▁تكوين
▁نيس
عاقد
الته
▁باللغة
▁بمنطقة
▁ويكي
▁1000
اعي
▁يدفع
▁المحاجر
▁حلم
▁المحا
▁المناخ
▁الفائدة
▁يواجه
1.
▁الصغير
لفات
موري
▁العدل
▁نظرة
كين
ie
▁التخطيط
▁الإث
▁Mar
▁إلغاء
▁ملموسة
▁ثورة
▁حياته
▁لها،
شرت
▁نن
ريض
org
▁لعلاج
▁"ن
▁السياحية
▁الالتزام
ارى
مخصص
▁التسويق
▁شار
الوي
▁تام
se
▁وتست
▁الشعور
▁الحساب
▁تعلن
▁وحدات
زيمة
رث
▁عمو
▁ورا
▁رف
▁يعلم
▁الجنسية
rom
▁توقيع
▁عالي
تس
48
َالَ
▁الإطلاق
حمل
تبه
▁ومحمد
▁نوعية
-11
28
▁الاولى
▁الكام
ows
▁قالوا
»

يدرولي
▁المتاحة
▁وأنت
▁الفلس
▁نيجيريا
▁ذلك.
2.
،

▁إسماعيل
▁تتعلق
▁قيل
▁الصيني
▁رأى
قوق
▁هوا
▁-

▁السيلي
▁مبادرة
▁تصف
▁يرغب
لمبيعات
▁نجوم
▁More

▁لحظة
▁عمي
▁اثنين
27
▁بقيادة
▁علما
▁رابط
▁أبا
▁سل
المبيعات
يور
▁دعوة
▁تتبع
ضط
▁يبقى
▁وفقًا
▁ساع
▁العام،
▁وهكذا
▁الميلاد
▁اكبر
▁نبات
▁إغلاق
راسات
▁خطط
لاحظ
▁اليه
▁نصائح
▁سيع
▁التزام
▁والمه
▁كيل
▁طبيب
▁الشبكة
▁الجزائري
▁الذهاب
▁المبيعات
▁الشؤون
▁الأفراد
▁بإن
▁خليفة
▁مكونات
▁موسم
▁Alibaba
▁الثقافية
▁دوا
▁تعاني
▁am
▁النسخة
▁سمعت
▁الوي
برة
ركز
66
▁الناقل
▁للمب
▁خروج
▁حماس
ه:
دريب
▁مجد
▁أل
▁الأهداف
دس
▁الانتاج
▁جرى
▁التاريخية
5

▁العربية،
ضمام
▁المعنية
صدق
▁مناسب
▁العاملة
▁جيدا
▁وكذا
ؤكد
▁الزراعية
▁2021

ان.
هتمام
▁يطلق
▁الفرصة
▁بمب
▁بالرياض
▁قليلة
▁ثمن
▁البتر
33
▁للغا
كِ
▁للمد
▁هد
ان

▁ثقاف
▁واج
▁بالصور
▁العميل
▁سحب
▁مقالات
▁_
▁دائماً
▁المائة
▁أية
▁الدقيق
▁شكر
▁المطلوبة
ائعة
ادثة
▁بخط
▁احتياجات
▁علامات
▁"ج
▁الاستراتيجية
▁الامر
▁الشرك
▁مدن
▁الوك
ناد
▁مير
▁بَ
سوم
▁تذكر
▁دولي
▁المبارك
▁يكفي
▁الصعب
▁بالمح
▁العوامل
▁مسرح
▁المصنعين
ومان
▁قمة
▁ذكرت
▁القادم
▁هند
▁مؤكدا
▁خلفية
▁رسمي
▁بمثابة
▁الحدث
ليلة
طل
اوف
ا.
سيط
▁مصلحة
▁التونسي
▁طبيعة
▁إثر
ebook
▁شعبية
مثا
▁ببعض
حداث
▁المعرض
▁المرة
▁رسائل
▁انع
▁الشراء
▁في

▁اتصال
▁النووي
▁حدد
▁المركزية
▁بوت
▁يسبب
▁تنمية
▁كول
▁العالم.
▁سع
▁سال
▁جبل
▁!!
▁الحملة
▁بمك
ber
▁ظهرت
عالى
قدام
وكر
▁عشرات
▁الأنشطة
مقي
▁تبدو
ذاكرة
▁الانتهاء
▁جمهورية
▁لنفس
▁الحرير
▁جعفر
▁جميعا
داب
▁يؤثر
▁باقي
▁أقرب
▁غيره
▁٣
▁المستمر
▁أموال
▁الدراسي
▁الكلمة
▁العدالة
▁اضط
وكن
▁عمود
▁السوداء
▁السلاح
▁استراتيجيات
▁الموظفين
غرق
▁تحول
وفة
▁أشكال
▁بمعنى
▁الأدوات
وفيد
▁يمكننا
▁مزد
▁مميزة
▁الشمال
موه
▁جنب
▁الاكت
▁الجي
▁بيئة
▁حصول
▁عادل
ش،
كى
▁الأصول
▁وسيلة
ل.
فو
▁الإشارة
▁جراء
▁بدلاً
▁عائلة
ff
▁سلطان
▁الشديد
▁فقدان
▁أذ
hatsApp
▁أرج
▁تقريبا
▁ويكون
تزاز
▁تجارية
▁قرر
هدد
▁قررت
مله
سع
ز،
▁التأثير
▁الشروط
▁بتقديم
هادات
▁الخبرة
▁فب
▁التعليقات
▁00
____
▁مخاطر
▁"لا
رون
▁أسواق
ee
▁البريطاني
وائر
وبايل
▁صحية
▁الثقافي
▁طلاب
مارين
▁الفنادق
▁ولهذا
▁أمراض
▁الفعل
▁الحماية
▁الترا
26
▁الذه
تصادية
خيل
بب
▁كثيراً
▁فاز
لزم
▁أجمل
صرف
▁أوضح
▁الرش
حض
▁بموا
▁شكرا
▁لطحن
رابات
▁متأ
▁ساب
▁نُ
▁لتر
▁ترج
▁المؤمنين
▁الشحن
مظهر
▁المصرى
▁طبيعية
▁اليوم

▁مبيعات
يات،
▁للجميع
▁خلاله
▁موظف
▁أصدق
▁القناة
▁ورغم
▁الكوارتز
▁تجنب
▁بالذكر
▁يأخذ
▁القاضي
مقدم
▁غاز
95
▁في,
ian
▁زاد
▁الأفكار
ون

▁يمتلك
▁والمط
▁"ك
▁جب
▁سهل
▁(ص
▁كوريا
مفض
▁المستشفى
▁لعدم
▁سوء
▁وتقديم
▁موجودة
▁وقيل
▁الإيمان
▁الخبراء
otel
ary
نِ
▁ممثل
▁واي
▁كبيرا
لظهر
▁المرضى
▁الرك
▁ريموند
▁هجوم
الظهر
▁تمتلك
▁دائمًا
▁استخدم
ّب
▁الهواتف
▁الأسئلة
▁اليس
فازات
oad
▁جزيرة
▁الفلسطينيين
▁بدلا
▁العيد
وجب
▁مفاج
▁بالتأكيد
▁قمت
▁عيسى
▁يمنع
acebook
▁أساسي
▁ظاهرة
▁pm
▁طيب
▁الوحي
وغان
▁قادرة
▁محددة
▁قدرات
▁الجنة
▁أقول
لمميز
ug
▁الكتابة
▁يضم
▁السفير
38
▁بمجرد
المميز
▁أيار
sp
du
▁التحليل
لسي
▁قوا
▁qu
▁عملي
▁"الأ
sh
▁والتنمية
▁خصوصا
امنة
▁كوك
مدي
▁x
▁الظهر
▁Pl
9.
▁السعودية،
▁بكم
▁نشرت
▁ثقيلة
▁الطف
ئناف
فذة
▁خصم
▁والتى
▁المميز
▁رعاية
▁استعمال
▁جيش
▁المكونات
رَ
▁الفنانة
▁أوراق
طبق
▁تدوير
ا

▁سبع
رشيف
▁ليكون
▁مصنعي
لني
▁منتديات
▁نوا
▁روى
▁الدعوة
جام
▁أخبرنا
▁ذاته
41
ويتي
▁مستمر
غيرات
4.
▁لشراء
▁(إ
▁ورفع
▁بموجب
مجة
▁الخطوط
▁]
▁البراز
▁بدي
▁الخلايا
▁سلطة
▁آمن
▁والخدمات
▁للمؤ
▁أعل
▁ar
s

وارئ
▁المسؤولين
▁وفقاً
▁الفضاء
ووص
ئها
▁القيم
ial
▁الدخل
▁المستهلك
▁تثبيت
▁لمست
مّ
▁الأث
▁بأفضل
▁متك
▁أنني
▁التعرف
▁فش
▁الأطعمة
▁الفلب
▁الطائرة
رسات
جهات
▁تخط
▁بـ"
▁بمحافظة
▁جورج
مي،
▁التمويل
▁الدار
▁حلب
ظاهر
▁الابتدا
▁نرى
▁تلا
▁واعت
▁عمله
غرة
▁ارتك
▁العقوبات
▁المبادرة
▁الحزام
▁محف
▁الطلبة
▁إضافية
▁Google
▁جنا
▁وله
وعي
▁فيها،
▁مفر
موبايل
▁Com
لمما
▁صحفي
▁كاب
▁التمر
▁تضع
▁التشري
▁المقر
▁الصناعات
كرر
▁الانف
▁لاحق
▁طهر
▁الأصلي
▁الرائدة
▁مثلا
المما
▁يخص
▁التخصص
▁رَ
الاً
درا
لقات
▁السرعة
▁ووص
▁http://
▁نَ
ـة
▁لعم
حمة
▁أوت
▁الغذائي
▁يحقق
▁لحماية
دب
▁قدمت
▁صاح
▁القرارات
ّف
indows
▁للث
▁الرياضي
صدقاء
▁اتباع
كرون
▁وطالب
▁821
▁مواصفات
ld
▁الكون
▁أقصى
▁الثلاثاء،
كنة
ery
▁منهما
فار
▁تعبير
▁الست
▁مزي
▁تشعر
▁والمك
ice
▁ولفت
▁معدلات
▁الحبوب
▁الخز
▁تحضير
▁شرائ
اير
▁الحاكم
ech
▁الجماعة
▁وقال:
▁قبول
▁النتيجة
▁الأدنى
قش
▁سريعة
▁المما
يلول
▁أوب
▁للأس
▁تاي
▁التراث
شين
▁التوالي
200
ّق
▁2000
▁حزام
▁القمر
ng
▁بعمل
▁للمرة
▁4-
▁أبد
▁مجموعات
▁ثقة
▁سيس
▁لإعادة
▁تسليم
حيل
سبانيا
▁قصر
▁فهد
▁اقترا
▁خفض
▁sh
غطي
معية
▁نجم
▁مراقبة
▁المتط
ile
a.
بيا
▁النقاط
▁حوار
▁تؤكد
▁للوصول
▁السيدة
▁لحقوق
▁التعبير
▁الغير
▁يختلف
اصر
▁مرح
▁النج
▁يخت
▁بالز
▁خبراء
▁تضمن
▁يتضمن
▁الجماهير
▁مواقف
ظى
▁وتك
▁قوم
َرْ
▁أسفل
▁مشترك
عيش
▁النهائية
▁قلوب
▁المرت
▁وكن
كوم
باق
▁شحن
▁مكاف
].

▁بمست
تباك
▁للانت
▁أحكام
مخل
▁الواقعة
▁195
▁البدء
تِ
متاع
ميا
▁الاستش
▁سفر
▁يمر
▁محلية
▁حتي
بيين
▁استعداد
▁تأمين
▁بلاده
▁تأخذ
▁الخامسة
▁التحت
▁نهر
ود،
▁المحدودة
▁السع
▁مجان
▁وزيادة
زوج
رن
▁سياق
شأ
▁متطلبات
▁المعل
▁ستج
▁العروض
▁الصحف
▁"الع
▁منجم
اطف
▁رغ
قيه
عله
▁تخرج
▁سلب
▁درهم
▁وهى
▁المشهد
لمئة
▁فائ
▁جوه
المئة
▁خصائص
رابلس
▁مؤخرا
صدير
سوا
▁المئة
▁وقعت
ويف
▁اليابان
▁رئاسة
▁متخصص
▁تقدير
▁الكلية
▁الإلكترون
▁مسؤولية
اناة
▁ربط
▁جوا
مضا
رية،
▁الهند.
للذ
▁سعي
▁القصة
▁الدرجة
▁الَّ
▁الخميس،
▁اتخذ
▁وبحسب
▁يورو
▁صعوبة
▁5.
▁اللاجئين
▁الجاه
▁وكما
▁الأقصى
▁الحرمين
▁سلا
▁الأسلحة
▁العناية
▁مهارات
▁الطويل
▁يقول:
▁باستمرار
▁يطلب
عية،
▁دم
▁pric
▁لإنتاج
وقيع
▁كوا
▁مسيرة
▁يتميز
جان
▁الربيع
▁وقبل
-3
خين
▁ذلك.

ناسب
▁فيصل
واط
ورى
▁فشل
▁يرجى
▁أسلوب
▁ومث
▁(2)
▁يستحق
▁فضل
▁طارق
▁المسؤولية
طنبول
▁تصدر
▁الأطباء
▁نيويورك
موص
▁مال
زانية
▁معق
اللذ
▁فلو
▁الصحيفة
▁بجميع
ram
▁فيسب
▁القوانين
▁طائرة
▁Ad
▁الكري
▁نار
▁يكشف
6.
▁المستخدمين
▁والنا
▁الأكادي
▁»

▁قيد
▁سلاح
قلم
▁طبية
▁عبدالر
▁أقوى
▁قادة
▁حرف
▁راشد
▁غيرها
نياه
▁زراعة
يسبوك
▁لاي
ذور
▁"من
▁هشام
▁2022

▁رصد
▁أرباح
▁الشعوب
اتم
:‏
▁الغرف
▁حَ
▁الحار
▁يسعى
▁الأرباح
اً.
▁النيل
▁انقر
▁حرية
▁خز
▁واستخدام
▁نمط
▁والتج
▁اللذ
▁وبناء
▁المدرس
▁مئات
حان
▁بنات
▁يتمتع
▁تأكيد
▁تخصص
▁قصص
▁عليها،
▁العن
▁الجهة
▁الأحزاب
▁وأبو
▁أصدر
af
▁الألماني
▁إثراء
▁حام
▁صخرة
▁وآخر
▁شؤون
▁أسرع
7.
▁بالاست
▁التقليدية
▁مقاومة
اسبات
صوص
▁كتلة
ذل
▁تواجد
▁فح
خدمات
▁معهد
▁موضوع:
▁with
rad
MT
▁الكلي
جَ
زامن
انغ
▁المصريين
ديداً
▁الطبيعة
سيج
▁الامير
▁كلي
▁مقت
▁انتهى
ينة،
▁الارض
امرة
▁معركة
▁فاي
▁ميلاد
كك
اقم
قُ
▁الخشب
▁التنظيف
▁بالطبع
▁يعانون
▁ذه
حدات
▁دولا
▁مني
وضحت
▁المخالف
▁الرب
فاه
▁الجيل
▁لمب
88
▁الاستقرار
ink
▁شاه
▁الحمراء
ure
ممث
ستير
▁متح
اريو
▁إليك
▁غسالة
▁تعب
▁آلية
نسان
رطوم
ذاء
كيم
قوب
▁القوم
▁ودعم
▁الشخصي
اكر
ممثلة
▁المخدرات
▁يفعل
وزير
▁مصنعين
▁بإمكان
▁وطن
▁بقية
رجم
▁كسر
▁وتحقيق
▁الار
▁تفعيل
▁فيسبوك
▁صلة
▁منس
▁الضع
▁الإيرانية
زية
▁عنهم
▁موث
روبات
▁ادارة
لملت
▁زوجها
▁لتكون
▁سقط
▁وكيفية
▁قُ
▁سلوك
كورة
▁التجربة
▁تموز
مثال
▁ويكيبي
.[
يوف
▁أمل
▁فإنها
الملت
▁المقالة
عيين
▁تعاون
▁مسؤولي
ابا
▁بريد
▁للمواطن
▁الأربعاء،
▁يتيح
▁يتمكن
▁تماماً
خيصة
▁ترجمة
لاغ
▁دير
▁والعا
▁الالكتروني
▁والتص
▁أريد
وسائل
▁رمل
ين:
▁يدي
ظي
▁نعرف
▁أسابيع
كرا
برنامج
▁تتطلب
يتام
▁وسطاء
اند
▁حديد
▁المسل
وسي
▁"الح
▁مطلع
▁مصري
▁شرط
▁(ف
▁البيض
▁الحمام
شير
▁الجلسة
/أ
▁الإرهابية
▁المعارض
اوية
▁ملعقة
ادثات
▁منصب
eg
▁موسكو
▁اختلاف
ؤية
ign
▁النفسي
▁أصول
دران
▁الضروري
▁فنادق
▁عنصر
▁صفقة
▁الأوضاع
ؤها
▁أنفسهم
لفل
▁التكلفة
▁قوى
▁الاعتماد
▁النفسية
▁كفر
▁السجن
▁نقول
s,
▁الرؤية
▁الإنت
ـي
خدمي
▁سلام
ندما
▁تغذية
▁الأعراض
▁المنازل
▁سمي
▁دب
▁إل
▁والعال
▁رواه
▁المعنى
داعش
رارية
ورها
▁أرس
▁نظرا
ما،
تباع
▁قابلة
▁المنزلية
▁600
▁جسم
▁كرا
▁ab
ورية،
لاس
▁بوجود
▁جملة
▁كرب
▁وأب
▁لقب
▁مشيراً
▁إت
▁صعب
▁لمنع
▁والدي
راءات
▁لام
▁نخ
▁ساهم
��
اجد
▁الممتاز
▁وتعالى
ايران
▁جدوى
▁لمق
ضرورة
▁الملت
▁القطاعات
▁أدنى
▁وزراء
▁الصحراء
ئاب
▁نيسان
▁<
اين
اميك
▁بدل
▁النهار
هههه
▁ميزة
▁الصندوق
▁مالي
▁تملك
29
▁للعام
▁ستت
▁الناتج
▁يرد
▁الفرص
▁إيجاد
▁مديرية
بيلة
واص
▁::
▁شريك
▁تكشف
▁وجميع
”،
ماعة
ظيمة
يفية
▁التلق
دّ
▁والأح
▁فخ
▁حقيقية
▁يشمل
▁زر
▁باق
حمن
▁سالم
▁يشهد
▁هما
الهم
▁فيه،
▁المستثمرين
▁خوف
▁يكت
oin
ong
▁احتجاج
▁اشت
▁المنافسة
▁إنسان
▁بالمس
▁الأك
▁لتطوير
▁يتعرض
▁الويب
▁حالياً
▁And
لوث
▁تجرب
▁مجمع
▁زوجته
▁العائلة
▁آخر،
net
▁زيار
راهيم
▁عوامل
يديو
▁الرواية
تباس
▁تعني
▁ربع
▁بتش
▁يعرض
لموض
عي،
فيروس
▁إله
▁خبرة
▁اهتما
68
▁واش
ؤه
ru
▁تعليقات
▁أقدم
▁الصعيد
يتا
الموض
▁عبيد
▁يشارك
▁فيتامين
▁الحيوية
▁خادم
لا،
دعاء
▁والتش
▁تجديد
▁أمور
‬

ئون
io
▁بلدان
▁يعطي
فطار
▁محتوى
▁نكون
▁بجامعة
▁تقليل
▁المتن
▁لتأ
يد

▁الكث
▁قس
▁ينتظر
باه
▁الاعتبار
▁يقود
▁يكتب
▁ألم
▁ايران
سمية
▁غضون
▁تكاليف
▁غاية
abic
ev
▁ومك
▁وتعزيز
▁للحفاظ
▁حقيقي
▁وفد
▁الدماغ
افات
▁والتس
▁شديدة
▁الولادة
▁الغسيل
▁الإط
▁ونت
▁الثابت
37
▁المسئ
▁حجز
▁وفيما
▁روما
▁الأثر
▁الشارقة
▁le
▁مسابقة
▁للمص
ولاد
▁يجمع
قود
ِيَ
خلاص
قبال
▁الجه
ماله
▁48
▁الشأن
جية
for
▁وتوفير
▁منظومة
▁التحديات
▁مكتبة
▁التاسع
تيش
▁دولية
▁بلدة
▁القنوات
▁أراضي
▁^
‏:‏
▁شمس
▁معايير
▁آذار
▁وعد
▁المحتمل
▁استهلاك
▁البوا
▁إيطاليا
هزة
▁المستقب
▁أمب
▁للمشاركة
▁ينظر
▁الموض
▁والمب
ax
▁an
بلوماسية
▁رأيت
▁الرسائل
▁خلط
نتين
▁الوسيط
▁بقدر
▁الغذاء
▁be
‏.‏
▁يقف
▁75
قاب
▁الجملة
ظهار
زو
زه
▁سليم
▁المتداول
▁وعلي
▁استخدامه
ارته
▁حلقة
احت
▁بلدية
▁اليمين
▁pl
حوا
▁للآ
مضادة
▁المؤلف
▁خارجية
▁الفلسطين
▁الاعلام
▁صدق
▁Windows
▁يلعب
▁غريب
6)
▁وافق
▁السلامة
▁الحلول
▁القمح
▁الأفلام
▁اقتصادية
وخصوص
لفت
▁الطائف
▁اقتصادي
▁مستقب
▁تري
ower
ضرار
▁الحقيقية
▁تل
كسر
بطا
▁المعدة
ئتما
▁حادث
▁الألوان
ديس
شات
▁لاستخدام
وابط
جلت
باك
▁اليمني
▁مؤشرات
يادات
▁الاصطنا
ؤدي
▁البخاري
اقي
▁تاجر
/12
لقد
▁الإنجليزية
▁تخت
▁لافت
▁أبواب
مارة
▁Bl
▁إذن
وانية
▁الربع
يمات
▁تمويل
▁كتابه
وتي
▁البقاء
وريد
▁شاملة
مارك
▁وأشارت
وووو
▁دفاع
مذهب
▁الأولية
▁فضلاً
▁تبادل
▁التصنيع
39
▁أستاذ
▁قلق
▁داود
,000
▁السكري
▁النفايات
▁حينما
▁منها،
▁العمل،
▁شرب
▁ورس
▁كا
▁المشاركين
....

▁مواضيع
عدد
▁الشهيد
▁وخصوص
▁ذكره
▁الآن،
اده
▁يدعم
▁الزيارة
▁تقل
▁بانت
لياف
▁!

▁وأعلن
▁الجب
اصرة
▁بنظام
ى

▁التصوير
شق
▁أعتقد
▁وطنية
▁الجمعة،
▁الخوف
▁والمغ
▁الشخصيات
▁طعام
▁وها
جرين
▁توف
▁حلو
▁البلدين
▁ورق
wit
▁الإعلامية
▁ويعتبر
▁Sp
▁بغير
▁you
▁AM

هذه
▁أسئلة
▁تخصيص
▁أثبت
▁الرائعة
ى.
▁بوضع
▁القت
▁الأحد،
مامة
سُ
▁النَّ
ماط
▁ونصف
رفين
أمل
لتي
ليون
▁المراكز
-

▁الاغ
▁النموذج
▁فني
▁التيار
▁لنقل
▁وقوع
ودان
▁حار
▁الصادر
دايا
▁حبيب
لجي
ورة،
اهيم
فيز
▁كميات
دائق
▁الزيتون
▁36
▁المسار
سيطر
▁الأل
▁مطعم
قيبة
ينت
▁المذكور
▁as
ماري
▁البرا
▁وخلال
▁النجم
يداً
▁بمشاركة
لخص
▁جهد
▁سُ
▁بحر
▁الجميلة
▁الهندسة
يمون
▁بدر
ابرات
▁السلطان
▁الانتقال
▁النصف
رابة
شخاص
▁يعلن
▁طاقة
يرًا
▁الوعي
ربول
▁عنده
▁لبناء
▁ونقل
▁ممث
▁انتخ
▁الجنوبي
▁سمو
▁سيب
▁الدواء
رورة
▁أنشطة
▁منف
▁الانج
ire
ark
ناعات
▁تسع
▁المسا
لغام
▁تتمتع
▁ex
▁المبلغ
▁الإنجليزي
تمدة
▁يدعو
▁اسب
!!

▁سهم
كشاف
وضة
فتاء
▁تفا
▁نوم
▁فيس
▁تحاول
▁حقا
تن
▁تصرف
يجار
▁المطبخ
▁موضع
▁صفحات
▁ولت
▁حمام
▁الإح
▁نظم
nt
▁الباط
▁وحسب
▁الكوك
سه
▁الوسائل
▁الوكالة
▁وإعادة
▁كمال
لمخروط
▁وادي
▁تخزين
▁المنظمات
▁العالم.

▁وحده
▁هواتف
المخروط
▁اسرائيل
▁الدائرة
▁اهتمام
▁توقعات
▁بفيروس
▁دست
▁ببس
▁الفئة
▁الجوي
لاه
▁جو
▁صدور
جحة
▁الضفة
))
▁والرياض
▁this
▁شرف
▁ابراهيم
▁وفر
▁فحسب
▁جل
▁انطلق
نا.
▁2007
▁جرا
▁المخروط
ِب
ممر
▁اضافة
اً.

▁بحلول
▁وضعت
's
▁عامًا
▁ترح
ية:
▁دونالد
▁وزن
لاط
▁مَا
ثبيت
▁الصهيوني
▁فلي
ريش
▁تتمكن
▁وزيرة
▁ساحة
▁الشهير
▁الذرة
▁فيهم
▁الخطأ
▁امس
▁إرها
▁بالتح
▁القائد
▁فتاة
لمفض
▁تخفيض
▁آخرين
▁Read
المفض
▁أسر
وتا
▁إعلام
▁كيلوم
▁جولة
▁الاردن
▁كونه
ح،
▁الخطة
▁الثنائي
▁الساحة
▁الأخرى،
▁كسب
▁نك
▁تقلي
▁المتخصصة
▁مانش
ديان
▁الكيميائية
▁العقاري
▁الغيار
▁120
▁منه،
▁السيليكا
▁الحادث
▁مصر

▁أيها
▁الاسلام
▁الأنظمة
ction
ep
▁تلت
▁عود
لمميزة
▁إدخال
▁ويندوز
المميزة
▁مدارس
▁حت
ئذ
▁الإجتما
▁باط
▁جير
▁طوا
صدر
▁أخي
فوق
▁تشي
▁المميزة
▁الفار
▁لتعزيز
وباما
▁العشر
▁2020

▁ولقد
▁الخضراء
▁قضاء
▁السل
كاس
▁Th
ظن
ويترز
درت
▁تتراوح
▁عالمي
▁موظ
roid
▁تدعم
▁تركيز
▁تبين
▁المشروعات
فلت
▁القمة
▁استقرار
طالب
ف،
▁والأمن
▁السهل
نجليزية
▁الوقود
▁البنية
اولت
▁مسجد
▁فوريكس
▁سابقة
▁الوص
▁للتس
▁المسلم
ماش
▁التدخل
▁زالت
فين
▁سيتي
▁الصدر
▁عَلَيْ
▁إنس
▁جر
▁الهم
47
▁كذا
▁والانت
▁ألب
▁القلق
▁تدا
8.
▁زال
▁البطن
▁المفض
enc
▁وأوضحت
▁النحو
▁الجمال
▁تكت
▁بدعم
انَ
ائم
الوب
لومن
▁الشتاء
▁الهندي
▁نفسه،
▁ملاحظة
▁الطائرات
▁سَ
▁Facebook
▁نهائ
▁المنطقة،
▁موز
OS
▁الحضور
فْ
بدال
ولاية
▁المرج
▁القطع
▁التحتية
▁GMT
▁إقليم
▁لتنفيذ
▁نتنياه
▁السبت،
▁تبر
▁علوم
36
▁لتحديد
عدة
طيل
ِد
▁مـ
صود
▁منخفضة
▁السر
▁0

▁الكنيسة
رال
مكانيات
▁تدفع
▁يوف
شرح
▁طرابلس
▁للبيع.
▁82
▁رصيد
▁المرتبطة
▁رحلات
▁رسمية
▁توك
▁دراسات
▁مفتوح
▁النوا
▁الجغ
▁وآله
▁حبوب
▁واعتبر
▁العدو
عوة
▁قل
▁الاختيار
▁حذف
▁الذاتية
▁جريمة
مطحنة
▁تسمى
وبوت
ذير
▁وشدد
▁الأولي
للون
▁ساح
▁بالمج
▁والاحت
لوات
▁مماث
▁ونظ
وضى
▁العط
▁”
▁الكالسيوم
فيق
▁بلو
▁تمامًا
▁استقبال
▁شريط
▁لمجلس
▁يوتيوب
▁تابعة
▁رون
▁النهضة
▁الأرز
▁مثا
▁تبع
بوت
▁يقبل
ابط
لكم
ابير
▁إشارات
▁قنوات
لة.

▁واضاف
▁55
زت
▁بالعمل
▁اليمنية
▁عاص
▁وطلب
لسلات
▁التغذية
▁السياق
▁والمجتمع
شارة
▁العبد
▁يهدف
▁والإس
▁التنسيق
▁البلاد،
هاي
▁انتص
▁عددا
▁الَّذ
49
▁الصفقات
درويد
ذاكر
▁الإقامة
▁وأكدت
▁ad
▁السلوك
▁مضيف
▁الفكرة
▁البرازيل
اهدات
▁اكتشف
▁More
eng
▁استغلال
سلم
▁فاس
▁لزيادة
▁الأجنبي
ربت
مان،
للات
▁الكرد
▁قوانين
▁نريد
▁مستشار
▁الإخبار
▁هامش
▁ربح
▁دخلت
ائك
▁خسارة
ree
سي،
▁الدجاج
فسية
▁علمية
ّت
غلال
▁للأمم
▁العيش
▁أنس
42
▁الأسماء
اطي
تهما
▁يفضل
▁ch
▁وأيضا
▁الأنباء
▁الانتق
▁قائلاً
▁وذكرت
▁إيقاف
▁كرات
▁الضرائب
▁".

▁سبعة
/11
▁التطور
▁للبر
ros
▁الآلي
يغ
▁المكسي
▁الراحة
▁عف
قرأ
▁الشريعة
▁يرا
▁عيني
يتهم
▁الأدب
td
▁الشرقي
كوك
▁الاستثمارات
▁المقبل،
▁Ex
▁مطرقة
▁للدولة
▁الوب
▁مذه
▁مار
▁الأزهر
▁جرائم
▁النور
▁التوص
85
وة،
▁الحكومي
hatsApp

▁أعداد
▁للقيام
▁الغالب
▁الدكتورة
▁والوق
▁مفتوحة
▁خش
▁ساعد
▁توفي
طول
▁لأكثر
▁انتهت
▁لأحد
▁ودي
▁جنس
rou
▁اللجوء
▁أولئك
▁تتجاوز
▁المباريات
▁وتكون
▁القائم
▁بآ
▁هار
▁والان
فد
▁استثمار
لومنيوم
▁يتجاوز
▁ناقل
لجأ
▁خسائر
▁تصاد
▁المسيحي
▁الواحدة
▁قاب
▁اور
▁مبنى
▁شجرة
▁الصحيحة
▁ليع
▁طهران
لمول
▁التعلم
▁متوا
▁الشمالي
▁(ما
oft
▁يتأ
▁المساعدات
غلب
▁الدولة،
▁القاسم
▁تلقى
▁أعد
شيا
جستير
▁بالمئة
حة،
▁فريد
▁للمط
▁بدقة
▁عاصمة
جون
▁أحيان
▁للوق
▁الخبز
▁ناس
ريبية
▁from
▁صباحاً
قض
▁الثامن
المول
زالت
▁العلامات
سيطة
▁السلف
▁1,
▁ربيع
▁كبرى
اقط
▁الناحية
نته
▁or
▁فول
▁شامل
▁اضغط
▁أخت
▁التعريف
▁يضمن
▁وقام
."

▁معالي
▁الحشرات
ائز
▁فاط
▁الاير
وسيا
▁،

▁بأسعار
▁الديني
▁الصادرة
▁الطوب
مبراط
اللات
ئم
▁تأجير
▁تخطيط
▁الماضية،
▁يترك
▁موق
▁الأنا
▁الوحيدة
▁يوماً
صلت
▁للمق
▁وبح
لليم
▁البورصة
▁لمكافحة
▁امري
▁القواعد
▁الشوط
▁تنتج
▁الاطفال
▁ملحوظ
▁لاس
ox
vi
▁المكرمة
▁pm

▁مناقشة
اديث
▁مفيدة
▁يرجع
▁لاحظ
▁والده
ميه
▁أيدي
▁البول
▁السمك
▁الإطار
%D8%B
▁المغناط
▁كات
▁منافسات
نية،
▁الموسيقى
تيال
▁العمودية
▁المطحنة
وائم
▁إِلَ
▁البلاستيك
▁نفذ
ْرَ
▁المخطط
▁علاق
▁سكر
حيانا
▁منطق
▁بالمق
ناها
منذ
ok
▁المتقدمة
▁نقد
ock
حصاء
▁مثال
▁فنية
صحاب
الليم
▁(في
▁وإلا
▁سنوات،
▁المجتمعات
لاعب
▁33
▁والأن
▁محدودة
▁الشامل
▁ميت
▁زواج
▁جابر
▁الزي
▁بالمش
▁لبيع
▁تفعل
لقب
▁وكتب
▁عدن
▁الدراسية
▁وتحت
▁تتيح
77
▁الاز
▁قوله:
ِ،
▁عبدالرحمن
▁مانشستر
▁إسحاق
▁اللات
ash
▁وصفة
▁أنّه
فاد
صورة
▁بعيدا
▁خطيرة
▁الوفد
مني
▁الائتما
▁باخت
ستها
▁الكفاءة
▁العربي،
▁للتجارة
▁الأردنية
▁اقت
▁حذ
▁ونشر
ْتَ
▁الواضح
▁مناجم
▁الألب
▁والبحث
▁تشكي
▁العنوان
▁فإ
▁الشهيرة
اهج
▁المول
▁البق
▁الليم
▁معل
▁أولي
▁المهرجان
▁الحليب
اضرة
▁فلن
▁التصنيف
▁"الب
▁تمكنت
▁وعرض
▁التوتر
▁المواقف
▁محفوظ
ربات
▁منصات
▁شف
▁Qu
▁التحقق
▁الراحل
▁رغبة
▁استعراض
▁انظر
▁الهامة
افلة
ne
▁ببط
▁الفرا
▁بقوله
▁لث
كره
جزاء
▁المتع
▁الإيطالي
▁"الق
لمفاوضات
▁باتجاه
▁من

▁العظام
▁بنحو
راعات
▁وأج
▁بعين
خبارات
▁القانوني
IN
▁واجه
▁انك
▁سوا
▁الديمقراطي
المفاوضات
▁لتوفير
▁مليارات
▁بقلم
▁بُ
فاقيات
▁الناش
now
▁بالرغم
▁تحالف
▁مزايا
قيدة
و«
▁آدم
▁مطلق
▁كرد
▁سهولة
▁والثقاف
▁هول
erv
▁أعط
ائلة
▁لقي
▁لست
ّ،
▁نسخ
▁اجمل
▁it
وائي
▁المجموعات
▁دولار،
▁البلدية
▁ويمكنك
▁التنفيذية
ياته
▁الحسابات
▁المؤشر
▁المسألة
▁الإقليمية
▁القليل
▁جهات
▁وبر
أسيس
▁السفارة
▁حظر
▁التوجه
تملة
▁عدا
▁الحوثي
▁المحر
▁حديثة
▁استعادة
▁تستمر
▁مؤقت
▁الجنا
مفع
▁الليبي
افرين
▁لحل
:30
▁وَلَ
عُ
▁المذكورة
ربين
▁الفاع
▁الاقترا
▁الأنواع
▁المثال،
▁حديقة
▁عام،
▁البولي
▁الاسلامية
▁تهديد
▁التطوير
▁المرتبة
/2021
▁انتظار
▁أسرة
▁السائل
سية،
▁الوحدات
li
▁كود
▁الإله
▁العمومية
▁السرطان
▁أشياء
ممل
▁هن
▁و«
ون.

▁هاد
▁جَ
▁إني
▁مان
▁شقيق
▁الجريمة
▁الطوارئ
▁أمس،
▁لإدارة
يشة
▁جاز
ext
▁كاتب
▁بارك
▁لتخ
ليغ
▁المفاوضات
ثق
lish
▁المكت
%،
يطة
ical
▁المشكلات
▁الرئاسة
▁القريبة
--------
ياطي
▁السوريين
راتيجي
▁نماذج
▁أطراف
▁الحفل
▁بالث
1)
هلا
▁فائدة
▁يتكون
▁التصويت
مملك
▁احتمال
▁تفت
لمدا
لاثة
بض
▁المحافظات
▁الشوارع
رجاع
▁مرك
▁أخرى.
▁الاحتجاج
▁كتبت
▁بتج
▁أعلم
▁التربة
▁مكعب
▁المواضيع
▁أيلول
▁كافية
▁المستعملة
▁مقال
▁تنتهي
اصب
▁حبي
▁درس
▁طلبات
▁أرقام
▁الفتاة
ؤل
▁أمنية
▁رخيصة
▁السادسة
▁صرح
▁أسس
▁موقعنا
▁حامل
▁امتح
▁"ق
ight
▁لسحق
▁للتص
▁زع
▁فهناك
▁السماح
المدا
▁الوظيف
▁5-
▁سوريا،
▁الطيب
▁كريست
د.
▁الطين
▁وعبد
▁الشكر
غانستان
▁يقرب
▁مميزات
▁وأق
▁الشهداء
▁لنظام
▁شباط
▁عملة
▁بشدة
▁"الس
▁لخدمة
▁فكيف
▁أشرف
▁الحلم
DF
▁النجوم
▁الجير
▁"

▁تشارك
▁إِنَّ
▁بضرورة
▁ثبت
لعت
▁تستهدف
▁الكويتي
-01
ضراب
▁الأزرق
▁مصير
▁العسكر
ىء
يجة
▁كينيا
▁الرقابة
▁العامل
▁يذهب
اقب
▁غدا
▁المسلسل
witter
غنيز
▁65
▁أوقات
▁الأشهر
لاين
▁شيوع
▁بالتع
▁تردد
▁غرامة
برات
▁مستمرة
▁تتكون
▁الجيد
هاية
▁ومعدات
ريان
▁التقارير
مولا
▁افريقيا
▁التض
▁اللحظة
▁سياسات
▁اختر
▁شأنها
▁لوزارة
▁الخارجي
▁محدد
▁كونها
▁عندي
▁المؤشرات
▁un
▁الجدول
اها
▁صعبة
كتيريا
▁وبما
شفت
▁YouTube
▁وتعتبر
▁للاستثمار
▁إيمان
▁سابقا
▁خض
▁المائية
▁(س
▁"الا
▁لمؤ
▁الهوية
▁عزل
▁et
-5
▁الأنف
▁للمرأة
▁والمؤسسات
▁المدا
▁الأذ
▁مسافة
▁خصوصاً
لاسي
▁معك
▁ــ
ريه
يتين
▁مشتركة
▁الأحوال
▁العسل
▁التجمع
▁الصيانة
▁خطورة
اكهة
▁محاولات
▁ويد
▁النطاق
▁احدث
يدروليكية
بطال
▁عَلَى
▁38
▁للطاقة
▁المستشفيات
▁المعروفة
▁منص
▁أحسن
ذاك
▁لأنهم
▁القليلة
▁متس
اسوب
▁هُ
لزمات
لدة
▁غد
man
▁Un
صيب
▁ببساطة
▁وجبة
▁نساء
▁بالماء
▁اعلان
▁Cl
▁حلف
لممثل
ٍ،
),
لذاكرة
▁تجارب
▁عملت
▁الخش
▁يشبه
ولوجية
▁الفص
▁باه
▁بطاقات
▁لحم
اميم
▁خلايا
▁37
▁تحب
▁انشاء
▁مصطلح
▁الآجلة
▁الرحيم
▁إنهاء
▁العاج
.com

اتيح
▁التأكد
▁الرصاص
▁ينتج
سته
▁الغبار
▁سامسون
الممثل
الذاكرة
▁الكريمة
▁أود
▁مرتين
طيب
جو
▁تقبل
جيب
ونايت
ليشيات
▁٤
▁الإداري
▁مقاطع
▁ترد
▁أوكر
▁قابل
up
▁إعطاء
▁رد:
▁الاختلاف
ريغ
▁الصد
▁أفلام
▁السبع
▁حافظ
▁بصفة
▁عمال
▁تجاري
▁لوا
▁الدولوميت
▁بزيارة
▁مشيرة
اليد
▁6.
هري
وطة
▁التوصل
▁الحظ
▁هيكل
▁مقابلة
▁التحديث
▁المرش
▁الفتاح
ous
▁وتُ
ورين
▁الأصلية
قيد
ستاني
▁الصلة
ator
▁عظيم
▁مستخدم
▁فكل
▁الشاي
▁مغلقة
▁تحدد
▁الفقر
▁سيدي
69
▁أبدا
لتين
-05
▁محيط
▁الفات
يرون
واكه
▁قفازات
▁هنالك
ديوهات
▁العشرين
▁الصع
فراد
▁زمان
▁التسوق
لاً،
▁العادي
رالي
▁الدموية
▁وعمل
▁الكتر
▁أحدهما
▁الإجابة
▁وليست
▁كير
▁مشد
▁بالاضافة
▁يريدون
▁٢٠١
▁قيم
▁يستمر
▁رضا
تع
▁فحم
؟!
▁(ح
▁الإسباني
ork
▁يطالب
▁الأمل
▁تدور
ress
فها
▁والاجتماعية
ِنْ
وده
▁لتلك
▁بك.
▁كع
▁بمرا
▁المتعد
▁والمخ
يتش
▁لصناعة
▁الذاكرة
▁والمز
▁تتوفر
▁الألغام
ood
موك
مائة
▁بمقد
ِّي
▁الفوائد
راوي
لموح
اى
▁القوية
لموز
▁ذكرى
▁الخبث
▁اللَّهِ
▁المسلح
الموح
▁السياسات
▁المقام
لمغرب
سة،
كاية
▁الخسارة
صين
▁الحلو
▁فروع
▁والتأ
▁فعلا
▁الممثل
▁حري
▁بعث
▁العدوان
▁أساسية
ّز
▁الضمان
▁أضاف
▁واجب
▁للتأ
كشف
▁الناس،
▁الألم
▁الكبار
▁انتقل
▁الرحم
▁المختصة
▁الفج
شعر
▁يصدر
▁الصابون
▁نجح
-07
لملعب
▁تميز
ونيا
▁جرام
▁هامة
▁طراز
▁نظرية
الملعب
AR
▁الإضاف
old
▁عزي
▁وجعل
شم
▁الآسي
▁أولاد
▁توصيل
▁لبن
▁فأنت
achin
الموز
▁الكبد
▁ايام
▁بيوت
▁متاحة
▁الاشترا
▁الموح
▁ومنتجات
"..
▁جعلت
▁يمكنه
tph
▁تقنيات
▁وارت
▁الأرقام
▁هات
▁طباعة
▁متخصصة
▁الأول،
ond
▁وأيض
داعيات
min
▁تفقد
وياً
▁فري
فاضة
بكة
▁صعيد
▁الموافقة
▁الأخيرة،
▁هذ
وقاف
▁فضي
▁فنحن
وتوك
▁الملعب
وقراط
وثيق
▁حقيق
▁فأن
▁لكون
▁(3)
==
مكنك
▁لرئيس
▁التلفزيون
▁الفطر
▁العضلات
▁الرغبة
▁الزب
▁ويق
شراف
يدن
▁البترول
▁الكروم
▁المعهد
▁القي
ويلة
▁ليفربول
حته
▁تحكم
مرت
▁للكمبيوتر
▁2006
▁يتوقع
▁الآلاف
▁المصابين
▁قَ
▁يمكنني
-06
▁الواردة
▁آمنة
▁تلف
▁المراد
بيان
▁اللَّهُ
▁الشريفين
▁الجماعات
صرة
▁تسوق
موريت
-08
ترط
▁المباشرة
▁يدرك
▁لسان
▁والذين
ئر
جرى
▁موبايل
جري
▁القبول
▁أردوغان
ue
نسى
▁كبيراً
▁خد
صير
▁بطل
ديال
▁ميناء
▁الشاملة
▁مصغرة
▁رئيسي
-09
▁يتع
▁لإنشاء
انية،
▁ومتاب
▁الساعات
US
▁شبكات
▁التكنولوج
▁أطلقت
▁يقدر
لمبر
▁الحيا
a

▁متوسطة
▁جيل
▁موافقة
للط
▁المرافق
لتزام
▁أبنائ
▁الجزائرية
وسوف
▁القضائية
مه،
ردات
▁وليد
▁المنورة
▁طبع
63
▁الموز
▁كلمت
عومة
▁أخرى.

▁(ق
ult
▁جانبه
▁بالأس
▁الطبقة
محمد
▁الرأ
▁طائرات
ع،
▁احترام
▁خليل
orld
▁الطقس
▁وهما
%0
▁الكل
▁السابعة
ليت
▁السنوي
▁رجب
▁سعاد
▁الشاف
▁المحرك
وفية
ائيات
▁النووية
▁الجس
طوط
▁سيناء
مهات
▁ومنذ
▁أكادي
▁ووفق
▁ورشة
▁الأولى،
▁دورات
▁التحول
▁"الج
▁مئ
▁ومرا
97
▁آية
▁المعايير
-04
يحة
▁App
▁فالأ
زائر
▁الأبحاث
▁وتحديد
ترى
ick
▁المستجد
▁"في
حسن
ديب
▁إخراج
▁(ك
ليح
▁الشوك
▁الماس
▁قبر
▁الطوا
طني
▁مفتاح
▁بمختلف
▁الجدد
▁الجميل
▁iP
▁جماهير
▁تهم
▁"الإ
▁سوري
-03
المبر
▁العادية
▁ألوان
رقم
▁أثار
▁الشيطان
▁بالموا
كيك
▁المطار
▁تخفيف
▁ضخمة
شهد
▁تعت
شال
▁التجارب
▁واحد،
▁القدر
خدمت
▁الاب
▁وأهم
▁المنغنيز
▁(الت
عاش
▁مخصص
▁أني
يها
اخرة
▁(من
▁تتمثل
▁ومنع
ؤاد
▁الرط
oh
▁بود
▁العامة،
▁فهذه
▁فعله
▁عامر
فهم
▁قليلا
▁×
سق
▁العمي
▁حفر
▁الحرارية
▁الذهبي
▁قار
▁قاله
▁الفلبين
▁تصادمية
▁حيدر
▁لوحات
▁غضب
▁طيران
▁القتال
▁اليومي
▁متاح
▁مضيفا
▁نظرًا
▁وثيقة
▁المسابقة
/2020
▁وتطبيق
▁ميل
-8
▁المبر
شك
▁عائشة
able
دال
▁الصعبة
مصر
▁قصير
▁جيداً
▁اكس
▁تتأ
▁الظل
▁بوش
▁عصير
▁تنسيق
▁وصفات
▁فاست
لمخصصة
▁مقات
المخصصة
▁الإقليمي
مذا
▁فلسطيني
▁Ph
▁ضيف
get
جازة
ER
▁البشري
▁نبي
ارة،
▁المخصصة
▁وانا
خلات
▁أصيب
▁وتحسين
رشاد
يانات
▁السوي
بقاء
▁خذ
ئن
ربط
▁يتبع
▁تحرك
▁نتنياهو
لاميذ
▁تعطي
▁الإسكندرية
▁إسبانيا
▁الخرطوم
ركم
▁الزمان
كييف
اومة
ثف
أخذ
ناف
▁تطلق
▁محافظات
▁بغض
بلوماسي
▁رائحة
▁سد
▁غانا
▁الأجانب
▁النهر
32
قلين
▁الباز
ضائع
▁طالما
▁اعتمد
▁مؤخراً
▁الليلة
▁الدوا
▁Android
▁الجبهة
▁لعمل
▁يرفع
▁حصة
▁السّ
▁معالج
▁السريعة
بدء
ace
▁المواصفات
▁الفعا
بى
▁الاحتياجات
▁يعت
▁الصلبة
▁يقولون
▁يقد
▁محور
▁بعدد
شيط
▁أَنْ
▁أطول
ئية،
▁القتل
▁لعدد
▁(الأ
▁ارتداء
▁شأنه
▁مساءً

▁المتأ
▁وبذلك
بحة
▁مبالغ
▁موظفي
▁ويأتي
▁والأخ
دة.
▁مؤكداً
▁خاض
هية
▁لاحت
وس،
▁التقنيات
نُ
▁الإنسان،
98
▁مواصلة
▁سعة
▁كاس
▁الأخلاق
ياغة
▁العاط
▁للرئيس
اهل
▁جواز
▁الجديدة،
▁القومية
▁خريطة
▁الحريري
▁لتحسين
وامر
▁شخصيات
▁تعرضت
▁قريبة
▁مبادئ
لمقي
▁الاستمرار
‏‏
ً،
▁عجز
▁للشركة
▁الاط
▁البري
▁﴿
▁يهم
▁المرح
▁البنت
▁أوكرانيا
▁أعظم
▁الفئات
▁المطب
ظفات
▁مسلح
▁مبي
▁تايم
▁قصد
▁اندونيسيا
▁Am
المقي
▁الكربون
▁للنساء
▁الرقمي
▁أظهرت
▁الألف
▁استيراد
▁المطر
▁أبيض
▁٪
يبا
▁بالجملة
▁تقي
▁وتط
▁أسود
▁ودعا
يتس
▁are
▁الدليل
▁"ما
▁سموه
▁الأكس
▁مصاب
غاف
لحق
▁للتنمية
▁بمت
▁بتك
▁الأردني
▁المقي
▁الإنساني
▁عوض
▁تأكد
لمبي
▁قرأ
▁شخصا
▁والتعاون
▁مائة
▁المهارات
▁اعمال
سمنت
َلَ
▁إنهم
▁وقوله
قْ
▁تقدر
▁فير
▁علاوة
64
▁الغرض
لفظ
%D8%A7
يسر
نتها
▁تنفي
▁الورق
▁جين
▁الرياح
▁حديثه
▁سنة،
▁تصدير
▁للشباب
▁للصح
▁تطلب
▁تلعب
▁وتقدم
▁يحدد
▁قيادات
▁ومب
▁الجوا
يوبيا
▁سلم
▁الجهد
▁الأرض،
عراض
▁التمثيل
▁أدت
▁(7
يجاد
بادي
▁فاطمة
▁يرفض
▁جائحة
▁بشار
▁النسب
▁الفرن
▁القرية
▁جلد
▁أمت
لمخرج
▁راس
▁الوض
▁معي
▁تغطية
▁التهديد
ربعاء
المبي
▁2005
▁الليبية
▁الانتخابية
▁مسعود
55
▁الارتباط
▁النفطية
▁الحش
▁النخ
▁الاسبوع
▁جوانب
▁للقوات
را،
▁|--
▁صفة
▁بلس
خرين
▁قليلاً
▁اعتقال
▁كالت
▁اسماء
راجات
▁مند
▁سيطرة
▁محطم.
▁تقدمها
▁تتحدث
▁ويعد
▁نقط
▁وتشمل
▁الوسطى
▁الأخطاء
المخرج
▁الروبوت
▁سباق
▁فعالية
me
▁بذور
▁لوضع
ens
▁الخلق
▁تصنع
▁السعادة
▁زجاج
▁الأمني
▁ويحت
ياسة
المات
كي،
▁ابتداء
هم

▁تناسب
▁خالية
▁مشاعر
▁تجري
طلا
▁في.
▁وبلغ
▁العكس
ج،
▁Cont
اهي
▁رؤساء
▁رئيسية
▁لمعالجة
▁بالمنطقة
▁يشار
▁الحيوان
فسي
▁التعرض
▁"ش
▁con
▁يكونوا
▁المتخصص
▁رحمة
ذَا
عق
▁بفتح
عاء
ادقة
▁سجن
▁وبن
▁مقطع
▁الدقة
▁جبهة
▁للمستخدم
▁فارس
▁صراع
▁يمارس
▁يونايت
▁مشاهد
▁والتف
▁توافق
2)
لموق
وتها
▁المبي
▁الزيادة
▁يقت
▁ضحايا
فيان
الموق
▁مدونة
▁الاخرى
ميص
▁الشك
ضاة
▁تكرار
▁وتعد
▁المخرج
▁الملاح
▁جار
▁لفظ
▁المعلمين
▁الصين،
▁زعيم
▁محلي
ته.

▁شير
▁اليورو
▁فاصل
حكم
▁رياضة
ساتين
AN
▁طبقة
▁مقاطعة
▁البحوث
▁ثمانية
▁صنعاء
ave
نال
500
▁موح
▁الشرط
▁الثمن
اطب
ازات
▁يحل
▁وحول
▁يونس
▁سفير
▁وأصبح
▁وطني
▁الجو
▁التجميل
وطن
▁البرمج
ْرِ
▁العظم
▁الألومنيوم
▁الدائم
▁المختلفة،
▁sp
ضاءة
▁المعركة
ّها
▁عاجل
▁(يونيو
▁لخام
ابعت
▁crusher
▁39
▁موارد
وّل
مادي
▁سعادة
▁الموق
▁نظيره
▁المؤقت
ممة
▁الأربعة
▁الوجود
▁قريبا
▁أضع
ٍّ
▁الدستورية
▁لذ
ستق
▁الإخ
▁يثبت
ثور
َّر
▁@Q
▁فريقه
زيرة
لادي
▁مشروعات
▁الفضل
▁مكاتب
▁بوست
▁فط
▁الأحكام
▁أي:
▁التعاقد
▁عنه،
▁بالقاهرة
وضية
▁مصرية
▁وعاء
▁رئيسة
▁فعلى
▁تتعرض
▁العلوي
▁وبشكل
▁المهام
وكسيت
▁دواء
▁الجواب
▁الاحتفال
▁ميد
افل
▁الحبيب
▁للاحت
▁السودانية
▁تركي
▁تقف
▁التونسية
▁للبحث
▁عوا
▁أمرا
▁سمير
▁المقالات
▁الوقاية
▁مضاع
▁عمق
▁البلدي
-02
▁المنح
▁منازل
يداع
▁وأخذ
▁الترجمة
▁HD
▁الفم
▁فليس
▁الجمهوري
▁نظراً
هز
فرت
اهير
▁القس
▁2019

وحد
▁تدل
▁الذكاء
▁وأنها
▁خبير
▁أموا
▁لموقع
▁الأر
▁وعليه
▁34
▁المفتوحة
▁الفحص
▁المعلم
▁المتب
▁القدرات
▁القوي
▁أضرار
▁رض
▁ختام
▁ناب
▁الفتح
▁كساره
▁ناق
▁المتس
ED
▁هير
ليها
]،
:"
▁الظاهرة
▁عون
▁الفجر
▁للشعب
▁مريم
▁فلس
▁وبط
▁الوثائق
ثي
▁فرا
صبحت
▁انفجار
▁دروس
▁وإدارة
كانية
ck
▁سمك
ائنات
▁النصوص
▁وسيتم
▁لانت
انيين
▁تقسيم
▁أواخر
▁بنا

▁عجلة
si
▁توضيح
▁News
ان.

▁باتت
▁شاشات
وول
ًا

▁البسيطة
▁ميدان
▁ارتباط
▁المجانية
▁صيد
ina
▁ومط
▁التحضير
ماكن
▁المعالجة
▁الجاف
▁الة
▁المنخفض
لاقي
100
▁والثاني
لود
ايدة
▁مارت
لتا
▁عزيز
▁وأحمد
▁مزيج
▁التطورات
▁(ج
▁المساحة
▁شهور
TM
▁محلات
ريجي
▁تعا
▁الاختبار
بِ
▁الثوري
ضال
▁إليهم
▁السلبية
▁بدوره
▁القريب
ownl
▁الثدي
ينيات
▁فجر
▁جديدة،
anc
▁المسلمون
▁الأمان
▁تحوي
ته.
عاقة
▁مرشح
▁الأمريكية،
غاث
▁الأسر
▁المهني
ale
▁للحكومة
حقاق
▁توسيع
▁الجاري،
هيئة
▁موضح
بْ
▁أوباما
▁يؤمن
▁لتت
▁​​
edia
▁مفيد
▁مخصصة
▁المراه
▁المطاعم
▁خفيفة
هت
نافس
▁انهم
▁عملاء
▁الاعتداء
مزة
▁القصر
▁سامسونج
▁يعملون
▁ساخ
▁العراق،
▁موجة
▁قيمتها
ثى
▁الماضي.

▁بوصة
لية.
ابقات
بث
حتها
▁والعشرين
▁مزود
▁الميت
غالي
▁لغير
▁فريدة
▁امن
▁انخفض
انك
▁النقدية
وُ
▁المراحل
▁المقدس
▁الأندية
كم،
▁تربية
▁وفيه
▁جلسات
▁برميل
رويج
▁الاضط
▁المقابل
▁عمره
▁مخالفة
▁إيجابية
▁حكوم
▁سرطان
بأ
تهر
▁أميركا
▁بحجم
▁z
ـــــ
▁اثناء
34
▁الموصل
ownload
▁وجوه
وقعات
▁العالمية،
لاوة
▁متف
▁تفوق
▁اجتماعية
▁القطري
يا.
▁طفلك
▁التوازن
/5
▁المنشآت
اليم
▁يوضح
ert
▁صناعية
▁لاسي
غراض
▁تدمير
ها:
▁ثابتة
▁اليدين
▁الطاحن
▁الهر
▁الشهادة
ائمة
▁الارتفاع
بعث
▁سائق
آلة
تابة
▁المشار
لتك
▁تلقي
▁سمح
هْ
▁تأجيل
سيس
▁لجعل
▁حميد
▁دام
▁الواجب
يصا
▁الإسمنت
▁Ab
▁الإصدار
▁للما
▁للبيع

▁النقطة
▁المدف
دُ
ويع
▁المركبات
خار
▁وكشف
المين
▁القرى
▁هذا،
اضل
/200
▁أصغر
▁المستويات
▁للفريق
▁شيئاً
▁بزيادة
▁انهيار
▁الاجتماعي،
شع
▁تيم
▁إك
▁ارتفعت
مهورية
▁....

حط
▁الميد
▁المدنيين
▁قَالَ
▁سبورت
▁يسمع
▁أغنية
ظمات
ويش
ونج
▁استهداف
▁والتطوير
▁الكلاسي
▁الهاد
▁ضعيف
▁الاور
▁يومين
▁الروما
▁البيئية
▁فقط.
يمن
▁المحيطة
▁كاز
▁Home
▁"الش
▁المعا
▁المسؤ
ge
2،
▁حرق
لمدة
▁لانه
▁للشركات
▁بوس
▁US$
▁الأحياء
▁المشاهد
▁الجرائم
▁لتنظيم
عبير
▁حملت
▁الدولي،
▁الصلاح
طوع
شيد
▁Post
▁النسبة
▁زوجة
▁crush
▁السَّ
الدردشة
حكام
▁وعل
▁والشع
▁النع
▁لمشروع
▁باعتبارها
▁الإعداد
▁وري
▁بطلب
احنة
▁مذكرة
▁استكمال
▁الثامنة
▁الالكترونية
رارات
ندسين
▁التفا
▁إلكتروني
▁الجديد،
▁الساخن
▁المتحدة.
▁الاشتراك
▁سبل
▁الكرام
▁أوضاع
▁توظيف
▁بوزارة
▁جيج
▁اعلن
▁المنصة
▁قانونية
▁بكت
cl
▁إم
▁الخضر
▁الحقائق
▁القارئ
▁أرى
▁رَب
1،
راء،
▁وغيره
▁الامريكية
▁ردود
▁قانوني
لموص
▁الطرفين
▁شق
▁وبالن
▁جاهز
▁المرء
▁لاعبي
▁ايض
▁An
▁إلخ
▁عيون
▁مؤكدة
▁بعده
▁الصين.
▁أهالي
▁your
▁وأد
▁التنم
ازي
▁للاتحاد
▁ويكيبيديا
تباه
▁الكهربائي
▁الرحلة
الموص
رداد
ا.

▁مسير
▁حينها
فعله
▁[...
▁ارض
▁الاعتراف
▁شريف
▁الحكومات
دادي
ix
▁ستب
▁(ن
ناب
▁سرير
▁ذاك
▁مثالية
▁ألق
▁ذروة
▁الصار
ولو
▁فعال
▁انتق
نا

▁الجوال
▁الفتيات
▁الكونغ
▁الاصطناعي
▁متابع
الون
ثرت
قسم
▁عباد
▁المهدي
ينج
▁مساح
▁كمبيوتر
▁اين
▁بعيدة
▁الموص
أى
▁يعقوب
▁٥
▁أبيه
▁ومنهم
▁فئات
▁Hotel
▁توليد
▁ضريبة
ائهم
▁السعودية

شيرة
▁العيون
ّات
▁حاز
▁الاستقلال
▁يتسبب
▁الترتيب
تابع
▁التدريس
▁حققت
▁وحماية
▁أكمل
طنة
▁سبي
-7
▁حاكم
▁ديوان
▁مشكلات
8)
رو
▁حالت
▁صناع
▁غني
atch
▁رونالد
▁بلاغ
▁برصيد
▁(يونيو)
▁(C
▁إكس
▁منكم
▁أصوات
▁التصرف
▁يمكنها
▁مقدار
▁هجمات
▁بفعل
▁اليوم.
▁السهم
▁وصح
▁معسكر
وجي
▁جزر
▁الدوائر
▁يعبر
▁يفيد
▁بجد
▁تمه
▁دوما
▁لذلك،
▁جسد
▁مرحبا
بارك
asia
▁تمنع
▁لعملية
▁تعليمات
تصا
سلة
▁لدرجة
▁تأخر
▁Min
▁ومصر
▁وأضاف:
دافع
▁بالمست
▁العضوية
▁شهري
▁صناديق
ولة،
▁كيس
▁التوجيه
المدة
اولين
زلة
▁مراعاة
▁الرئاسية
▁صانع
▁سجلت
▁سح
▁جرت
▁وضعها
▁بنجاح
▁متحف
كتب
وى،
زيلي
ربه
▁"ه
▁فعالة
يعاب
▁لاسيما
▁المفاج
يتك
▁الوقت،
▁بورصة
▁يومياً
▁بحد
راقية
▁الحفر
▁المخابرات
▁يتوقف
▁Mic
ثا
▁ولعل
یة
▁الذهبية
▁الله

عاف
▁آليات
▁بخلاف
▁price

▁اختار
▁التقييم
▁المقاوم
▁الحصار
▁العملا
▁mill
▁النزاع
▁تعويض
▁بإذن
▁النّ
▁الحجر.
▁للحد
▁بولي
▁الاتفاقية
▁لتجهيز
▁معت
▁مكافأة
ادير
▁الاثنين،
▁بديل
▁الطلاق
▁الحروب
▁ک
SI
▁بصف
مأس
▁مدف
▁للرجال
رتون
ِّر
ئكة
▁نصيب
▁الكلى
▁جاهزة
▁اللحوم
▁الهول
▁المباني
▁وسلم:
▁جلب
ولان
مفق
طيات
عتمد
▁المدة
▁ينتهي
▁الأثاث
و(
▁الفوركس.
خرية
قطاب
▁تفيد
▁that
▁قطاعات
ظاهرين
تيح
▁العقارات
وقعة
▁التمو
oy
▁شرائح
▁قديمة
▁رواد
▁الارت
ذاعة
▁تحديث:
▁بقد
امات
صدارات
وود
▁للنظام
اهة
▁أجمع
▁للسيارات
▁لافتا
▁الأبعاد
ًا:
»:
▁إصاب
▁وتقول
▁العميد
▁طرد
▁ياسر
▁والبح
وضوح
▁عمودية
▁المقدسة
▁مسبق
▁وخارج
سوارات
▁يمنح
طوي
▁البدا
▁يده
▁العمالة
وَّ
▁شعور
▁وطرق
لاني
وزي
مانة
▁الدوحة
▁\
▁باي
▁يتناول
▁الأنس
م)
كروسوف
▁7.
▁السلي
يتامينات
▁خيا
▁لوكالة
▁الخطر
موف
لانية
▁صفر
▁مصر.
ss
▁عرضة
▁"ي
فالات
▁المتحركة
▁فرانس
▁وتاريخ
▁معتب
▁باللون
▁فسي
▁about
وتش
مركز
اءة
▁وسن
▁تاريخية
رائط
▁الوقوف
▁الطبق
▁ريف
▁القيامة
▁الحالي،
▁[الدردشة
فاضات
ساءل
رقاء
▁القادر
جاجة
▁العقارية
ريز
▁قديم
▁أساليب
اري،
احنات
▁الكويتية
▁سيدة
▁الاخيرة
▁نقابة
▁لمساعد
▁السابق،
▁الحرام
▁الدولية،
▁بكافة
▁مِنَ
المة
▁دقة
▁"د
▁الجيدة
▁وفتح
اهرات
▁2003
▁الفنون
▁نهج
▁الاستثمارية
اليفور
رامات
83
▁السرير
▁كثرة
▁أشد
▁البوكسيت
بُ
▁لحزب
▁إدلب
▁تأسست
hone
▁جوائز
▁لأجل
▁لعدة
نعة
▁بالمائة
▁سلف
▁تسب
▁الطيور
▁دكتور
▁التنفس
▁عملها
▁الرحلات
حصل
▁المصرية،
▁ومدير
ئهم
فافية
▁ورفض
▁الهجمات
▁Chat
1]
▁الشراكة
▁الصدد
▁المزارع
▁المحدد
▁أقسام
▁وَأَ
هرباء
▁المصانع
▁عادي
▁مثلما
▁مضى
▁تنظم
▁نات
▁الشائعة
▁السويد
▁مكانة
فرقة
4)
▁يمين
مقراطية
تدئين
▁علمي
▁كبيرة،
قيل
achinery
▁يونايتد
▁التام
▁يوص
▁أرسل
▁بجودة
▁قبيل
▁وبعدها
▁للشعر
▁خلفيات
▁الساحل
▁دعاء
▁لإجراء
▁الأجنب
▁ونظام
▁man
ey
▁السين
▁فيجب
▁الإسكان
▁الأصوات
▁ومخ
▁زياد
▁طموح
رشح
ضار
وكة
▁الإعلانات
▁المستدامة
▁للتق
▁الجبل
وارث
اد،
▁more
▁مرف
▁يفهم
▁بضع
▁بالفيديو
▁فِ
▁فترات
▁الشيعة
▁الاعمال
▁لعل
▁اليابانية
▁الصديق
▁(مس
▁جامع
▁خرجت
ON
▁الأزمات
▁فالت
▁أصدرت
▁ترخيص
▁PDF
▁البحري
اقش
▁أدرك
▁عموم
▁ملامح
تمل
▁الأكاديمية
▁بايدن
▁الهض
▁أكسيد
▁ويعمل
▁Price
ماطم
▁واكت
اتِ
▁رام
▁الرائع
ef
ياح
▁يفتح
▁أيّ
▁التلقائي
▁القوا
▁السياح
ياض
ذَ
▁التمييز
▁الشمسية
.ـ
▁تشجيع
▁قمنا
▁بها.

▁التأكيد
▁وغرب
▁للاستخدام
▁أوائل
▁اعرف
▁هوية
س.
مكانات
▁لابن
▁إيجاب
▁الشيع
▁وعمر
▁صحيحة
▁عرفت
▁يساهم
▁مثالي
▁صيغة
▁Jan
حاث
▁تسويق
''
▁الذاتي
▁تدعو
▁أمريكية
فئ
gy
▁Su
▁ينصح
▁البديل
رآن
مباب
▁حوادث
▁wh
▁القصص
▁العقار
▁مباحث
▁أضف
كرم
▁الأهلية
form
جت
▁الصادق
▁مظهر
▁ونقلت
▁معارض
▁المواجهة
▁تذهب
▁كوفيد
▁800
عيه
▁السيراميك
▁راج
▁تأليف
▁صادق
▁اى
▁السكنية
▁والعراق
▁الحوادث
نباء
ory
▁الساخنة
▁يعط
▁غالبًا
▁الفكرية
▁نافذة
rusher
لمور
▁حدثني
▁صابون
▁العمود
لِّ
وقت
▁بأكثر
▁الوالد
▁ag
▁نعلم
▁وطحن
▁محدود
▁واجهة
▁ميلان
▁شركتنا
▁المفضلة
▁خي
▁بمصر
لنكر
ated
▁الليمون
قيله
▁تمكين
▁المتعددة
▁جاك
▁غالبا
▁ويخ
▁داخلية
يف،
نّ
أخبار
▁شغ
▁المخروطية
يد،
▁السطح
▁العباس
▁الأمثل
▁بيس
▁البطالة
▁الدن
اقبة
▁الجافة
▁حياتك
▁القطرية
▁يتق
المور
▁فائقة
es.
فقد
▁8217
▁الإجمالي
▁النصائح
▁علاء
▁البطاط
▁حكومية
َةِ
▁هريرة
▁جيدًا
ions
▁وشهد
-4
ater
▁الصحابة
▁الزوار
▁متع
▁الاتها
▁لبنان،
▁الخيرية
▁تشبه
▁القصيرة
▁لأسباب
▁والحفاظ
▁وغيرهم
▁مؤكد
▁اللحم
▁اني
▁الفلك
/05
عاث
▁سويس
▁تساهم
هنة
رالية
▁غربا
▁الجامعي
▁والتجارة
▁بتأ
▁بتلك
▁الأسرى
▁مكون
خصيص
▁ابحث
▁فنان
▁ندوة
▁بتنفيذ
▁القارة
▁مجهول
حمد
/01
▁استمرت
▁المتوا
▁هام
▁واحدا
mm
2016
▁السعي
غو
مسة
وهرات
▁الحية
▁الذكرى
ليج
▁يقومون
▁رأسها
▁للطلاب
عِ
▁بلدي
line
▁التقليدي
▁يقضي
▁فرقة
▁موثوق
▁القاهرة،
رسي
9)
▁قلة
▁نستطيع
▁المفتوح
▁ودع
▁زب
▁نض
ـا
▁و(
▁لمجموعة
▁شنغ
▁اللازم
▁السنوية
▁السح
موظف
رقت
▁ضربة
املين
▁وعبر
▁ستح
▁المور
▁الأهم
▁فقلت
إِ
▁المنهج
جاع
▁التز
▁الباحثين
▁عزيزي
▁رموز
تيك
▁المنا
▁تمنح
زء
▁تجميع
▁أسهل
▁فيقول
▁التعويم
جدات
▁والمورد
▁راح
▁مثيرة
▁انتقال
▁ثمة
▁والحصول
▁هوت
▁والبر
عوث
▁إثبات
▁شوارع
▁سخ
▁الشيوخ
كروسوفت
▁تسير
▁http://www.
▁نيوز

▁أنباء
▁الحديدية
▁آلام
▁الكيان
▁حاولت
ميت
▁فؤاد
▁الحاضر
▁المسحوق
▁مخرج
▁"أن
يلات
▁أجواء
اذبية
▁الجنين
▁حُ
فظة
▁مختبر
:10
▁2018،
olog
ليفة
▁am

▁الكف
فتر
▁الوظيفة
▁"ص
▁والذى
▁داع
▁التقديم
▁ممثلة
▁نفط
ابهة
▁ro
5.
▁له:
dit
▁شقة
▁ورحمة
▁قاسم
▁قاموا
لمضادة
▁الصنع
▁ليل
▁he
المضادة
▁ضم
▁مثلاً
▁يخط
▁مَن
▁أسوأ
واتي
▁اتفق
ياع
▁بمف
/06
▁برف
صرار
▁وعنوان
▁الزوجة
▁الإصابات
▁والشر
▁أسامة
▁التاسعة
▁اللغات
▁المضادة
▁بها.
▁لرفع
oll
لبات
بها
ردن
▁بالقول
▁الفعاليات
▁عبارات
طَ
▁الادارة
▁منهج
▁الترفيه
▁طبعا
▁والغاز
رنا
pe
▁ضروري
▁البرية
ماح
▁مستقلة
▁المشاركات
▁الكاميرا
▁الآن

▁وزوج
▁دمج
▁وبيع
▁يتوفر
▁التّ
▁الحوثيين
▁الجائزة
قذ
▁العاشر
▁الباحثون
▁الذكي
▁فالح
▁الأمطار
؟؟؟؟
▁تصحيح
▁ممتازة
▁بناءً
▁اجهزة
▁يلزم
▁يقارب
واح
▁الخسائر
تهي
▁مختلفة،
▁حقيبة
▁إمام
▁الجنسي
▁أوامر
▁العزل
▁حارس
▁الاستاذ
▁2020،
مملكة،
▁العوا
▁المعاملات
▁احتما
ــــــــــــــــ
▁لكافة
▁الجوانب
▁بينه
▁باحث
▁والاقتصادية
▁دان
▁حملات
تها.

▁متعدد
▁اقتح
يعة
▁الدعاء
▁الحياة،
▁حمض
ime
ليني
▁وتنفيذ
▁وبدأ
▁لآخر
▁اعتقد
▁يقرأ
داقة
▁ميديا
▁قاعة
▁الأصدقاء
▁لائحة
وزع
َّى
▁وكنت
جلترا
▁والخارج
▁الإحت
ستمر
▁المجاورة
▁التعليمي
▁Man
▁نعمل
▁التاجر
▁داخلي
46
▁Ltd
رجع
▁تقرر
فران
▁البك
▁غرار
▁مكن
rosoft
▁كثيرًا
ستيكية
▁الغضب
▁أسلحة
فكار
تباكات
▁والشركات
▁شرع
ووجه
▁سانت
▁والمعدات
▁حزمة
كْ
▁نظيفة
▁التضامن
▁بموقع
▁الاسلامي
▁لير
▁الأوقات
▁كاليفور
▁المادية
▁وثلاث
▁بولاية
▁عشرين
▁الشرعي
▁فإننا
▁إسلام
▁نو
▁أشارت
▁الثاني،
▁والمعادن
▁عمران
▁بام
▁القرص
سال
▁المدينة،
▁تعبر
يا

▁اصط
▁للبيع,
وند
امعات
حباط
3)
فسر
بك
▁وَالْ
▁كهربائية
▁والوا
ember
ودع
▁لهما
مودي
▁ويقوم
كيف
▁get
▁ليرة
▁عَلَيْهِ
▁بوتين
▁التاريخي
اولا
ملخص
▁كبير،
ى.

صلات
▁يصف
▁--
وفا
وتن
▁راجع
ركيز
▁المتميز
▁الند
▁إيداع
▁السائق
▁تضر
▁صَ
▁للمواطنين
▁المفترض
▁بجر
▁بالنا
▁رياضية
▁المنطق
لوه
اثر
وا،
▁والدول
دة.

وليد
اكا
▁سفيان
كنات
▁اجتماعات
▁لمتابعة
▁يحق
▁مشهد
لواح
،،
مريكا
▁يثير
▁الخليجي
▁يجع
جمع
▁لعرض
ييد
لامه
هنئة
▁ووجه
▁المغاربة
▁أكون
	

▁للتأكد
ويين
▁السفينة
فيه
▁لتصبح
▁فقط.

▁رأسه
فلون
▁ماري
▁محاجر
▁آيات
مهور
▁شاركت
فتاح
▁اللجان
▁تستحق
▁زاوية
▁هرمون
▁القاب
▁المساجد
كش
▁مؤسس
▁شرا
▁بنية
ويب
-6
▁حسام
▁البوابة
▁وأفضل
▁المتوسطة
لطات
▁المستقبلية
‬‎
▁أمان
▁"الن
▁نيك
قابة
ائية،
▁للناس
▁مستخدمي
▁الحرس
▁والآن
▁للتخلص
▁الانقلاب
فصيل
▁نجحت
▁التحقيقات
▁محطم,
▁واحدة،
▁الاطلاع
▁الأمانة
ورائ
▁زادت
▁مثل:
▁ستجد
▁الفيز
▁وأصحاب
▁وتنت
▁ضخ
▁والمواد
رة.
▁كق
▁تتخذ
▁البطاقة
▁النقاش
▁بالمغرب
▁المتوفرة
▁المراقبة
▁الجهاد
▁دبي،
▁فرن
ml
▁خان
▁بارت
▁الاسرائيلي
ES
▁المغناطيسي
AT
▁وتحدث
▁الفضة
تصال
▁لمساعدة
▁سار
حضرات
▁الخطيب
▁(الب
المزيد

▁للأسف
▁يموت
▁أحيانا
▁وغالب
▁عقوبات
▁باستثناء
OR
▁تراج
▁العاص
فقه
▁يقلل
فسار
▁الحامل
▁سقف
هما،
▁بتوفير
▁هت
ي:
▁لقاح
▁شت
▁أ.
▁غريبة
▁والابت
ung
▁بنفسه
وعد
▁الصحفيين
▁وبدون
▁يسوع
▁جنود
▁التكاليف
▁التحميل
▁47
▁الأنبياء
rig
▁جمهور
http
▁ستس
قِ
▁Con
▁التعديل
▁المعروض
▁للقضاء
▁يعادل
▁شام
▁إليه،
مفضل
▁بمعدل
▁حدثت
▁سط
▁طريقه
▁كاميرا
▁الهد
▁lik
▁غام
ناس
مشي
لمنا
▁مملكة
ضَ
ستا
4،
▁الوليد
▁الضرر
يقية
▁ينع
▁يدور
▁يناسب
▁طيبة
كورونا
ame
▁تفض
▁شقق
▁المستقلة
▁يصعب
▁الجمعيات
▁المجمع
خَ
▁اختصاص
▁الفيد
▁المصرفية
فُ
حانات
▁"الف
▁لفريق
▁وإع
نا.

▁الزع
▁موسوعة
نئ
▁رؤوس
▁أخرج
▁الَّذِينَ
ool
طأ
▁سؤ
٢٠
الوري
▁تفرض
▁والملا
ولاذ
اكم
ase
▁المساعد
لوية
وائح
هورة
▁واد
▁المالية،
▁المحتلة
▁رخصة
▁وجهات
▁مخاوف
▁الإرهابي
▁ولأن
▁صفقات
▁بالمدينة
▁للمك
▁العصور
▁عات
▁المبكر
▁الجامعية
▁بقاء
▁للدفاع
▁بسم
▁السياحي
▁ذاتها
▁غطاء
▁الإبداع
▁تعبئة
▁Dec
▁بيضاء
▁فين
▁لولا
▁الوطني،
▁الجنود
▁تنتظر
▁الإيطالية
▁انح
▁اختراق
▁روك
][
▁اتصالات
▁الكاف
▁يعكس
▁البضائع
▁المكتبة
▁الجوه
▁للتعليم
▁طا
▁ذاكرة
▁الصبر
▁يعيشون
▁ودا
منع
▁وقتها
▁البعث
▁مره
▁مريض
زئة
ank
we
▁الإقليم
و.

▁الغد
ناث
اللط
جْ
▁نزل
▁أفغانستان
ون:
▁التوقف
▁أهمها
▁لوس
▁للمعدات
▁مصنوعة
ولته
▁الولاية
▁وإس
▁الصفقة
رب،
▁الطويلة
▁اتها
▁القياسية
▁أخطاء
▁اليها
ميله
▁صخور
▁زار
▁الامام
o

▁البغ
▁كورونا،
▁استبدال
▁مهندس
▁اسطنبول
▁والعالم
َدْ
▁وقدم
فور
▁إلكترونية
ددت
▁إصابات
▁بمركز
▁اصبح
▁وتمت
▁العنص
▁ميسي
▁فد
▁des
▁التذ
▁قرابة
لمقدم
sl
صَ
sc
31
دعو
▁وأخرى
ورونا
▁النش
▁نيابة
▁اشهر
ثم
▁وتغ
▁معروفة
▁لشخص
كورات
▁مهام
▁مرتبطة
بغ
▁مناز
▁البيوت
▁اعادة
المقدم
▁جيب
▁قراء
▁بنشر
قايا
▁مفاوضات
▁قلبي
▁العدوى
▁(بالإ
▁انقطاع
▁ابنه
▁بالمملكة
اوى
▁المقصود
▁مزدوجة
▁الابتدائية
▁لشؤون
يفي
▁سنوي
▁وأت
▁اترك
▁الماك
▁www
▁عَنْ
ele
▁رسميا
مدادات
ية"
▁الْمُ
▁اللط
▁الأوس
▁انتخاب
حيم
▁بحرية
tect
كريات
▁حرك
▁التفاوض
▁الميكاني
▁يتس
▁سوبر
▁Sc
▁سلطات
▁المطاف
▁الكلنكر
▁يلي:

▁بعملية
▁باعتباره
ديها
▁تطالب
لمخل
▁هج
▁جذب
▁الابتدائي
▁أصاب
زير
▁أوف
▁الأجل
▁الجمر
▁أبلغ
hai
▁شيء،
▁بجوار
▁أسرار
▁الدبلوماسية
خبات
▁المعالج
لورد
▁قنا
▁للمجلس
▁(4)
اضرات
امرات
▁ونس
▁المتقدم
▁المزد
▁فست
▁أكل
▁الأسماك
▁تترك
▁انطلقت
ثيف
▁سرع
▁للعملاء
راها
▁بعيداً
▁العالمين
▁المقدم
▁الحكمة
▁42
▁المستمرة
▁اللائ
ll
▁تمث
▁im
▁الرملي
▁عناوين
▁وحين
خباري
▁للتداول
▁هدية
متهم
▁الهند

▁الافتتاح
▁أكاديمية
▁إعجاب
المخل
▁الاسب
وف،
▁حدة
▁وارتفاع
▁طاولة
▁غربال
▁ولها
▁المتنوعة
▁اننا
▁يلا
▁حن
▁الشرف
صت
َّا
▁مساهمة
▁خاط
▁تلبية
▁تفتح
▁الناتجة
ثاق
رياء
▁للوا
اخبار
▁الباريت
فون
▁تشخيص
▁التلف
▁عدداً
▁استثمارات
▁المشاعر
▁باف
▁الرجاء
واية
▁اللقاح
▁ودفع
▁وإد
▁ورائ
▁وعض
▁الحضارة
▁واتس
▁تهتم
اندة
▁العاشرة
▁ثلث
▁واليوم
▁محطم

▁المرشح
▁الزيوت
▁نهيان
▁تزويد
▁pe
▁بالعديد
▁For
▁الفلفل
روق
▁حيا
ین
▁أنش
▁اولا
زول
▁المهاجرين
▁ً
لمثل
في،
▁الرجوع
▁النقابة
▁الخليجية
مريض
ولوجي
▁تكس
▁الراهن
▁أحدهم
ريين
▁للاعب
▁موضحا
لاجة
▁وتعمل
تها.
يمياء
فاصيل
▁أجد
▁مقدم
▁المبنى
كله
▁الإب
▁ومر
▁قرأت
▁للتعامل
▁الحربي
▁فإنّ
▁بطن
دعي
▁يعرفون
▁بمقدار
▁الناصر
لوت
▁الميزات
▁التفسير
▁معاناة
▁بالمورد
▁8.
▁لسن
▁إحت
▁معاني
▁المخل
▁المعتمدة
▁للمنت
▁سنويا
▁التحكيم
▁توفيق
▁للتعدين
رْ
▁الآيات
▁الحجاج
▁يتعين
▁المصلحة
▁ركن
ضحى
y

باعة
▁تتب
▁المحددة
▁الانتباه
▁ميزات
▁مترجم
▁الخصوصية
▁النظرية
87
96
▁البث
▁ذهبت
لكات
▁وحقوق
▁سراح
▁لوجود
bl
▁الفنانين
بور
▁وكالات
▁مرضى
▁الإفطار
▁حوض
▁يطرح
رائق
ولوجيا
الورد
▁الجلوس
▁دفعة
▁تعكس
غرب
/07
▁en
▁حياتهم
▁محطم،
▁يهتم
▁هاتفك
َبْ
قالية
▁زيمباب
▁بنتيجة
▁أنصار
▁الضرورية
▁التداول.
▁سيئة
▁يعيد
▁«إ
عضاء
▁يصنع
▁‬
▁سماع
▁ومتابعة
▁المبالغ
▁أند
▁عاط
هابات
حون
▁مواعيد
▁هبوط
ليط
غافورة
المثل
▁ملتقى
email
▁فرنس
▁الترج
▁بحكم
▁بالضبط
راجة
سيمة
دِ
ستاذ
alk
▁واتساب
▁هائلة
▁المصطلح
▁الفط
▁للجنة
▁فعلت
بناء
▁المستع
امه
▁نعيش
▁إندونيسيا
طاف
▁وتأتي
▁توافر
▁المساهمة
جُ
▁ستيف
▁بشيء
ـ.ـ
▁مقب
قيمت
▁الفكية
▁المصرف
▁"الك
▁العتي
▁وشعب
▁تاج
▁لجان
عوم
▁درج
همال
▁بإنشاء
▁اساس
▁مستقل
▁توب
▁(S
▁متكاملة
▁تعلي
▁الممارسات
▁ليصبح
▁تأهيل
▁الناطق
▁القادة
▁أمي
▁عمار
▁وامت
واجن
▁اصدار
▁الرباط
ٌّ
▁محمولة
يرن
▁لأننا
▁Arabic
▁ثمّ
▁التدريبية
▁عطلة
▁مدخل
▁حصان
▁تساعدك
▁تعتقد
▁أفاد
▁برعاية
▁بالضرورة
▁السنين
▁لطلب
,

▁هَ
▁يصح
▁لتجنب
▁تدريج
▁الزعيم
▁معاوية
▁محركات
▁الحميد
▁وخط
أة،
▁رواتب
▁للجيش
▁فكانت
▁الوجبات
▁يلتقي
▁الورد
▁وبدأت
▁الملايين
▁أعلاه
▁اللقب
▁مِ
▁تمارس
▁التربوية
▁محاربة
86
▁غالبية
مَّا
لالية
▁الجدير
achine
▁ربي
▁May
▁ليا
▁مرش
▁فيك
▁هادي
▁المحاكم
▁ثانيا
▁الاحد
لَّا
ر.
▁شهادات
▁جميعاً
▁البازلت
ence
واهر
▁عيوب
▁توضح
▁الإجراء
ّاً
▁سائل
▁إقام
▁أبعد
▁تقام
▁الأزياء
▁الناشئة
▁القذا
▁عماد
▁سرقة
▁بالانت
▁الاسعار
▁عندنا
▁التوفيق
▁"خ
▁نشره
ann
▁التلفزي
▁ی
رحب
▁الفاس
cc
▁ننت
▁كاش
▁اطفال
1,
▁وجهه
▁السيرة
▁تخضع
es,
▁والاعت
▁الأهمية
▁قصيدة
▁الحافظ
▁ويبدو
▁سامي
▁أبداً
****
▁القصير
▁وجع
يرو
▁وقطع
▁أبحاث
▁ماد
▁شملت
▁القلوب
ريضة
▁والمف
▁المشروبات
▁شوق
▁الثروة
▁لخط
غرام
▁تزوج
▁أدناه
وسة
▁قلنا
دء
▁عامين
WhatsApp

▁الشافعي
مآ
▁كهرباء
▁التوت
▁قناع
▁وثائق
▁عظيمة
▁المحطة
▁مبكر
riv
▁بالتنسيق
▁''
▁وجمع
▁البعد
▁موردين
مفعول
▁البيانية
▁الانتظار
▁منزلك
▁نتحدث
ئا
▁يسهل
▁1

رواح
▁قيس
▁cont
▁(10
▁Know
▁شعبنا
▁آي
▁صفات
▁به.
▁أبرزها
▁الجنائية
▁بأعمال
▁ويستخدم
▁بتهمة
▁معال
▁«ت
▁كيميا
▁مقاعد
▁البوت
▁روابط
▁ما،
▁تمثيل
▁تصفح
▁يصيب
ربعة
▁الرأسي
▁صاروخ
▁وته
▁الفرز
▁عشان
▁تزايد
صلى
برع
ه,
▁لمزيد
لجيكا
▁ظاهر
▁اثر
duct
▁للعا
▁زيارة

▁المشي
▁تايمز
▁إيف
▁مصرف
▁لمناقشة
▁المؤس
زيين
▁ابناء
▁وُ
ئدة
▁التقى
لات،
▁رئ
احف
جازات
▁كجم
مذكر
رفت
▁به.

▁يواصل
/04
▁جديدا
▁مرتبط
دا،
▁(0
مصنع
▁بالتالي
▁الكلاب
▁(مايو
▁استقبل
▁الخيمة
غبين
▁ملاحظات
▁2018

▁الدولى
▁إقرار
▁مسح
ندسة
▁تبني
ement
ID
▁قصف
▁السا
▁جبال
صاف
/2019
نوع
الذي
رضي
▁النمس
▁85
▁خفيف
▁والاستقرار
ين"
▁الأرضية
▁الرّ
▁الخلفية
▁Nov
▁علمت
▁عصام
▁الخصائص
▁وسيا
مِّ
▁للانتخابات
يتامين
▁التشكي
▁للمساعدة
▁فروة
▁ميزان
▁صادر
▁السلسلة
▁Oct
▁للاسمنت
▁الأند
▁بمجلس
▁Jun
▁الصغر
عايش
▁2019،
▁تلو
▁زوار
▁حذر
▁الهاش
كاوى
لابة
▁في:
▁اجتمع
▁أحمر
▁الهندية
▁العالم

▁بعرض
▁su
▁سائر
/09
▁سود
▁مرتفع
اتذة
▁الجسد
▁حريق
▁وبركات
▁الدعوى
▁عندها
▁الحديقة
▁الحكيم
▁الترويج
▁الاستخبارات
▁إننا
▁مخيم
▁التوقيع
▁أفادت
▁أيا
▁أركان
▁التوظيف
▁اسمها
rind
▁بوضوح
▁يسير
▁مئوية
▁سه
▁نواب
▁حاتم
▁معالم
شه
▁المستوط
▁يتر
▁المكلف
▁للعال
▁النمط
▁لاخت
▁وذات
لميا
▁زرع
▁البرد
▁امريكا
تو
أْ
▁الام
▁تختار
كريم
ظاهرات
▁ليوم
▁الفرقة
يُ
غ،
▁الله.

‏.‏

▁زملا
▁الفلاح
▁أعوام
▁استجابة
▁مرتفعة
▁نضع
▁البرازيلي
تمت
يييي
راقب
▁المناعة
▁صدام
▁بعناية
▁دائمة
▁من.
حمام
▁تمتد
▁دعت
▁منظمات
▁م.
يا.

واي
ثمرين
ل.

▁غزة،
نجليزية:
▁الفيس
▁ومعرفة
▁يخدم
▁كاليفورنيا
▁التعادل
▁القدم،
▁مولا
▁أيضا،
▁180
▁الفراغ
▁مطاعم
▁البرلمانية
▁ودون
▁مؤلف
▁دورا
].
▁يور
▁فساد
▁(أو
ـر
الميا
▁المستفيد
تية
▁النظافة
خلت
تني
ذى
▁حلقات
▁الفلا
▁دورها
▁الأغذية
▁نقلت
▁أتى
ترحات
شرطة
▁القنب
رسان
▁المختص
▁والثقافة
▁(الج
▁طر
▁الاعلان
قدان
▁وتقوم
▁[...]

▁المتجر
▁الموازنة
وراه
مساك
▁ضيق
▁جنيه،
▁سيطر
▁تيار
▁آراء
▁امتلاك
نبؤ
▁عاي
▁شعوب
▁الدرس
وور
EN
▁الامور
▁فيكون
لي.
▁جزءا
▁اليوم.

▁حسابه
طين
شارك
▁Inst
▁Pre
▁بفر
▁الإماراتي
ديمه
ضاعة
▁مرسي
المون
▁وتنظيم
▁التفاح
▁نظيف
راقبة
ضت
▁المصري،
▁بإجراء
▁المكاف
ن.
▁الرمز
:20
لائ
وخة
بقية
BC
▁بتر
▁ومه
ندة
▁2,
▁جديد،
▁السباق
89
▁الفرع
شارات
▁تربط
▁الزراعي
خلف
▁اغتيال
▁خسر
▁باحت
/03
جاعة
▁ة
▁الوكيل
ational
/4
كولات
٫٠٠
لّا
▁محسن
▁التالية:

▁سارة
▁الزائر
▁الخيا
▁أوغ
كسي
▁البابا
ett
نزيل
▁2030
▁للعديد
▁بمرض
▁المقبل.

الين
▁تسي
▁إسقاط
▁البيتكوين
▁لاعبين
▁حش
▁الحف
▁مطبخ
▁الاختبارات
▁الدين،
▁والعق
▁الفقه
▁أعرب
▁الحاسب
▁والولايات
▁اير
وبين
▁تسوية
▁وسيكون
▁والنساء
▁التكوين
quip
▁دعوى
اريف
يافة
▁المطالب
جبات
للس
تصاص
▁الجرا
▁خس
▁إحداث
▁نائ
▁"الد
▁راحة
▁استئناف
▁اطلاق
▁شد
▁الأخرى.
▁(A
▁؟؟
جهود
يدات
▁وشمال
يقي
رتك
▁الهيكل
▁تنظر
سيخ
ظافر
▁سرا
▁السعيد
▁شرعية
وفى
▁محادثات
▁المصنف
▁والدكتور
▁الجر
▁اتهم
▁متق
▁الأخرى.

▁الخبير
خات
▁الزنك
سيوط
▁الكحول
▁الشرب
▁المقاب
▁نحتاج
▁min
▁وعادة
▁السباحة
▁ليون
ديموقراط
▁المجتمع،
▁جمعة
▁ترش
▁سعر

▁الدمام
▁استخدمت
▁الاحتفاظ
▁قائلة
▁الفوسف
▁تتوقف
▁طيلة
يتو
▁يقصد
▁6-
▁توج
▁المتهمين
▁الاستمتاع
▁رابطة
ich
▁تنقل
▁التعبئة
▁الواقع،
الوريوس
▁افلام
▁فلان
▁إعلانات
عث
▁نوعها
▁البائع
ideo
لمفضل
▁ودول
دهار
▁سيدنا
▁قبيلة
-2021
▁"ر
▁لحد
المفضل
ضِ
▁وسلم،
جهز
app
▁مقاس
-2020
▁الدر
▁أمه
amp
راضية
▁جري
نتي
igh
▁يعزز
▁يهدد
▁بأنهم
▁الصوتية
▁العضو
▁الاربعاء
▁القراء
▁cl
▁بالعاصمة
▁العف
▁حفظه
▁التقد
الفة
▁تسمية
▁المفضل
▁تثبت
▁الرَّ
▁:"
▁الإخبارية
▁رمح
كتوبر
ليين
ياتي
▁الاستجابة
▁نبيل
▁انش
▁اشتري
▁العنصر
مَن
معدات
▁متوفرة
ماعات
ount
▁توحيد
▁الحاسوب
اااااااا
▁ترفع
▁شعبة
قيت
▁الدورات
▁اختبارات
▁iPhone
▁وول
▁المتظاهرين
ـن
▁ماهو
▁95
▁العموم
ميمات
▁توصل
▁التعديلات
▁وفيها
▁القبائل
ماض
▁بقرار
لة

▁احدى
زارة
▁والعديد
▁الهندسية
▁إنقاذ
▁protect
▁الوصف
▁للمشروع
▁الصواريخ
▁مَنْ
▁الأحجار
▁حياتنا
لصة
▁أثبتت
▁متاب
▁وطريقة
هدفت
▁تكلف
▁توريد
فان
▁البدي
▁السوف
▁فأنا
▁الحرف
▁التقليد
تكرة
تالية
▁المحامي
▁ختم
▁هز
▁النسخ
ياتها
▁التفاعل
▁سات
▁الضغوط
▁لإزالة
▁تكريم
حتى
وحي
▁لايف
وي

▁الأوروب
▁دلي
فئة
▁جدا،
▁زمنية
%D9%84
▁Ind
▁الفلسطينية،
▁العصبي
▁السينمائي
▁بمبلغ
▁تمديد
▁ائ
اكي
▁اقل
anghai
▁كوكب
ريفة
roup
▁المديرية
▁لمصر
▁الحركات
حام
▁يجعلها
رشادات
▁الصين

▁الخبرات
▁طه
▁ويرى
▁حمزة
▁يرتبط
▁يحفظ
▁|

/02
▁الوباء
▁لـ«
▁تعليمية
يزة
زيغ
▁كربونات
▁قلت:
▁الطاز
▁عاب
▁عرق
ور

لازمة
▁الناخب
▁المتدا
نيت
▁تداعيات
▁www.
كررة
امح
▁البدنية
▁جدار
▁الزهور
▁تحسن
▁العثماني
▁العذ
▁وضعه
▁الألياف
▁سلك
مقيم
▁المسب
ووجد
جعات
▁بدرجة
ote
▁بكرة
▁أرشيف
روات
▁يتحمل
▁متميزة
س

بره
▁طبيع
▁لبرنامج
▁العادة
▁الجماعي
▁للبشرة
▁لمصنع
▁الفوضى
يكو
ور.
؟!

▁لفتح
▁لحساب
▁تسعة
▁التعليمات
▁اخي
▁محاكمة
▁يميز
وتوكول
ound
▁بدورها
▁والإد
▁تشكيلة
كلت
▁Eng
▁متحدث
▁(مايو)
▁ملخص
▁خطير
▁المنظومة
▁المنق
▁64
▁ميزانية
▁شاكر
▁ماهي
▁الاحتياطي
▁التشريعية
▁حصر
ومبي
▁المرجح
▁الحكومة،
ُمْ
▁الامريكي
ull
▁حرام
▁سفينة
▁فاج
▁فوت
▁الباك
▁حيال
▁قِ
▁الشرائ
▁العملي
▁tph
وفين
سو
▁ماجد
▁البيئي
▁بواقع
تون
▁بالوا
وقا
لاَ
▁مدني
▁**
▁السيدات
▁الرياضيات
▁والاس
▁التقاط
▁ينس
▁أليس
▁والتك
ايف
▁نون
▁مواليد
بيح
▁الجدل
7,
▁الجذ
▁مؤخر
▁مكتوب
▁يمكنهم
▁محتويات
▁مسقط
▁كلب
▁مثله
▁الموسوعة
▁900
يدز
▁لبدء
واطئ
▁الآباء
▁الاهتزاز
▁كريمة
▁ضابط
سعة
▁يحكم
▁شرقي
▁الفوري
▁المطاط
▁البلو
ؤمن
▁ويقال
▁أساسا
▁الأشجار
▁بإعادة
▁باد
▁سينما
▁والقانون
▁زيارته
▁والمعلومات
بان
▁الغنية
▁أقام
جتماع
▁المقات
معاء
▁تلفزيون
▁للقانون
▁صاد
يده
ضج
▁ووجد
▁لتطبيق
▁46
▁43
▁"داعش
؛

▁عينة
▁منى
▁السعرات
/08
▁النارية
▁الأوقاف
▁حسابك
غذية
▁مروان
▁خلع
▁الميزانية
▁مدين
▁خلية
▁المبادئ
▁الملتقى
echn
ؤْ
:40
▁(د
▁الضحايا
▁بالآ
▁السوبر
ise
▁وشراء
▁إعلامية
▁الآونة
▁الهيدروليكية
▁اجت
▁بطرق
▁المقبلة،
▁محمول
▁كيان
لَّى
▁أيمن
اب،
quipment
▁بنغ
▁والأج
▁ويا
▁وكم
▁(ش
ــــــ
▁واذا
▁لسي
▁المكسيك
▁بطريق
▁مضمون
aj
▁10.
اليوم
AC
▁تفشي
عدى
▁السحب
▁جبر
▁تطلع
▁٦
▁فاق
بيبة
▁عقوبة
▁للان
▁العشاء
▁ضباط
▁إسرائيلي
▁العائد
▁المفاصل
▁للسيا
▁الكات
▁الفلسبار
▁فاش
▁لهم،
▁مود
▁تصفية
▁لوقف
▁الفشل
▁أشعر
▁حاس
▁الاتحادية
▁امتداد
▁مماثلة
▁الفردية
▁الأمام
▁إشراف
لمملكة،
▁التخصصات
▁المثالي
▁(ر
tern
المملكة،
eed
رخاء
▁وتز
▁الإنترنت.
▁المتق
▁مكر
▁تمارين
▁سعودية
▁أورد
▁لصنع
▁quot
▁مرمى
▁كيلومتر
▁الأشكال
▁المملكة،
▁أنماط
▁الابتكار
▁الياباني
▁عددها
جددة
iss
▁الكلب
▁السحر
▁قائل
▁النسيج
▁شَ
▁وبهذا
ونيت
يني،
▁نجيب
خلة
ايل
▁وشركة
▁لأنّ
▁معناه
نجليزي
:50
▁إلقاء
▁يختار
▁النك
فاءات
▁على

▁هولندا
▁ac
▁صحف
▁لأصحاب
▁عقدت
▁معن
uk
▁إزاء
▁مخد
▁لبحث
▁العجز
▁آخرون
عارض
▁غذائية
▁الاسهم
▁صدرت
▁غذائي
▁كنيسة
▁هندسة
▁التغيرات
▁الحرص
دائع
pan
▁السرية
ّح
▁إنسانية
▁الأعشاب
▁فقر
▁التضخم
▁السجون
لى،
▁شهرة
كندر
ليفزي
قليم
▁لتب
ائعات
ومه
▁الاستعداد
ائرة
▁تحل
▁وجاءت
▁كسارة,
uf
▁اللّه
▁صياغة
▁Co.
▁البلاد.

▁ورش
▁للمز
▁أرضية
▁ونق
▁والأد
▁المصنوعة
ليلات
▁الشاطئ
▁التنقل
▁نقله
فاة
▁المرشحين
رحى
▁مهنة
▁ربه
▁لاج
مر،
▁يتابع
▁اطار
لبس
ن

▁الثانى
▁وخمس
ملأ
▁الخصم
سِ
اعية
▁1500
▁هلال
▁وحسن
▁تنفيذها
▁بنس
▁يقتل
▁تكمن
ظاهرة
▁44
▁مقعد
▁الدولا
▁إغ
▁أردت
ages
▁يحضر
▁تعويم
▁ناجحة
▁بالشكل
▁إيا
▁جنيف
▁فراغ
برت
▁ضرر
▁للغاية.
ئتلاف
▁مقياس
▁الأفريقية
▁متميز
يًا
فِ
▁بضعة
لمخصص
▁اسباب
ري

▁اتبع
▁حياتها
▁البصرة
▁الحين
port
▁"ل
▁الشرا
ويلات
المخصص
▁الكتلة
▁الإيجابية
▁ثلاثية
▁إستخدام
▁جلال
▁بروك
▁يخضع
بوا
▁عليه.

▁الخليل
▁رغب
▁وكسارة
▁قدرها
▁يفكر
كرار
▁الجانبية
▁Microsoft
▁الكار
▁!!

▁ترتبط
▁الآخرة
▁تفاع
▁المتميزة
▁إثارة
▁تغطي
▁الميا
اصلة
اللس
▁السعودية.
▁عليها.

▁تقود
▁التمارين
▁الإنترنت،
▁الروابط
فاية
▁ره
▁المخصص
▁الاخر
امع
ووزير
نتوس
آخر
▁تصيب
▁(P
▁المتحدة.

▁فالع
عج
▁للاندرويد
▁كبيرًا
تت
▁لإطلاق
▁ويوجد
▁والاقتصاد
▁جزاء
▁محب
▁وإصابة
▁الصيام
▁all
يلاء
▁vi
▁وحق
ليص
▁تركز
▁وأيضاً
▁En
▁تدريبية
ومال
▁حليب
▁للمجتمع
▁التحدي
وصات
▁نصوص
▁برفع
▁أعمار
▁الوثيقة
/2018
▁كوت
▁السياسية،
▁مخل
▁إظهار
▁السلمي
وافر
▁ووزير
▁سرية
▁حامد
سيب
▁إلينا
▁الميزان
AS
▁الإبدا
▁الميدان
▁سند
▁سيار
▁رفضت
▁تمّ
▁متط
▁sc
▁عندهم
▁نهار
▁رجلا
زار
▁بك،
▁الإنجليز
▁ألفا
▁أفريقيا.
▁اللهُ
▁طاق
▁190
يلا
▁الثلج
ظهور
▁الانترنت]
▁الساق
▁الإسلامية،
▁والما
▁أخذت
ري.
▁الشريط
▁والدعم
▁ولماذا
▁الصغار
▁ترفض
▁الأض
▁هوي
▁بعدة
▁Be
▁المتابعة
▁protected
رصاد
▁حرة
▁رونالدو
▁حروف
▁ثنائية
▁والصحة
▁مجالس
▁شتى
▁الصادرات
▁المشفرة
▁المسافة
▁١٩
التي
نيفة
▁لنت
▁اللّ
▁وسوريا
رامية
▁حاليًا
▁والتكنولوجيا
▁وأصبحت
▁سلبية
▁الشبكات
▁مؤمن
▁فرح
▁المسافرين
▁لطيف
▁أدوية
▁لبط
▁المتك
▁متقدمة
▁يُع
▁©
لِكَ
▁التصف
▁إرهابية
5)
جزء
شَ
▁التحدث
▁وقدر
▁يمكنكم
▁was
▁والصح
▁انج
باغ
رات،
اتنا
▁التخزين
ستور
سيمات
▁البرمجيات
▁الشهرية
▁الدب
▁نسمة
▁وجوب
▁موسيقى
▁وضوح
▁الأجزاء
▁الجار
▁يزور
ترة
▁الله.
▁صواريخ
▁يُس
▁ويقدم
▁المجر
خان
وعه
▁كولوم
▁وظيف
▁رائدة
▁فالن
▁استئ
▁الحجز
اتك
▁صينية
▁Im
der
لراج
▁اللس
▁مايكروسوفت
وخدمات
▁تفكر
ملص
oot
▁رزق
▁{وَ
سيان
▁الشفاء
▁غرام
▁محر
▁يتحول
▁الفقرة
▁المعارك
rit
ابخ
▁المحور
▁2017،
▁البكتيريا
-9
▁He
▁الطلبات
اً:
▁مبارات
▁البسيط
▁تعامل
▁الجبال
تادة
▁ايج
▁السلم
▁عادةً
▁ويص
مبية
▁مظاهر
▁الوطنية،
▁السعر.
يقظ
▁1.5
▁السفن
▁الفاكهة
▁وخدمات
▁(الس
▁شنغهاي
▁للغاية،
▁سنغافورة
انيوم
▁الدّ
خن
▁خاصية
▁الكمية
▁الدروس
▁فسوف
▁إنَّ
▁بالنظر
كّ
▁الفولاذ
▁تسل
▁تنطلق
▁قرص
▁وشارك
▁منزله
!!!!
ضباط
▁الصفات
▁العز
منح
▁مراقب
air
▁صدى
وغل
▁طلبت
▁التركيب
▁ماس
▁الحجر,
▁جراحة
▁اقتباس
▁نفوس
▁التميز
▁وتوزيع
سعيد
/7
▁نزول
▁قدره
▁وأعضاء
▁لحركة
يِّ
▁يدع
▁الجدار
▁الخلافات
▁البشير
▁بوجه
▁سوداء
الراج
▁المنتظر
▁الظاهر
▁هزاز
▁مضي
▁المجاني
▁موديل
▁الناز
▁توس
▁لمشاهدة
▁يتغير
▁تتحول
▁السط
▁أخلاق
62
▁الوهاب
▁كثافة
▁ربنا
▁شريحة
▁مذهب
▁منفذ
3،
▁لها.

▁للتواصل
▁إخت
▁والسياسية
▁المشرف
▁تتحرك
▁ومكان
▁صاحبة
▁حسبما
▁الإسبانية
▁حبة
▁وايضا
▁سداد
▁والعلوم
▁يتج
▁أنبوب
▁ليتم
▁تفكير
▁إلاّ
▁عِ
▁جوي
▁للجسم
لابية
لي

▁اطلع
ere
▁كين
▁سياحية
ضان
سُول
▁صلب
▁يانغ
▁يأت
▁تصور
▁يفرض
▁أندرويد
وان،
اوب
فاذ
▁بمقر
كسل
▁المعال
▁الحرك
▁بون
لاله
حيفة
:15
▁بيننا
▁تتوقع
▁التراب
▁يدعى
▁أتمنى
▁البني
وخرج
▁ضح
▁المساء
▁التفاصيل

▁وأول
ual
▁الفريقين
▁طبقات
▁حقائق
▁إِلَى
▁يتخذ
▁العاد
▁حوله
▁Le
▁السلام)
▁السمع
▁الإمبراط
▁مكاسب
▁"ان
▁بنفسك
▁والصناعة
▁الجارية
▁الأسبق
يَّ
رشيح
▁سلطنة
▁روز
▁بيل
اييس
▁صحت
▁إثيوبيا
▁ليصل
▁شيئًا
▁الكاز
▁العقلية
▁بفوز
agram
:21
▁الغام
▁حاف
▁العربية

▁يدرس
▁عادت
ارات،
▁110
▁يومًا
??
▁المزايا
▁شهرين
▁الماضي.
▁طلبة
لمنيوم
▁المسيحية
▁اعتما
▁إرادة
وهو
▁المادي
▁والآخر
▁للمواد
▁عار
‬,
▁الشديدة
▁الحز
▁تعط
UT
▁وبس
▁الصين,
وروبا
▁المصارف
▁اللذين
▁وبالنسبة
▁متحركة
▁الإنتاجية
▁نقاش
▁التوحيد
▁مرافق
▁ناجح
▁اقتراح
▁نغ
▁القياس
▁57
▁ترتفع
▁بأحد
▁الفيسبوك
▁أقيمت
▁الفرنس
▁(الع
▁قالب
▁البروتين
▁يقتصر
▁الائتمان
▁بمز
▁العر
لكي
اصي
ets
يدروك
روجين
▁بمساعدة
دمية
▁المدرسية
▁"مع
▁السد
طرق
▁للأشخاص
▁علبة
▁روي
▁la
▁تهدد
▁ورؤ
▁الحريق
▁وسجل
▁والأرض
يصال
▁رفعت
▁بصوت
دن
:22
حصائيات
▁فعلي
▁نبذة
▁عضوا
ارفور
▁وتأثير
▁المراجع
▁جلالة
▁اعداد
لُوا
،000
▁ويك
صية
▁لويس
بهات
ثمارات
▁الندوة
▁تحديات
▁350
▁وخرج
▁القروض
▁الجماعية
▁https://www.
earch
▁متوفر
▁الراج
▁غربي
▁يولي
▁والتاريخ
▁جميعها
▁عليهما
▁crushing
▁الغز
arn
8,
تيبات
▁المتحف
فلونزا
▁تقدمه
▁العظمى
▁جدد
▁محط
▁مضاد
▁الحجة
▁العمودي
row
▁حث
▁2017

▁بالخارج
▁الجسم،
راهية
▁الفنى
▁الريف
▁49
فرغ
▁خَ
▁الظهور
▁الخريطة
لممر
▁لدول
▁تكساس
▁«ح
▁الخاصة،
▁تحظى
▁شهداء
▁لَهُ
▁الحادي
▁القابلة
زَ
▁وحل
▁أمة
داخل
▁عملك
▁الأجواء
▁لذي
▁المميزات
▁ديفيد
خْ
▁بشكلٍ
▁وقتل
▁اليسار
▁تظل
▁أباد
؟.
%d
▁قائلا:
▁ومؤسسات
▁التحرك
وحدة
▁واكد
▁عنها،
▁الفصائل
▁شغل
▁سكنية
زلت
▁يجعله
▁2021،
الممر
ظرة
▁ذكرنا
▁النح
ولون
ان:
▁الثانية،
▁الانسحاب
▁ألي
رقى
▁تحولت
▁ومشر
خراط
▁mp
▁ايط
يت،
▁بالسجن
مفس
▁حقل
▁التغييرات
▁يفقد
▁الزاوية
خله
▁أستطيع
▁عاما،
▁تحدي
حِ
▁إيجابي
▁مقام
▁الظلم
▁حاد
▁المتقد
▁الإماراتية
▁أرا
▁عبي
▁كمن
400
ضن
▁الحجر

ورام
▁الانضمام
لمذه
▁والشعب
▁الإثنين،
▁المشاهدات
▁يُمكن
▁المريخ
ارطة
▁زهرة
▁للحزب
▁بخير
▁وسأ
▁زيمبابوي
▁صافي
▁الزفاف
▁وردت
غوب
outub
▁يستغرق
▁إدراج
▁Aug
▁جناح
▁المتف
▁(الح
2,
▁رحيل
▁والأق
المذه
خصائي
▁حياتي
▁CN
▁يتقدم
▁بعثة
▁الدوار
▁للتخ
▁الفضائية
▁الفعلي
َبَ
▁مدب
▁والمتوسطة
▁اختي
▁حمص
▁ولب
وايا
▁المعتمد
▁للدراسات
▁قيود
▁مجددا
▁لدراسة
▁نادر
▁المحتج
▁يظل
▁المنس
▁والتخ
▁المعلن
▁أدخل
▁سور
دي

▁التجزئة
لتر
تهاد
▁اليمن،
▁للحياة
ath
▁الشّ
▁انسحاب
▁الحارس
اولات
▁معمل
▁آفاق
▁زفاف
▁نان
▁تسهيل
▁القيادات
▁العطاء
▁راتب
▁اضطراب
▁الرابطة
▁متصل
▁اعضاء
▁والإنتاج
▁وعلاج
مالة
▁التعد
▁المساواة
ممي
▁وكأنه
▁الأمر،
▁البصل
▁ومدى
▁بالتق
▁تنشر
قها
▁ومركز
▁الدهنية
▁يبت
▁مراد
▁جندي
▁بابا
lic
▁فجأة
▁لدولة
▁القدي
▁أنقرة
▁المذه
▁صباحا
9,
▁بأمر
▁2004
▁قلبه
▁الكائنات
▁تقريبًا
▁والتط
▁الأبواب
غاثة
▁عقده
▁الطيبة
▁لقط
▁صعود
ومين
▁هان
▁يستقبل
▁أمبير
▁الثابتة
▁ٱ
▁خيرا
الّ
▁وضمان
▁اسبوع
▁المالكي
▁العراقيين
▁قدي
▁متصفح
▁الانتخاب
▁والإعلام
وية.
▁شدة
▁عميق
▁الارها
اليل
ضحية
▁والتدريب
▁يُعد
▁بشراء
▁بنقل
▁Play
▁Twitter
▁حفاضات
▁للخدمات
▁جانبه،
▁كسارة

تكار
▁باج
▁بداخل
▁السياسيين
▁ترشيح
▁روبوت
▁هاني
▁الملائكة
ــة
وماتيك
▁الخطط
▁Jul
▁وخصوصا
▁يستهدف
.net
▁حوالى
▁مدرس
▁واط
▁الآن.
▁صلات
▁تتغير
▁ملكية
▁وظهر
▁الأفريقي
▁معاً
:00

▁موه
▁ابنة
▁بالمت
▁الزكاة
▁اهل
▁ثق
▁الماجستير
برج
▁ادوات
▁لأغراض
▁التوسع
int
▁التقني
AM
▁المون
▁ياب
▁الهيئات
▁التقط
▁أعماله
▁السري
▁سنتين
وزة
رور
▁المفاهيم
▁والإع
▁تساقط
▁كردستان
▁عنهما
▁الفلسفة
موذج
▁المبكرة
-c
▁الهوائية
▁عقار
-15
▁أنط
رافيا
و1
▁الأفق
▁بإست
▁المسائل
▁أعقاب
▁الزائد
لممن
▁9.
موب
/6
2020
▁أوسع
▁للمخ
سول
▁أمانة
ans
ائرات
رحي
▁كهربائي
▁اصحاب
▁كلمته
▁تتسبب
رافات
يم،
▁ايضاً
▁لسنوات
▁جسر
▁القرض
▁الحراك
▁الخمسة
▁المحتملة
إِنَّ
تمين
سترول
شرون
الممن
تصام
▁تفضل
تمبر
▁برد
▁نفسية
▁شات
▁مزدوج
▁بوين
ـد
▁الشورى
▁المتحرك
▁ثمان
هاكات
مدد
▁للمرا
▁الحروف
▁استضافة
▁الأذن
▁«الت
▁استد
▁تتعامل
برية
▁البس
▁(عليه
▁مركب
▁أضيف
▁للتعاون
▁التدخين
▁المعق
▁حقه
▁الآخر،
▁عنص
▁يضيف
▁للاق
▁اريد
▁الجنيه
▁ينتمي
res
اطرة
▁فيها.

▁الثانوي
▁تراد
▁شاطئ
▁تزداد
▁أحياء
▁التفاع
▁الممر
▁للعالم
▁Apple
▁طاهر
▁أوق
هلي
▁منط
▁التسليم
▁لتد
▁الحلق
▁٠
▁ووفقا
وري،
▁لكت
arm
▁علماً
▁الأسلوب
▁أعما
▁تنفذ
▁الفواكه
▁حادثة
▁وأغ
▁غالباً
▁مصمم
▁والشباب
▁(الا
كريا
▁يتحرك
▁نعمة
▁الفوت
▁الرماد
▁الممن
▁الأكل
▁لاستقبال
▁العصبية
▁نداء
▁فتحت
▁الورقة
▁استثناء
▁دينية
▁ينظم
▁العمل.
▁مضخة
▁ومحاولة
▁حساسية
كايات
▁السورية،
ائنا
▁لتف
▁الفول
▁الزمنية
سكي
▁أجريت
▁الحارث
▁Onl
ضعف
▁وجنوب
▁الكيما
▁"،
▁لتعدين
▁العظيمة
▁الاخير
▁لنفسه
▁مشغ
لمَ
ics
▁بإطلاق
/2017
▁واشار
كوب
▁للموس
▁الموضوعات
▁محاور
▁زرا
▁استعرض
تير
هاً
▁التقويم
▁الحكام
▁يأكل
▁ضربات
▁فون
▁عقل
▁لزيارة
▁المبادرات
▁واب
▁الضريبة
▁وور
▁الإنفاق
▁700
ياكل
آة
▁الرائد
▁الصفحات
▁للاهتمام
med
▁الضارة
▁والكثير
▁بالتفصيل
▁تجريبي
▁تاب
▁مجفف
▁الأدلة
▁وصور
▁المتاجر
▁الإسلام،
3,
▁(الف
▁و1
تهى
▁تركية
▁2020.
▁نصب
▁تخدم
▁والإمارات
لموعد
▁انط
▁والتر
▁قائم
▁تدهور
▁يبر
▁المحاسبة
▁التشكيل
▁عموما
▁توصيات
▁مجاناً
▁شعبي
▁استهدفت
ناهية
▁حجة
▁الحزن
-p
▁النخيل
صْ
▁ومنه
▁الخليط
▁المنطقة.

داقية
▁الأرجنت
▁متج
▁للطيران
▁ونص
▁عراقي
ربما
▁دوره
الموعد
▁سلمة
▁أمثلة
▁والثانية
▁وكثير
▁رئيسا
:45
ماج
▁البنات
▁روت
▁جوية
حار
▁قومي
يقاع
▁المسلمين،
▁الغني
▁المنع
▁أزواج
▁الوفاء
▁قن
▁الاجهزة
▁المنزلي
▁الناقلة
▁140
هيلات
▁تثير
▁لرج
▁يقدمها
حضر
▁تدريبات
▁وأبي
تيبة
بلوم
▁واص
▁97
▁اللَّهَ
▁برلين
▁اخذ
▁واخ
فاوت
▁وتقع
▁مهد
▁ظبي
▁تكتب
▁وانما
سبتمبر
▁بنى
▁ليش
▁عضوية
▁أحلام
IC
▁للخروج
فلي
▁الّ
ams
وليا
▁المعالم
▁عطاء
▁بجدة
▁لازم
▁تجع
▁واحداً
قار
دادا
▁حبس
▁سيادة
▁ميكر
ووسائل
▁لمنظمة
زاق
▁المسيرة
▁تلقائ
▁لمدينة
▁أَوْ
▁مبت
news
لديموقراط
▁السعوديين
فدين
▁إنك
راً،
لمير
▁المسؤولة
ؤثر
▁للرا
▁الخفيفة
▁الداخلية،
▁توقيف
▁البند
رينتش
▁الثوم
▁يتعامل
▁الحمض
▁تقريباً
▁القطن
▁ولذا
▁ووسائل
▁النقر
▁مهاجم
▁اختلف
▁للعلوم
▁لقطاع
▁وتلك
▁تند
▁التنوع
هدئة
▁وخلق
▁مشوار
ance
▁المناسبات
يته،
فاخ
ثَ
باي
▁اجراء
نود
▁التوافق
ووق
اؤلات
▁تنوع
▁معاملة
تاد
▁اعتداء
رامي
▁السابقة،
▁فلسطينية
▁ينص
▁البرتغالي
ستان،
▁الطلق
▁الذكور
الديموقراط
▁الإفريقي
وفان
▁يسجل
لية.

اضة
rip
▁المنتجة
▁وباء
▁الرئاسي
▁vsi
▁الأحلام
▁.....
▁وسلم-
er

▁بقايا
ذْ
▁التوزيع
جرام
▁للصف
▁ومض
▁بطانة
▁وانه
▁يضرب
كتات
▁العام.

▁المتابع
▁جث
▁الافتراضي
▁ضرورية
بتة
▁للبلاد
▁(5)
▁الموعد
يناير
▁الباردة
سور
عتماد
▁تقطيع
▁استقب
▁إحياء
▁والطاقة
▁التربوي
▁المشت
لمفق
▁وحيد
▁كورة
▁والاتحاد
▁صيف
وماتي
▁أيضاً،
AL
ضحت
▁حركات
ron
▁بشرط
mail
right
▁الأصفر
▁الاكتئاب
▁:-
المفق
▁العائلات
vel
دوا
▁ذر
▁وإيران
يرها
▁غان
▁تتج
وحات
▁هاي
تكم
▁ذَ
▁الروايات
▁أطباء
▁تباع
▁نيو
▁مطحنة.
▁الفيروسات
اذبة
▁والرياضة
/h
▁للمه
7)
▁مغادرة
▁ناعم
′′
عط
▁بحقوق
▁التجهيز
شتراك
▁انتصار
▁......
بداد
▁تطورات
▁بذل
▁ينقل
وصف
▁إسرائيل،
▁أوجه
▁بكلية
▁أيوب
وكيو
وداً
ثبات
▁البطولات
▁الماضى
▁رائد
press
▁إدراك
▁وجب
▁2018.
▁دولار.

▁إمارة
▁السلام،
▁وبرامج
▁عددهم
▁(بالإنجليزية:
▁أنتم
▁تراكم
▁يتحقق
▁دلالة
▁عبادة
▁سيرة
▁والمث
هال
▁تنس
▁تعز
▁وتنمية
▁وعشرين
▁تعلق
▁المفق
▁للشؤون
▁الأيمن
▁يعقد
▁يوجه
▁الاستراتيجي
▁مساعدات
rush
▁الانح
▁لإقامة
▁تحدثت
▁وتقد
▁المتعلق
▁شاحنة
▁القيود
م:
▁الهرمون
▁ويضيف
▁المقابلة
▁القيادي
▁عسير
St
▁رويترز
▁عرضه
رليني
▁المتضر
المير
▁لتصل
▁جده
▁ينطبق
ET
▁إيران،
متك
وخص
▁الجري
▁التراجع
▁الدائمة
▁أبل
▁موقعها
▁جزي
▁قيمته
▁أميركي
دْ
▁قرى
▁إجازة
▁تغريدة
▁التوقعات
▁لافتاً
▁معارك
▁عميد
▁بلجيكا
▁يوافق
▁عاز
▁ممل
▁الآتي
▁«الأ
▁معدنية
sa
▁الزمني
▁التقاعد
الحصول
▁المرصد
▁الأحاديث
▁المدافع
▁ارتكاب
▁130
نغ
▁عبده
▁أسنان
▁فوج
بّ
▁واحد.
▁العشرات
▁الأبطال
▁بنهاية
▁اليونان
كاثر
▁لأنك
▁فساتين
▁المعيش
نحة
اتا
▁الكثيرون
▁بو
▁صحفية
▁المضافة
امى
▁الفقراء
▁فقالت
▁آله
نكر
▁مريحة
les
▁تتناول
▁معدن
▁لا،
▁شراكة
▁بتطبيق
▁صارت
قوا
▁مسج
▁الجانبين
ُه
▁للاستفادة
▁والاخت
▁لبي
▁لكنهم
رِ
▁الحشد
▁وخص
ـت
براهيم
▁والعلاج
▁تايلاند
▁انتح
وندا
▁ثقافية
▁الاستماع
▁برك
▁السلبي
▁الساع
▁البارد
▁والاستثمار
▁بجائزة
له.
▁لتصنيع
▁المثالية
▁صر
▁الانجليزية
ي"
▁بفارق
▁للأمن
▁كوي
▁لفر
قدت
▁العفو
▁المحلل
▁بك.

▁الفح
فسهم
▁الضعف
▁وروى
▁المتداولة
▁طابع
▁الديموقراط
▁بعد،
▁تنشيط
▁استطاعت
▁استشارة
▁النبوي
▁Res
▁مطحنة

▁التوابل
▁البروت
▁آنذاك
▁يصر
يدية
▁الضو
ووك
▁خلاط
حياء
▁الايام
▁الحاض
▁ومجموعة
▁دوت
حالة
▁الطباعة
▁كرسي
▁خميس
▁الحائط
▁وتمكن
▁مستعد
▁القطط
ُهُ
وخدمة
▁"الر
▁موك
رتهم
ّص
▁يستفيد
▁مكث
ريخ
▁قهوة
ys
▁الوزراء،
يفاء
▁160
قلال
▁تقت
لمذهب
IS
▁روبرت
co
▁الحمي
▁باح
▁إقرأ
▁والثالث
▁الحظر
▁عليه.
▁وجبات
▁المقيمين
قي،
ئح
َةَ
لمذا
▁لتلبية
▁جهازك
▁عنك
كاديمية
ستقرام
▁بغرض
▁الزبير
▁بيته
▁وخدمة
▁هاشم
كاك
▁تقوية
▁يديه
▁بلادنا
▁جرعة
كتشاف
▁الاختصاص
▁جزءاً
ممار
وّر
▁الجوائز
▁التلوث
▁الطماطم
لسطين
▁توازن
▁تعادل
▁المطلق
▁قضى
▁الجدران
▁تولى
▁له.

▁للطفل
نائس
▁تنتشر
Cl
PS
يسير
▁القنا
▁امير
6،
فلة
▁ستار
▁سحر
▁ضغوط
▁ودور
▁المثقف
0000
▁تعاملات
▁وصفه
▁بحجة
▁يميل
ux
▁السوق.
▁بالضغط
ركيب
آكل
ital
انج
▁قرض
▁التعويض
6,
فك
▁سوي
المذا
رجو
▁CO
غياب
وهة
▁وبأ
▁واصل
▁بأنّ
▁التحويل
▁مرج
نيك
▁لتداول
▁تسلم
اءَ
▁التلاميذ
صص
▁لمط
▁الْمَ
▁خالص
▁الجوز
▁المشتري
اركت
▁النحل
8،
لتهم
▁والتد
▁ثُ
▁المعدل
fo
▁للكتاب
▁بالإس
61
ولتين
▁Arab
▁(وا
▁المؤرخ
▁بالبر
▁الكافي
▁تعزز
▁إجابة
مالات
▁"الخ
▁شعبان
▁متهم
فيا
▁شباك
▁«إن
دي.
▁سيست
to
▁المثل
▁الإنترنت

▁الهامش
▁والبناء
▁وتشغيل
▁مثير
▁اتس
▁والصين
▁تنمو
▁حسني
▁الأقسام
▁الاحتجاجات
وليات
▁بوف
▁المذا
المذهب
▁أشعة
▁أيام،
▁يرح
▁الحجاب
ون"
▁تلقائي
▁وحدها
▁كد
الول
▁بوج
▁غادر
▁اضطر
▁تعهد
▁وقيل:
▁يحد
▁خامات
▁الحرم
▁أمّا
▁وبت
ade
مامات
▁يزداد
▁المقررة
▁بالشركة
▁نظافة
▁تنز
يسية
▁معلم
▁للاطفال
▁الأشعة
▁الزيارات
mer
▁ساهمت
▁مقاب
▁يرتفع
▁بإس
▁bl
ضحك
▁المساهم
ium
حواذ
▁نشأ
▁٨
ميها
▁والبرامج
▁قريش
▁غنية
▁رحم
▁الجنرال
▁المجالس
كوت
جزة
▁جدا.
▁الفائز
▁67
▁فقدت
▁لى
▁أخرجه
وصيل
▁ظن
▁السوا
▁الحراري
▁تعطيل
يتان
ولف
▁والأش
▁تتحمل
▁أقر
▁المفوضية
▁أيق
▁الواسعة
▁طيار
▁بثلاث
gh
▁El
▁إيه
▁تحركات
▁امتحانات
له.

▁ثمار
▁وتستخدم
▁لحضور
▁"آ
▁تسمع
▁جا
▁للفوز
▁الجيزة
▁رابع
ديا،
المَ
ذان
▁الايط
▁ممثلي
)‏
obile
شركة
▁المطالبة
▁انقلاب
▁ووصف
▁تفجير
▁والرئيس
▁حصيلة
▁معكم
▁قائلاً:
فاقية
▁عضلات
▁افتتح
▁41
▁ركوب
▁اكد
▁***
ya
▁البالغة
▁الصفر
▁الكثيرين
▁تذاكر
▁تنص
▁نذكر
▁مسرحية
▁Edit
▁يذ
لالي
▁بتنظيم
ربونات
/8
▁أفق
▁مواطني
لمفيدة
▁الصغ
المفيدة
▁دولار.
▁بلقب
▁إرس
▁أبعاد
▁قري
▁واستقرار
▁ظلت
▁فضاء
▁الجزاء
▁حان
▁موريت
▁جزئ
اهدين
▁وأخير
▁أدلة
▁المذهب
▁يتراوح
باد
ons
برنا
▁الأوسط،
▁واحترام
▁المفيدة
▁ستقوم
وفمبر
▁للمستخدمين
▁المين
▁اعترف
▁الجزر
▁وأمر
▁ممر
▁الإتحاد
وشة
وشي
شوف
ـل
▁،،
افظات
▁تحد
▁اليدوية
▁وقامت
▁دعونا
▁عليها.
▁الزوجية
▁الطابق
▁الغريب
خري
▁(19
▁خلل
▁مؤس
▁مستع
غى
▁الأسب
قان
▁الزرقاء
▁تأخير
▁برقم
▁الانقسام
▁يومية
▁نعم،
تي،
▁ووق
▁طاقم
قة.
▁واقعة
هاجم
▁مبين
▁وأمن
▁ياسين
▁الطفولة
▁(مساعدة
▁pre
لمضي
▁فيها.
▁الأوكر
بتك
▁أسبوعين
▁جاف
▁نتج
▁1200
▁لكسارة
▁والإق
",
▁محترف
▁حقًا
ماث
▁لحظات
▁وأهل
جعل
▁وغيرها،
يلين
▁ويبلغ
▁انعقاد
ma
▁وأعلنت
▁يصلح
▁أولويات
كسارات
▁تطرح
▁المقت
▁الأبد
علن
دائي
▁رشيد
▁التموين
▁التدابير
▁أشبه
▁بأسلوب
▁ينفع
▁قات
▁المانيا
▁يمتد
▁الركن
▁بارز
▁أقراص
المضي
▁تفهم
▁تستعد
%D9%8A
▁لتغيير
▁حسم
▁واختيار
▁عس
فسارات
خصيات
▁هذين
PN
▁هنا،
▁للصدأ
▁طور
▁ثلاثين
▁المهندسين
اأ
▁الانتشار
▁شاغ
▁يون
▁سويسرا
▁للدول
▁رُ
▁بالوق
▁الكاولين
▁جعله
2021
▁المنظفات
▁للعلاج
.org
▁للشر
▁وبإ
▁خشب
▁يعنى
▁اماكن
▁كَانَ
▁بلوغ
▁بتخ
▁"غ
▁المطعم
▁استنا
▁تراث
▁يتواجد
▁ورجال
▁اجتماعي
▁السوق،
▁تسيطر
▁2016،
▁الهبوط
ازن
▁اضطرابات
▁لها.
▁أصدقاء
▁مليئة
▁التم
▁للإنسان
▁علق
▁الفرح
ديسمبر
▁دوراً
وقد
▁والى
▁حاجز
▁قوائم
▁يجلس
وريكس
تمون
▁النجمة
▁not
▁اهمية
▁وتض
▁موف
اعدك
▁أنفسنا
▁النسائية
▁Gal
▁وشك
▁شائعة
▁موم
▁إمارات
▁سائ
▁والعل
▁ويؤكد
شور
▁المكون
▁استلام
▁غي
▁المير
▁للولايات
▁يضر
2]
رازية
▁جمعت
▁نجمة
▁الجمل
▁الاجراءات
▁2021.
▁ملء
▁خليط
▁Download
لميذ
▁"الص
▁انتشرت
حاول
▁المعني
ضيق
▁وروسيا
▁ليسوا
▁مساحات
▁المضي
▁الأهالي
لكية
▁تحريك
فيين
▁الايراني
▁Sy
▁منافسة
▁تير
▁فورا
▁Feb
وليت
▁لتسهيل
سارات
بته
▁نادرة
ology
▁حقن
%0A
▁طواحين
vis
▁لمركز
▁تنع
▁وأظهر
▁ولدت
▁الحملات
▁Aut
▁يساعدك
▁الركام
▁ومف
▁والبط
اجي
D%0A
▁الفيتامينات
▁إسلامية
▁أهله
ارتها
▁لكننا
▁إنجلترا
▁منها.

▁تلقت
▁الامتحانات
▁المناهج
▁سنين
▁رفيع
▁المؤكد
-30
▁يغير
▁لاحقا
▁مطحنة,
▁حلا
▁نفت
كتشف
▁تمييز
َدَ
▁يرغبون
▁كأنه
▁المؤسس
ode
▁الميكر
="
▁لاختيار
▁نفوذ
▁مشيرًا
▁الفعالة
▁يتمثل
▁سابقاً
▁المتطرف
▁وأربع
▁المتد
▁بأقل
▁*

▁استراتيج
▁ميكاني
▁الشعراء
▁اختراع
▁بيتكوين
▁يسقط
▁الالعاب
▁يصدق
لاية
▁الصمت
▁أقيم
AD
▁تغييرات
:01
▁أحزاب
▁نستخدم
ؤولية
▁موافق
▁ديكور
▁مايكل
▁has
▁ممار
▁جواب
وطين
وكي
▁وتشير
▁النماذج
خصية
.....
▁مصممة
▁صدي
لممثلة
▁كرم
▁وماذا
▁تصاعد
▁الاجتماعية،
▁الخي
▁مسؤولين
▁نظري
▁الإيجابي
▁صن
600
▁البطارية
▁الضخمة
خطار
▁أنغ
▁طبقا
▁المرجع
fer
يتنا
▁المعن
▁الأهلى
بدل
▁حاض
▁وفاته
ماهير
▁امتصاص
▁حائل
▁الاستعانة
▁كذلك،
▁وعي
▁بفت
▁الابيض
مشة
ولاتة
▁اندلاع
▁يفترض
الممثلة
▁الإلكترونية

▁الإجمالية
▁الجلس
▁نسمع
وديوم
▁وجوده
▁IS
▁إليها،
▁المحادثات
▁جداً،
▁القصف
▁يتح
▁المفهوم
▁حكاية
▁يخلق
▁مضادات
▁الطراز
▁))
▁بالمص
زوجة
▁أمب؛
▁بالسعودية
▁والأطفال
▁توقيت
لسطيني
▁الانفجار
▁القرآ
▁يرون
▁القصيم
▁عر
▁القابضة
خذه
▁تبوك
▁احتلال
▁ينتقل
▁مللي
لكن
▁الحذر
▁إلّا
▁البذور
▁الاوسط
▁بقيت
▁لَا
▁شعرت
▁Fl
لممل
▁٧
▁فيمكن
َرِ
▁فرج
▁كعب
:05
وية.

▁بيليه
▁الول
▁فالا
▁فرش
.00
▁"لقد
▁جرير
َّم
▁متكامل
▁والمناطق
▁بالطريقة
الممل
ناوين
▁لمساعدتك
▁بهما
▁اوروبا
▁ولكل
▁بتكلفة
ووزارة
▁برب
:12
▁مقبول
ild
▁الكورية
▁رأت
▁الإعاقة
▁نشرها
▁الأخذ
الرغم
▁هدا
▁شعرك
▁السيئة
▁اللوز
▁مساهم
▁".
▁عشاق
بر،
▁مواجهات
▁تعقد
▁يسيطر
▁الباق
وه،
▁العلي
▁الهج
▁اليوتيوب
▁الإضراب
▁الشَّ
لممارسة
axy
ays
▁فرز
رارة
▁عليا
▁عارف
▁Apr
ير

ماعي
ديك
/2022
▁بيض
َةً
▁1:
▁سيقوم
▁خليج
ier
▁ووزارة
▁تحذير
▁البطل
بيات
▁ملم
حسان
سابات
▁وتشجيع
يهِ
:25
▁أنْ
يفات
▁الإجتماعي
▁الأساليب
ومنا
▁البرج
▁الأجيال
▁وعلم
ئى
▁تجاهله
▁وتتميز
‏,
▁وحفظ
▁خوض
▁قدمه
▁العقيد
▁بتد
▁المسافر
▁عمرها
▁res
ents
▁عادية
▁بتغيير
▁الحلف
▁3,
▁اشترا
▁الاستغ
▁[email
بري
▁جدران
▁جغ
▁مشاركات
▁عندك
▁مجاهد
▁اليهودي
▁وضبط
▁صالة
▁أكن
▁الجامع
الممارسة
▁إز
▁الأموا
▁السوري،
▁تمس
▁خبز
زعاج
▁كريستيان
هيك
▁الارهاب
UR
▁حولها
▁برابط
▁أحاديث
▁استكشاف
▁مصرع
يس،
▁والأجهزة
▁المغذية
▁وأجهزة
▁عمودي
▁يتناسب
▁إسطنبول
▁52
▁الأطباق
▁فيلا
▁وفرض
▁الممل
▁الشقيق
▁~
سيل
▁التوقيت
▁أحياناً
▁يربط
▁فخر
4,
ft
▁الصاروخ
وخت
▁باختيار
▁رخام
▁2

ae
قون
▁عطر
ari
▁تسجل
▁الناشط
▁New
▁مفاتيح
▁المعتقلين
▁مشاركته
ations
▁وحي
الإضافة
▁النظم
سورة
▁لإنهاء
▁أضعاف
▁مفاجأة
▁تفاهم
نوك
▁Se
وهيد
▁الغربية،
▁المجتمعية
▁فبعد
▁الاصلي
▁وثقاف
▁متوقع
▁زجاجة
▁يجر
▁كوس
▁الآراء
________
▁تركيا،
▁أنبأ
▁أبى
▁الرطوبة
▁الراغبين
▁فحسب،
▁إليكم
▁ساد
▁المربع
▁AP
▁أنابيب
▁والحي
▁انجاز
▁المَ
▁الوفاق
▁القصوى
▁قوالب
▁الغناء
▁ينجح
▁العروس
▁سألت
▁تعيد
▁الدراما
هش
:11
▁مذكر
▁اللائحة
▁البقع
▁ومما
▁بِهِ
▁7-
▁فهر
▁مفصل
▁حيوان
▁يو
▁الأدبية
▁تبديل
▁روايات
مــ
ملق
▁بأش
▁تأشيرة
▁لانها
▁لدفع
▁الخليفة
▁كارثة
▁نزلت
▁كلامه
▁انضم
▁الاستعمار
خاء
▁أشهر،
▁الأضرار
▁نحت
▁الممارسة
▁الوفيات
▁تفاعل
▁وسيت
متر
▁وأنواع
ارعة
▁ph
عشاب
/ت
▁المفتاح
ize
▁تكليف
خروج
▁اأ
ese
▁هناك،
اثولي
▁العربى
ها..
▁للإصابة
▁احتياط
صن
▁العرب،
▁عالميا
▁التصريحات
▁كاري
be
▁(الك
▁يهود
▁التصعيد
▁ساق
وبل
▁جيمس
▁بتصميم
ّث
▁الجريدة
▁نشرته
▁متنا
▁توي
▁مرجع
▁بالتزامن
▁الخضار
▁الأَ
▁المنتشرة
لموه
▁المحلات
▁الوفاة
▁فإنك
▁الحقيق
▁المركبة
▁تعرّ
نِي
شدد
ete
▁الكه
▁لقاءات
▁خا
»..
ماسرة
▁الشهري
▁(M
▁الفاش
▁شو
طه
جران
bm
▁التغير
▁تبيع
▁التبادل
▁والحديث
▁منق
▁توما
سامة
▁تحمي
ject
▁الامتحان
▁iOS
▁بحوالي
▁بإد
▁للبيئة
ربا
▁نعيم
▁الكالسيت
عف
▁وعائ
لملكة
بغي
nc
▁مناخ
ثارة
▁المباحث
▁شري
▁للنفط
مونة
▁الفرعية
▁العُ
▁بايرن
▁للمبتدئين
▁ووك
▁النباتية
▁وسعر
▁نيوزي
▁المكاتب
ستون
▁الدماء
▁كلف
▁أساسيات
ption
▁اللوحة
▁قدرته
▁تون
▁هزيمة
▁فالك
7،
▁الآن.

▁جديداً
▁نظير
▁اونلاين
▁التطرف
▁السليم
▁برأس
▁البلاستيكية
امر
▁الكندي
▁عامي
▁مستعمل
▁التفتيش
▁القضاة
▁جسمك
ms
▁والدفاع
▁وأفاد
▁//
▁الامم
مَنْ
▁والمواطن
▁ابي
▁الزهر
▁النتريل
رجانات
▁الكور
دردشة
▁اكتب
▁واز
الملكة
▁آس
▁وفع
▁معتمد
▁الإفريقية
عوا
نزير
برى،
▁عقول
ابين
,كسارة
تين،
نانة
▁مئة
▁الدم،
▁بالمركز
▁معيار
▁الممثلة
▁إستراتيجية
▁طويلة،
▁المجلة
▁صالحة
▁وابت
▁شح
▁نارية
▁بوز
▁التصدي
▁داعي
▁البلدة
:55
▁الفكري
▁لنشر
▁بالتس
▁بطول
ake
▁جثة
▁أنف
▁المصالحة
▁الخريف
▁بحيرة
▁ضخم
▁مركبة
▁تضمنت
نجبيل
▁رود
▁العقيدة
▁الاشخاص
▁فولت
▁التالية:
▁تجميل
▁نقطة،
▁الموجهة
▁هنا.
▁السيولة
▁العمل.

▁الكيميائي
اجرة
▁والأعمال
▁نادى
عالية
▁كلهم
▁مخلفات
▁مطب
:16
▁للكشف
رباح
▁ذاتية
فضة
غْ
▁طاح
9،
▁والبي
▁هذة
▁لإسرائيل
▁بذكر
▁كح
تحت
▁بالمخ
▁يسبق
▁المند
▁بالمك
▁توت
▁خر
وارز
▁الاجتماعات
▁شاعر
▁سلة
▁الجاهزة
ارِ
ايد
▁الركاب
▁كـ
درك
▁الموث
▁يوفنتوس
ارن
الموه
▁تتع
▁بأهمية
يفر
▁ميجا
▁الهدايا
قن
رقب
▁عملات
▁مطالبة
reat
▁أبر
▁كتبه
reen
▁القذافي
▁انتباه
▁البيط
▁فالق
▁الخيال
▁مشرف
:02
att
:18
▁والوف
▁صادرات
▁المبدأ
▁وشع
▁حتّى
▁يبيع
▁أمره
▁هدم
▁السلب
▁وتحليل
▁استضاف
▁Off
ووقف
▁المهاجم
▁المسح
▁ذاته،
▁مشت
▁تسمي
▁التقدير
:35
▁السلة
▁الكذب
▁محضر
▁سنگ
وظائف
▁فمث
▁والأز
▁بطارية
▁البصري
▁تبي
▁والثقافية
رافة
▁الرحمة
▁وتحميل
php
داثة
▁المعاملة
▁النهج
▁وتيرة
▁تتجه
▁اسمنت
▁لتحرير
احبة
▁الموضة
▁رجع
▁التعذيب
عز
ليو
▁المجيد
▁فوزه
▁والماء
▁Gu
▁استهدف
▁بصدد
▁آخر.
▁أقوال
:17
▁أصابع
▁الكثيرة
▁ليلى
:19
▁القياسي
a,
▁عذاب
اقل
جور
غن
▁بيج
▁التسع
اعب
▁تهريب
▁زائر
▁طلاء
▁ككل
▁الاشتراكي
▁100%
لمزي
وبان
▁مسبوق
▁الحوض
خاصة
لــ
▁الحديدة
▁بلاي
▁الشهادات
▁المعاد
الوات
▁وتركيب
▁فستان
In
▁الأبناء
▁كالتالي
باين
▁مستلزمات
▁اللبنانيين
▁عظ
▁يتب
▁مازال
▁طعم
عبئة
▁واتخاذ
▁نية
ديين
لهما
مين،
▁والاستفادة
▁التردد
المزي
▁للتحقيق
▁عالمياً
افيين
▁والمالية
▁السيادة
▁امتحان
▁المفروض
▁السمس
▁وائل
▁Machinery
▁السفلي
▁التدريبات
▁جهته
▁دنيا
▁الميكانيكية
▁ووقف
▁كلاسي
▁الاستقبال
▁تقضي
▁بريف
▁يقرر
▁تخطط
▁الموه
ريطانيا
▁غداً
▁الآسيوية
▁قياسي
▁تستضيف
▁اللطيف
▁وارتفع
▁ليد
▁ارقام
يقا
▁المعيشة
لجنة
اني

▁رومان
حصاءات
▁الاك
▁نافع
▁كرك
نيست
واتير
▁مبادرات
:03
▁تقرأ
▁الآلة
▁الدولارات
▁حمدان
▁المحلية،
يتال
▁المدرجة
▁58
▁القانون،
▁كجزء
▁التشخيص
rt
▁ناد
▁البلاغ
▁آبل
▁بلب
▁الكي
▁العام.
▁حرم
▁دستور
ivers
ماه
ؤْمِن
عوبة
▁شنت
▁البنتونيت
day
▁قضائية
▁اصبحت
▁الرضا
بعا
▁الإنجاز
▁إعدادات
جيرات
▁الكع
▁"داعش"
▁إتمام
▁أوروبا،
▁الاتجاهات
يسكو
▁محمد،
قالات
▁تحفيز
▁ناش
Sh
▁الطاولة
▁الرئيسية

▁الخطيرة
▁يسهم
▁وكشفت
▁ونحو
َةُ
▁يخوض
▁الإسرائيل
▁المدونة
▁app
:14
▁الله:
▁الدواجن
رابي
ض،
▁الحساسية
▁لطيفة
▁وحدث
ُواْ
own
▁التنبؤ
▁بأكمل
▁غاب
▁الملكة
فلام
▁الذهب.
▁العلاجات
▁نظمت
olut
▁أعلا
▁الديوان
موظفين
▁ماركة
▁منحة
▁معقولة
▁يسكن
▁استرداد
▁الصهيونية
:59
▁can
▁المراقب
ائِ
رضى
▁للإيجار
▁تكييف
▁اكتوبر
راجعة
:13
i-
▁لزوج
▁المبدع
▁وحلف
▁للصناعات
عتين
▁الوساطة
▁الغدة
▁يستعد
▁كذب
▁الاستهلاك
▁الخلافة
................
▁دورية
▁اتخذت
ئاً
▁انعكاس
▁54
▁المتمر
ثال
:04
:06
▁مطر
▁لعملا
pg
ودائ
▁وبركاته
▁كانا
▁صباحاً

▁خزانات
▁الفهم
▁الكتروني
▁بقول
ام،
▁انتر
▁بالتص
▁أكثر.
▁"نحن
زاع
▁مصر.

▁ومنطقة
▁وصاحب
▁الأكاديمي
هلات
▁الحدائق
ظيمي
▁بتطوير
ئيات
▁الخبي
▁عني
▁بلي
تهد
▁وقر
▁للإعلام
:24
▁إخوان
▁المحترف
▁يقيم
:07
▁جم
مكم
▁تشين
▁دولارا
كّر
▁لتنظيف
▁لانكا
▁De
▁برو
▁نوعه
▁بانه
ربون
s.com
▁انتهاك
▁العالمي،
▁الورقية
▁المجد
▁(الإ
▁الثمان
▁بكون
:23
▁ومراكز
▁,

ارئة
▁الستة
▁تسببت
نيس
ولاته
▁إيرادات
▁أسيوط
مكّن
▁It
▁مهدي
▁وحصل
:28
▁تجاوزت
▁تقدمت
▁الفروقات
▁أوضحت
َّه
▁معًا
▁المفاتيح
oud
ابايت
▁امكانية
▁لصحيفة
ديمير
▁مضادة
▁الامنية
▁يستعمل
▁وشركات
▁لقضاء
حيث
لهام
▁وتضم
▁جزءًا
▁النواب،
▁وإنشاء
رتبة
لاحقة
▁أخطر
▁(لا
ـــــــ
طرح
:08
َبِ
زما
▁المكالمات
▁استمتع
▁عاتق
▁pub
:27
▁استقلال
▁ينشر
▁بمثل
▁2002
▁الأنابيب
▁اعتراض
▁وبه
▁يضاف
وازي
دائية
▁ديب
:31
▁وأبرز
▁تدرس
▁السياسي،
▁العادات
لتقي
▁قرن
‏

خرفة
▁الميزة
▁والسعودية
▁المغرب،
صارات
جيج
▁ضعي
▁يجتمع
▁الأثرية
مرات
enter
▁مقي
▁ولج
▁صاحبه
▁دو
يجب
انِ
▁فعلاً
▁الإمارات،
▁يبحثون
rop
للفظ
ونة،
▁إخبار
▁الضيوف
▁المحبة
▁صغار
▁سرعان
▁2015،
▁بحوث
▁مستحق
ذائ
يسة
▁هدايا
▁نصيحة
▁باراك
▁الفارق
▁ودائ
▁للعب
▁ركز
▁ونتيجة
▁وتوجيه
:09
▁طريقها
▁الصَّ
▁ريت
▁الخارجية،
▁الاهلي
▁يسأل
▁والمزيد
واس
▁الإغلاق
▁أوج
▁خزان
3]
لُّ
▁ذهاب
▁طلال
▁المخاوف
▁يحظى
▁دفعت
▁كإ
▁الآمن
▁معلومة
براء
▁(الق
عدت
);
▁هجر
▁مسلسلات
اكن
▁"سي
روسيا
واحي
▁ستي
رسانية
▁الآلية
▁المشهور
▁والتواصل
▁غا
ليشيا
▁موريتانيا
▁الفيديوهات
▁والرا
يثم
▁تراجعت
▁النقي
غفر
▁بالمحافظة
وجات
▁الكولي
▁الدنمارك
▁تتناسب
▁أرخص
▁موص
▁معارضة
▁(...
▁فاروق
▁"كان
▁العنب
▁شمل
▁ماهر
▁المزي
%0D%0A
▁التنموية
▁والخاص
▁لأداء
▁الناجحة
ريال
واجدة
▁قماش
▁يتفق
▁الكردية
▁(الش
▁الغرانيت
سْتَ
▁ومعلومات
▁والسنة
▁المؤهلة
قوس
اللفظ
▁line
وورد
▁مديرة
-21
انها
طبة
▁لصاحب
▁الصحفية
▁البه
لزا
▁أدائ
▁مذهلة
▁الديون
▁المرورية
ates
▁العرش
ترم
▁وستكون
▁المعاني
▁بالتن
قالوا
:26
:29
300
▁منصبه
▁الهضمي
▁المتاح
اهضة
▁الربط
▁اللاس
▁كسارة.
▁يحافظ
لائل
تلاف
▁للتش
▁خاصة،
▁الإي
▁لتشغيل
▁الكوري
▁الأوامر
ُرْ
▁51
▁المعاصر
▁مركبات
▁بكثرة
▁عاطف
▁العبادة
▁التَّ
▁وتطور
▁له.
فالية
▁بتحقيق
▁حماد
▁اليهودية
انين
▁كاميرات
▁السجاد
▁والأع
▁الأيدي
يرين
▁وخت
▁متناهية
▁الوقت.
▁الصّ
قيف
▁المهن
▁أسفر
▁للذهب
▁أيد
▁والمشاركة
▁يعالج
ياف
▁web
▁التأهل
حوذ
▁الابن
▁للتعرف
▁كثر
▁الصاب
راوية
▁اشتر
افت
▁للتج
▁وسمع
▁لواء
▁56
▁بسب
▁المرف
▁المتجددة
▁اللفظ
▁اثاث
:36
:32
▁السحاب
▁ساعتين
▁المنصب
▁الوصفة
▁طوكيو
▁الوات
▁مسؤولة
▁جدي
:56
▁8211
▁ولبنان
▁محس
▁الطلاء
▁بتحديد
▁year
ه)
ووز
▁لاتخاذ
اواة
▁القماش
▁المعاصرة
▁للمملكة
▁المحقق
▁تحافظ
▁حصد
▁بانتظام
اموس
اريا
lect
▁"بي
▁هدفا
▁الظلام
▁بدع
▁المطلب
▁رسمياً
▁فشلت
حُ
▁الأجسام
▁الأطفال،
اشق
ينا،
علي
▁البعثة
▁التجديد
▁ind
▁وأعرب
▁القبر
هدفة
▁الاثاث
▁يشترط
▁الأنص
▁بالغة
▁الشركاء
▁الرئيسة
▁ناهيك
حى
▁الأسابيع
هله
ير.
:46
ائبة
▁مقالة
ضات
atur
CO
▁ستر
▁دافع
▁بَعْ
▁الأهرام
▁Contact
▁«ب
▁يحسن
▁تنف
▁باعت
▁للشيخ
▁والدولية
لايا
▁99
▁السوائل
▁شكلت
::
▁والشيخ
▁جوهر
▁الالكترون
طمئ
▁فينا
coin
▁شائع
▁أهلها
أنف
▁التنظيمية
▁لتأمين
▁بوب
artic
▁والقضاء
▁ماكنات
▁المحدث
▁ومعالجة
ابِ
▁الخضروات
▁أملا
▁شركاء
▁عيش
▁موقعك
▁غيرهم
ولكن
▁النيابية
▁بمستوى
▁سرد
▁صعوبات
:34
▁البقرة
طت
▁3000
ادها
▁الحيوي
▁جرب
▁تتردد
فعات
▁يث
▁Instagram
▁بقتل
▁قطار
▁5000
▁وينت
باحية
▁(R
▁والمنتجات
سبه
▁نايف
▁أعطى
▁الفورية
▁المدرسي
▁كبيرة.
-2010
▁للملا
▁وقفة
▁الأغنية
:54
▁محفوظة
▁يلجأ
▁لافتة
▁البروف
ظمه
▁مانع
▁تنافس
▁باقة
▁اهداف
▁تناولت
:37
▁العميق
ابتن
▁(201
▁ضعيفة
ata
▁المنص
▁الفتوى
▁محم
▁الهيدروك
▁التنقيب
B@
▁في.

:44
:58
▁الميليشيات
▁لشهر
▁بتشكيل
▁(@
:33
▁البعوض
▁@QB@
وهاج
▁المستهدف
▁القران
▁الاستراتيج
▁والسبب
ّس
▁للخطر
▁world
▁تصاميم
▁والحد
▁جامعات
▁الخالق
▁الفتنة
:47
▁التسوية
▁سيؤدي
غسطس
▁أَنَّ
:38
▁بذلك،
▁منها.
▁السلطنة
▁عقارات
▁والهند
اضى
▁الديكور
gypt
i.
▁تجن
▁بهدفين
▁وإنتاج
▁الإشارات
/24
▁اندرويد
▁الدبلوماسي
▁بيك
▁والحياة
▁جعلها
ممد
:48
▁تقتصر
للمس
▁الاندرويد
▁الطبخ
▁الشريك
▁أمني
▁أعداء
▁للمنتخب
▁والوصول
▁وقوة
▁المواهب
ّة.
▁Crusher
▁القطار
▁بلح
▁تلفزي
aa
▁للاج
لزام
▁تأثر
▁تسرب
َه
▁مكانه
كسسوارات
ميرة
ذرة
▁المتوقعة
:39
▁الجليل
▁نوعا
▁يخالف
مذي
ورغ
▁ويعود
▁المسجل
▁أنشأ
▁عاماً،
▁دماء
▁تحصيل
▁ألقى
:51
▁تعديلات
▁الريا
▁تقويم
▁مفاهيم
▁مدافع
▁الرياض،
▁الصعوبات
▁الفقهاء
▁الكونغرس
▁أسمنت
اورات
▁اهتزاز
▁↑
▁السامية
▁مجدداً
بريل
▁أشاد
▁مواجه
▁أمثال
▁1999
▁[الأ
▁سبحان
▁ظه
▁وعاد
▁سويف
▁بشركة
▁العرق
:53
▁الصويا
▁التوصيل
▁المسلمة
▁صنف
▁وتابع:
▁ووز
▁تدرك
▁Galaxy
▁الترخيص
انيه
افه
▁مشابهة
▁بتسجيل
▁الناشر
html
▁الأمثلة
▁يحمي
▁البنزين
▁قاضي
▁سنوياً
كرك
▁بأكم
▁فيمكنك
:52
زوق
▁ببناء
زح
▁رفي
▁هواء
ky
▁لطلاب
▁الكفر
▁وتبادل
▁الآداب
▁تجر
▁واحد.

:57
▁وَمَا
▁حاله
▁وصناعة
▁الاستراتيجيات
▁والقيام
▁وبات
▁بتف
▁مونديال
ve
▁مصنوع
▁عدنان
▁أحوال
▁فتحي
▁يناقش
▁الرئاس
▁وكتاب
▁خُ
▁أمامه
▁الأمعاء
▁الطابع
ونز
:43
راما
▁10,
▁الغابات
▁مستشفيات
ظلم
▁تنجح
▁والموردين
▁مبد
▁أولياء
▁غنى
E@
u.
ستن
▁تحذ
▁8217؛
▁السكك
▁المحترفين
▁فصول
▁بوع
غَ
▁والسلامة
▁@QE@
▁(T
▁الإذاعة
▁وأخرج
▁الحما
▁جنبا
▁بُعد
▁مأس
IT
▁(صلى
▁لجهاز
▁بمجموعة
:41
▁للسياحة
▁شدد
▁وصولاً
▁منغ
▁سلبي
▁عثر
▁ماكس
وهيدرات
▁البير
:42
▁"أنا
▁كثيرة،
▁-صلى
فيظ
▁الأفعال
هانة
▁لتحويل
▁ذكية
▁الأمريكيين
▁ونش
▁مكتوبة
▁النبوية
▁النيران
▁متتالية
▁بْ
▁العربية.
▁البعيد
▁بيده
▁Co.,
▁ومواد
▁قادمة
▁مختلفة.
here
▁التجريبي
▁توثيق
opy
ps
▁المرمى
:49
▁قبله
اوت
▁الإيرادات
▁والمياه
▁والدا
▁أصعب
▁تسهم
▁اقول
▁مناس
التها
▁كولومبيا
▁المسرحية
رائي
فوا
▁المنصوص
▁للسلام
▁استخلاص
▁الفاخرة
▁أكتوبر،
▁الصحية،
▁عادات
▁لتناول
▁مرتب
▁الإنك
▁الجبن
صق
ـه
▁بيوم
▁بشرتك
▁الأديان
▁لتشكيل
▁مجهود
▁لحين
▁للايجار
▁اللهِ
▁شكوى
▁آند
▁دَ
▁إض
▁العماني
▁لكسب
▁أجنبية
▁الشجرة
▁والحمد
وليس
▁زكريا
▁تبليغ
▁الطبقات
▁يسم
/9
▁وتجهيز
شآت
▁الجراحة
▁بمكة
▁الاحتياط
▁باشا
نتج
▁رأينا
▁القحط
قاص
▁المحامين
▁53
صر،
▁الطائفية
▁الحريات
▁والدراسات
▁أجرى
▁واف
جاء
▁النفوذ
▁الراهنة
▁عرضها
وكل
▁هي:
----------------
▁بند
▁بكين
quot
ern
▁حلق
▁محفظة
▁لممارسة
▁وخصوصاً
▁يبق
▁التثبيت
▁الاميركي
▁الحساسة
▁أتباع
ماً،
ريدا
▁مزارع
▁المتصفح
▁الجرعة
▁أسفرت
▁المعارف
راكم
▁الرموز
ائفة
▁فاض
جيم
▁لمنت
▁وسلامة
▁ماكرون
▁«ف
▁الشف
▁لوج
▁الأوب
▁صراحة
▁المثيرة
▁بمفرد
▁بالمؤ
▁الإفراج
▁تقليص
▁المبعوث
▁المهنة
وزان
▁الإضافية
▁تعليق

▁مراجعات
سمدة
▁قسط
ufact
▁وكانوا
زرة
▁1967
▁ينزل
ّين
▁لأنني
eld
وت،
مبياد
▁منفصل
▁الدستوري
اللمس
▁الفقيه
▁الحارة
▁والشرق
rand
▁جماعات
شرية
▁المستحيل
▁الواجهة
▁This
سخ
حال
ميق
▁بصحة
▁أخيرا
▁إِلَّا
▁والاتصالات
.7
ياطين
▁جدير
▁إنش
ّا،
▁دن
ينز
▁وعق
▁الدراجات
هداء
▁تركت
▁المشرك
▁تلوث
▁ابدا
متلك
لدية
▁صلاحية
▁مخططات
▁وجودها
▁جونس
▁المعدن
▁العبارة
▁يكمن
▁الفوسفات
▁لقوات
تحادي
▁يشغل
▁الخاض
▁ولادة
▁عيار
▁استثنائية
▁وحرص
ings
▁والفر
▁مغربية
▁بدفع
▁قلعة
▁الوادي
▁حضرموت
▁حيز
▁الانب
ليقات
▁نخبة
▁الأمامية
▁الاجتماعى
▁وجهت
‎.
▁سعادته
▁ينفذ
▁حمي
▁والمسلمين
▁معرفته
▁ومُ
تُمْ
▁الفيل
▁بحالة
▁طال
▁رص
▁تمسك
▁الكلاسيكية
▁اتفاقيات
▁أحدا
▁وتابعت
ST
eu.
امير
▁صُ
▁لمنطقة
▁متعلقة
▁إسلامي
▁حدائق
▁ويظهر
▁الخاط
▁والحكومة
▁طحن,
▁حافة
▁دوائر
▁الاكثر
▁الاضطرابات
عيب
▁حفرة
▁الفعلية
رتين
أجر
اشي
▁كذ
▁الهند,
▁الثلث
▁We
▁المشاركون
▁١٠
▁مصنف
وانا
▁جاد
▁اكتسب
▁سقطت
▁الوراث
َةٌ
▁ومز
▁عليّ
▁لكنني
حقة
i

▁للقطاع
وصي
▁الائتلاف
▁مراسل
▁تريليون
وني،
▁اليسرى
▁اقتحام
فسد
▁قالوا:
alth
▁الأجر
▁نتعرف
طباء
▁الجوار
▁اعتراف
▁دولارًا
▁اللمس
▁grind
لٍ
▁وزاد
▁بالكثير
تجار
▁سعيدة
▁يستطع
▁المتطورة
▁مضت
2%
▁والته
▁الكرا
▁أعمارهم
▁موردي
▁القلعة
وب،
▁سيمون
متنا
▁الجها
▁أندية
▁معه،
▁موقعه
/2016
▁يُن
ازة
▁وملا
▁الوزارات
▁تستغرق
▁للتدريب
يسي،
▁360
▁«س
▁ناقلة
ني

▁ويساعد
طوبة
▁ستن
▁شركه
cess
▁مؤخرًا
تقات
هتما
هاض
▁كمب
▁تحفظ
▁يتعلم
▁الله-
▁سرق
لمئات
▁اقتراب
▁آر
▁اقترب
▁النسائي
▁العقوبة
▁قدمها
لتنا
▁التغلب
er.
▁الفئ
ove
▁البطاطس
وكم
يدروليكي
▁الشرع
▁وشهدت
▁الفلسطيني،
▁ومجلس
▁?
▁اشترك
▁فجاء
ونت
▁جزئي
▁WhatsApp

المئات
▁يساوي
وماً
▁ورسوله
▁بالاس
▁تميم
▁التت
/ي
ويلا
عاثات
▁فلماذا
طلاقا
▁الطول
خرجه
رة.

وائف
▁الكبريت
▁وأم
▁ينتشر
▁فلسطين،
يسور
▁معتمدة
▁لغات
▁اللسان
▁مازالت
▁وأدوات
▁ويضم
▁منهم،
▁والعربية
▁تنتقل
▁المسيحيين
مَة
▁وتصميم
▁لور
▁الاميركية
▁استف
▁الكيمياء
▁الجغرافي
▁سكانها
▁السعودية.

▁لموس
▁محظ
▁(6
▁وضعية
▁(إن
▁صديقة
▁معامل
▁والنصف
▁بنود
▁اليور
▁مغربي
com
▁رفيق
▁وبالف
▁القتلى
▁المخزون
▁رسومات
ر

▁نسبته
▁سماء
لمظهر
▁فيه.

▁بالمب
▁مثيل
ثاث
▁الثاني:
▁Ret
▁ارد
▁USB
▁شمالي
▁الكليات
▁المرتفعة
▁للحجر
َّق
وم

▁كلم
تغل
▁أمكن
▁دق
▁شخصاً
َى
▁وصيانة
▁التالي:
▁إسرائيلية
لندي
▁نر
▁الصداقة
يوبي
▁الصب
▁الذهب

▁يعترف
▁الله"
لكس
▁لمه
▁تشار
▁الأخر
الطبع
▁(على
▁الجميع،
ana
▁اعتبارا
يب،
▁الرواتب
▁السام
57
▁السطور
▁جازان
▁المتحدة

▁أعين
-14
es

▁تقديمها
▁الاسنان
▁الوظيفي
▁حفلات
▁اغلب
▁للبط
▁بهد
ؤلؤ
▁ميشال
▁سنه
▁المئات
▁السمنة
▁درب
شْ
شو
▁تنسى
▁وافت
▁إمكانيات
▁مجمل
▁الفريدة
نجان
بي.
900
▁المنزل،
المظهر
▁بـ«
▁الكتل
▁تجاهل
▁عددًا
▁لجمع
▁الإسرائيلي،
IM
رتقاء
اصد
▁والمنطقة
▁بإمكانك
▁Mining
▁نفسها،
▁الخيل
▁تول
▁فـ
▁قبض
▁طالبان
جماع
▁النقص
▁الجليد
▁الليزر
▁استبعاد
ِه
▁النشر:
▁الطاحونة
▁عائد
▁خوا
▁الحاد
يابة
▁PE
ينيو
▁النقدي
عدم
▁online
▁شاي
▁حمراء
▁وتوجه
▁سيرين
▁رمضان،
▁النقاب
▁لمطحنة
▁وأطلق
▁وورد
▁أطف
▁لتنمية
▁الخلية
▁جنسية
بيحة
▁مشغل
▁←
▁﴾
▁الانتقالي
▁ذمة
▁تلب
▁مناق
وي.
▁للكثير
وراة
au
▁المصرفي
▁جُ
▁الضباط
▁المعسكر
▁الجناح
ors
▁اليمنى
ندماج
▁تشتري
▁ديكورات
يئات
▁تصدق
▁"الو
▁تحس
كنت
▁تعام
▁وتناول
.000
84
▁عفش
▁العربية.

▁وسرعة
que
اهُ
▁أزياء
وعب
▁مرتبة
▁التأهيل
▁وتغيير
▁السرط
▁فإنهم
▁كيم
▁بمؤ
ووقع
▁وإزالة
▁الألمان
▁النوعية
▁غسالات
▁وإسرائيل
▁المنطقة.
▁الأهل
▁السياق،
▁؛

▁2014،
لم،
udi
▁توضع
▁لدخول
▁الجراح
▁أرواح
▁والقدرة
.t
▁تضيف
راثيم
▁الفروع
▁وصار
▁الأول:
▁صمت
▁إخفاء
▁اتهامات
▁محامي
ندون
▁يكاد
▁للدخول
▁ساحل
ين)
▁باش
▁ردا
▁حصري
▁يكلف
▁).

▁وغيرها.

▁بامت
▁للرياض
▁كيك
ضارة
▁النظام،
▁الشروق
▁قالت:
▁بجروح
▁بالجامعة
▁(200
▁الديزل
▁العشرة
▁دارفور
▁يند
▁تطبيقها
▁"تويتر
▁الأمد
▁للمنطقة
▁الفائقة
▁بورسعيد
اس،
ستية
▁مكائن
▁المحس
موعات
▁واقعية
▁يمس
▁جلي
▁يفر
▁نيل
▁قتلوا
▁توجيهات
▁برفقة
▁العثمانية
▁المظهر
▁الإستراتيجية
ـب
▁ازداد
▁العملاقة
اقرأ
افسة
▁ايه
▁الرباع
▁الأوعية
▁المناجم
▁وجهها
▁سجون
▁"هذا
▁للماء
▁عنف
▁ذكي
▁وَسَ
▁اعلى
▁وفرنسا
وارد
-22
82
▁الاحمر
▁مادي
▁Live
▁الزائدة
▁منزلية
▁وكأنها
▁بارد
udio
فقت
هوض
ict
▁البلاط
‏,‏
▁الحاكمة
▁الانتصار
▁وآلات
▁قاموس
▁لالت
▁الأكسجين
▁بلاط
▁السندات
▁ترحيب
▁خمسين
▁احداث
▁بالانجليزي
▁البلاد.
▁الاتهامات
▁الزه
▁كوفيد-19
▁يقطع
▁الايج
▁الصيفية
▁يروي
▁تدبير
▁الموسيقية
▁واللي
▁تأييد
▁كتبها
▁الرمض
▁فيه.
▁التحديد
▁الأداة
▁الاقتراع
▁بوقف
▁فمع
▁الناجمة
▁2001
ited
▁ستص
▁الإك
▁Mac
▁الانسانية
▁المواطنة
▁أشجار
▁تهنئة
▁الكوب
▁المطبوعة
▁لمصلحة
▁شخصي
▁المراجعة
▁الصعود
▁جهته،
▁الجمهورية،
لموريت
▁منشور
اذهب
▁الوسطاء
▁للطباعة
لوها
▁جزائ
▁ترامب،
الموريت
ه..
▁التشريع
▁الكريم،
▁النمل
جِ
rain
▁المبذ
▁للثقافة
▁(الن
يادي
▁الثلاجة
▁زوجي
▁قادرين
غيّر
▁اجراءات
▁All
▁عائلات
دياد
للث
▁عذ
▁كليات
▁"وا
▁بحي
درالية
▁الفيزياء
▁الطهي
▁لتخفيف
▁بثلاثة
▁بغية
▁الرعب
▁ر.
احصل
▁نزع
▁هبة
▁بمه
▁المستهلكين
▁ناعمة
▁ليبيا،
توى
موط
▁رخيص
▁ثانياً
▁ويذكر
▁ووقع
ضول
▁ثُمَّ
ئِ
▁أنّها
كف
▁تدريس
▁الموحد
▁77
▁ديني
▁الهولندي
▁بإدارة
ووصل
ايخ
▁شا
نكبوت
▁50%
▁قوت
▁ويؤ
▁المصدر:
▁وعلا
▁الكعبة
اذب
▁يتكلم
▁لرؤية
▁Free
▁والتطبيق
▁فيتنام
▁الموريت
▁ريب
▁جذور
▁الأدوار
▁لدور
▁59
ؤولين
▁المنشأة
▁أعمالها
▁Trip
▁2016

مأن
▁فيهما
▁عقبة
▁المطلقة
▁ثوب
عْلَ
▁ويز
▁وحما
▁والنقل
▁لتحميل
رة

▁الانتقالية
▁تتواجد
▁كنتم
▁لمثل
▁الوصل
جتماعية
te
▁صناعي
▁استشاري
▁جراح
▁��
نتا
▁جميعًا
▁دياب
▁لليوم
بِي
▁واستمر
-أ
▁الجفاف
▁اتص
▁بالبحث
5,
▁والتقدير
▁الأعصاب
▁المال،
▁الإشراف
▁ذنب
▁لحام
▁نفذت
▁الأرجح
▁المنكر
▁المائي
▁توم
▁التخلي
▁القولون
▁الوقائية
▁الغريبة
▁المزاج
▁فعالي
▁محبي
▁جنوبي
▁غالي
▁والحصى
▁ويعرف
▁(B
▁المشرق
لحاق
▁فصائل
▁طائر
ميّز
▁فاد
شعة
▁ناقش
▁بكامل
▁نشأت
ّما
EC
▁الطعن
▁مكتوم
▁new
اللث
▁فارق
▁ST
▁تدابير
▁الاوروبي
▁"است
AA
▁إضافي
▁الكن
لبه
▁يصلي
واته
▁جوال
▁الإمكان
▁بلاك
▁وللأ
▁لإنقاذ
▁1،
وثة
ضحيات
▁السعودي،
▁بالرا
▁البحيرة
واها
ئيل
▁we
▁11,
▁وأحد
▁لار
▁بَيْ
▁التهم
▁المستندات
تدئ
▁أدب
▁قبائل
▁يعتقدون
▁الطرد
▁نتاج
غاني
▁تنافسية
▁محاضرة
▁الشباب،
▁الستين
▁معاذ
▁يتولى
▁بتب
▁الشابة
▁مجرى
اسل
▁حسابها
▁منشأة
▁الأميرة
▁حنيفة
▁القاس
▁التأسيس
▁وحجم
▁تسقط
وردة
صاء
▁بالقوة
▁]

▁يقتضي
▁›
▁معمر
▁وأسعار
▁فالس
نسانية
▁الإنقاذ
▁لعقد
▁شوك
للة
▁ممارسات
▁2.5
▁ووصل
▁الجوع
▁خالي
▁صريح
▁YouTube.
لفتاح
▁نوفمبر،
▁اللث
▁الأندلس
▁نسعى
▁الأعمال،
▁حرج
▁ومدينة
▁قريباً
▁دوامة
-d
▁الرزاق
برغ
▁المختلفة.

لزال
ثرات
ري.

▁اضف
▁القصيدة
طراف
▁English
▁اللذي
▁المخيم
▁الإغ
راخ
▁أدنا
▁الميدانية
رُ
▁والاجتماعي
▁الإسلامي،
ووجود
▁وتوفر
سمة
▁التطبيع
▁بالأح
مالى
▁1990
؟؟

▁فانه
▁السقف
▁متب
▁والبيئة
outube
▁التدوير
وءة
▁).
▁الحلويات
▁الاستفتاء
▁72
▁أنهما
▁تشري
▁مِّ
▁اثنان
▁والتنسيق
▁أثارت
▁بمشروع
▁تُعد
سامح
▁Net
▁وقالوا
▁تقلل
▁الرافعة
▁تنفيذه
▁بنيامين
▁الصوديوم
▁مستحضرات
▁الإشع
▁الجندي
▁سلاسل
▁ثماني
▁يسعد
▁وافقت
▁بطبيعة
▁وبسبب
▁ممتعة
▁صدارة
▁والسياسي
▁الآخرين،
غليف
▁كالأ
لتون
▁ونح
▁كتا
▁ملكة
▁سوس
نم
rade
▁الأولمبية
▁وبالرغم
▁للسيطرة
▁البت
▁رين
▁(6)
▁تفصيل
▁بمرور
▁لمختلف
براني
عبد
▁طويلا
▁مضيفاً
▁الحادثة
▁رقمية
▁عنق
▁الأضحى
-18
▁اعل
ذاذ
▁درعا
▁أبيب
▁معبر
عمله
▁للنظر
▁وعا
▁الكرات
▁التسامح
▁الرغ
▁افتح
▁حروب
▁12,
▁الجمارك
حيط
▁الحربية
▁الفجيرة
▁الاصلاح
▁حادة
▁الصليب
▁والمي
▁للمي
▁جود
▁وتركيا
▁الحشيش
كالية
▁تطهير
غض
▁مونت
جوز
▁اختصار
داه
▁انتقلت
▁ووجود
▁ورأى
▁رو
▁الدوام
▁بكميات
▁ضحية
▁بئر
▁وحديث
▁منظور
▁ضيوف
▁بالمقارنة
ار.
▁صحافي
▁وإما
iness
▁استدعاء
▁المخالفات
▁ممكنة
▁جلا
▁الحن
▁كاد
+0
ذهان
▁للأعمال
▁مغلق
▁يناير،
▁شان
▁مخر
▁معادن
▁أمراً
▁أفعال
▁مسائل
▁جالس
▁ذكرها
▁وأعمال
▁الرف
▁أربعين
عيدة
so
زباء
▁مرحب
عطاء
▁يتنا
خاب
شفي
ton
▁【
und
▁استاد
▁الاستعلام
▁ماجستير
▁الأنسجة
-C
▁الكهر
▁مسلحة
▁بمخ
لهي
▁أخيه
▁يأمر
▁تسعيرة
و5
▁عسكر
▁protected]
▁تشيلسي
▁أري
▁زينب
▁التوعية
▁فضيلة
هههههههه
▁تميل
IF
▁يوميًا
▁الخد
orn
▁مسارات
▁كورونا

▁يقي
▁المعلومات،
سعر
▁يبعد
▁ويشير
صِ
▁معقدة
▁مبينا
▁والنظام
▁تنتمي
▁فوجد
▁فلاديمير
▁«لا
▁للشخص
▁الخلفي
▁(وَ
▁إنجازات
▁موضحاً
▁جبريل
ij
▁الإعدام
▁ويوفر
▁موتور
▁استيعاب
▁اغنية
▁اكتساب
▁المساحات
▁حفاظ
سرة
▁المحطات
كيه
▁عمري
▁تبارك
ثية
▁المناصب
▁بتناول
▁الباطن
▁كالع
▁بصيغة
▁إفراز
▁الشركة،
/41
▁مولد
▁ومغ
لند
▁استخ
▁والصور
▁بالبشرة
ble
▁بارتفاع
بز
▁مسؤولون
▁لأهل
▁الأرجنتيني
و)
▁تايوان
▁||
▁الأليفة
ايت
▁الاتحادي
▁الناجح
▁ارسال
▁الأمريكي،
▁القديس
▁مختص
▁الشيوعي
▁بالأمر
▁اشتباكات
▁وتقدير
▁التنافس
▁بالعا
▁والمعروف
▁تضامن
▁واللوا
▁(مع
▁عدي
▁القضائي
يُّ
▁بالعربي
▁مرة،
▁زام
▁بكلمة
▁النسبية
▁مستوي
▁000
اسيوم
▁وتعرض
▁بالمط
▁فعندما
ency
▁ترادينغ
.php
▁وعضو
▁يركز
▁والالتزام
▁أرجاء
▁تتس
▁الخارج،
ثْ
etail
▁الحديث،
▁هائل
idd
▁عاصم
ترين
▁أصلا
▁النهوض
▁الريال
EM
▁استثمارية
عالم
▁وفريق
▁تفر
▁أنزل
احي
▁ألغ
وفات
▁خلاصة
▁محرم
▁قبالة
▁الأئمة
▁4,
land
▁الروم
▁سيلف
▁الفضي
ara
▁الأوروبي،
▁السجل
▁متعة
▁اسطوانة
▁مصر,
▁يستخدمون
▁العطور
▁شرعي
esign
▁مكونة
و3
▁الاقت
▁والخط
▁وتكنولوجيا
▁والصلاة
-b
َةٍ
دهور
▁وبينما
نائية،
▁لبس
▁براءة
ِرَ
▁Co
خبر
▁تود
نصلية
اطير
▁مقار
▁نقلها
البات
▁2)
▁الهضم
▁منفصلة
ستغرام
قَالَ
▁المعاناة
تزقة
▁قمع
▁الشاهد
▁كروم
صارى
▁البطاقات
▁يحذر
▁أكياس
▁شعارات
▁وإعداد
قطعة
.,
▁والعدالة
ition
طمئنان
▁للبنات
ضييق
▁طحن

▁قاتل
▁الأولوية
▁عمد
يدين
ّان
وائب
▁فذلك
▁دجاج
▁معقول
▁الإرادة
▁ليلا
▁العرب

بتهم
/

▁اليونانية
▁المفروضة
▁وحب
▁يجيب
▁الإحساس
▁مسئولية
ويلها
▁والجمع
▁للعودة
▁التعاملات
▁الأعداء
▁قياسية
▁الأنت
▁مدنية
▁الأركان
▁لأب
▁u
▁الفرج
ظومة
▁كه
▁مدر
▁المعتاد
تصاب
▁الثقيله
عيها
▁تؤمن
▁العفش
▁هواوي
▁وحيث
▁طحن.
ووج
▁حيوانات
▁السموم
راضى
▁مخالفات
▁يحتل
▁بعيدًا
▁النضال
▁دُ
▁وأخيرا
▁حزم
غت
عارف
▁المسلسلات
▁الجالية
▁فاير
يازات
▁الخوا
▁حيوية
▁عرضت
▁لك.
▁يهد
▁ومثل
▁اوت
▁تعدد
▁الأدبي
▁بالكويت
▁والأكثر
▁الخاص،
▁بالطاقة
ٌ،
ars
▁بيب
▁الانجليزي
▁إسم
▁سفارة
▁تبعد
▁استطلاع
▁النافذة
▁منتجع
▁«الح
▁الكاثولي
▁لإعداد
▁Gl
▁المسجلة
▁وإصلاح
▁نسخت
▁أبدًا
▁والثلاث
wa
▁خارطة
سرات
▁توقفت
▁يحتمل
▁أجاب
مفي
▁إقناع
▁قدرتها
▁بلغة
▁ماسك
▁لتقليل
▁عملائنا
▁وقوات
▁العبارات
▁قتلى
▁الإطارات
▁لاستعادة
▁طالبت
لدان
▁تجربتي
▁منوعات
▁جور
لادة
▁علي،
yd
▁الاستئناف
▁للسوق
▁و5
ولي،
▁الملاعب
▁صناعات
▁التفاهم
▁خارجي
▁فالش
▁خلافات
▁المتكررة
▁أمم
▁125
▁كيو
▁التطعيم
▁وكافة
▁عميل
أر
▁Dur
▁"لم
▁لنادي
أُ
▁النخبة
▁مسبقا
▁موب
▁أدوار
زى
▁الصدارة
▁مسجل
▁Cre
▁الملاحظات
▁فيديوهات
▁الليث
▁اربع
▁نوح
زني
▁خاصةً
▁الابتعاد
▁نيوزيلندا
▁الملوك
▁القمامة
تقان
▁متفرقة
▁تامر
▁السند
▁أيضًا.
▁يَا
▁تحية
▁ويرجع
▁المتبقية
▁عنيفة
▁قميص
▁دراية
وضاء
▁الفصول
▁(فيديو
▁صيام
▁منازلهم
red
▁متد
.3
▁ينطلق
▁سيط
زِ
▁فنون
rid
▁أفريقيا

▁منطلق
َهُ
▁وتنا
▁متحرك
٠٠٠
▁فاعل
▁انتهاكات
▁إنف
▁نوفر
▁أنج
▁post
▁رآ
▁مترا
▁الحاصل
▁مريح
▁الثلاثي
▁التهديدات
حس
▁كارت
اسِ
▁بملا
دور
▁بلال
▁بِالْ
▁والمنت
▁انض
▁وحاول
▁عبدالفتاح
▁تجفيف
▁الفائزين
▁اذهب
▁عجمان
▁زيارات
▁هاج
داس
رحيب
▁القدس،
▁إدريس
بكات
▁الخت
▁أمازون
هون
▁تحتل
ضعة
ليان
▁التصريح
▁فلك
▁المواطنين،
▁المرجعية
▁الأسفلت
▁العذاب
▁تبت
غداد
▁الذهب،
▁قبرص
▁ناشط
أنا
وهي
▁ثلاثي
▁التكنولوجية
▁الزور
▁يغطي
▁جيرمان
▁جولات
▁الفرات
▁الدرجات
▁الأمس
▁واليمن
للف
اوم
▁ستريت
▁الياس
أو
▁الغلاف
باتات
iew
▁البرلماني
ترول
فيلة
▁الاعلامي
▁النباتي
▁دولت
▁السادة
▁متسا
ضاعف
مكو
ابح
▁التجارية،
▁ويزيد
▁Mill
تائج
ufactur
▁يقترب
▁التمه
▁الرطبة
▁المقارنة
▁لفهم
▁One
▁1)
▁ببرنامج
▁وكلما
▁والإست
▁طنجة
▁مبكرة
مجرد
▁وَيَ
▁قطر،
▁اسبانيا
▁نتمنى
▁إمدادات
كتئاب
▁والخروج
▁متعلق
▁تاريخه
▁بتوجيه
▁مخط
▁ووج
▁عربة
▁هولي
▁ميتات
▁الهادئ
.2
▁فتحة
▁يترتب
▁عيب
▁ورج
▁الانتهاكات
▁نسيج
▁كلنا
▁٩
▁القاتل
▁الأغاني
▁قدما
▁اسأل
▁يعلمون
▁يستطيعون
▁ومات
▁our
فنادق
▁شهاب
صحك
▁تناولها
▁الخزانة
ته

formation
▁و3
▁المشاهير
▁(مثل
▁غر
▁الأني
▁خرسانة
▁أميركية
▁الصحة،
▁الصداع
▁التلفزيونية
▁اصلاح
▁غري
▁كبس
▁المؤقتة
▁يرك
▁بأق
▁النفوس
▁do
▁مآ
▁لحفظ
▁التنظيمات
▁المحب
▁تنزانيا
▁فالج
▁غض
▁مجلد
▁ونج
▁للصحة
ترات
▁نقدية
زعة
▁والطرق
▁By
▁مراس
▁تحق
alking
▁يحتاجون
▁علمه
زايدة
▁الراجحي
▁للمسلمين
هنا
▁الترشيح
zh
▁إحدا
▁الوجوه
صلي
oon
▁الأعوام
▁وسام
متي
ments
كتة
▁متطورة
▁قروض
▁واحدة.
▁المقبلة.

ger
▁ابدأ
▁تأثيرات
قتصاد
▁عليهم،
اوا
▁حاسبة
pany
▁اللقاءات
▁العنصرية
اربين
▁حكومي
▁الناخبين
▁الاقتصادية،
▁جنين
▁→
سالة
▁تحرص
iy
▁فالب
▁الاستشارات
▁للإست
▁منظم
▁مستوط
▁الكول
▁المطهر
▁views
غيب
▁المرسوم
▁الهادي
▁جفاف
▁Bit
▁اطلب
▁ايطاليا
▁ينطوي
▁التور
▁ترجع
▁ينف
▁خل
▁والنشر
▁الحالى
مة.
▁دل
▁الخامات
▁ضوابط
ِهِمْ
▁يبد
▁اسماعيل
▁الدفعة
▁وأرد
▁الصدق
▁أحرز
ديف
▁لأبي
▁البغدادي
ـم
▁والخاصة
▁وبص
▁2017.
▁لكان
▁أسوان
▁والعودة
▁داء
▁والتعدين
▁ويشمل
▁الإعدادات
طباع
حدر
▁MT
▁اشتراك
تهن
▁عظم
▁والتعامل
▁إذاً
▁المغني
▁يقر
▁الركبة
▁الشغل
▁وبكل
▁والحجر
▁عبدالح
▁Mag
▁حديثا
▁معلق
▁فقالوا
▁الرشيد
▁ننسى
اعيد
ديت
▁تسريع
▁مشهور
▁Online
ّرت
▁هادئة
▁بعمليات
▁بلق
▁الطبعة
ستطيع
ريدات
▁المسابقات
▁تضاف
▁(8
▁الليبرا
خلى
▁صباحًا
▁عالية،
▁ويقع
▁أثاث
▁مسمى
▁سنوات.

▁On
▁السبيل
▁شاك
▁كلو
نعم
▁فورد
▁المعلومة
▁ومنح
▁للموقع
▁كلاهما
▁للكاتب
isc
▁الجوف
▁تناوله
▁البصر
▁الكاب
▁حازم
▁الرامية
▁الموضوع:
▁تقيم
▁شهود
▁متناول
▁أطر
▁والجهات
▁الأسير
▁ذهبية
▁واستمرار
▁ومعه
▁حكام
▁قرارا
▁الإدارات
ائي،
كرين
▁الكأس
▁66
▁متلازمة
▁العلاجية
▁شخصيا
▁الخفيف
▁ستوك
▁شيع
▁الهدوء
▁الحاف
وكان
الــ
▁واث
▁المؤتمرات
▁فلسفة
ــي
▁المتنا
▁المتر
نبلة
▁اقترح
▁توصلت
▁الباقي
▁القل
▁مربحة
▁الريح
▁TV
▁تهمة
▁أعض
▁وحضر
stem
▁وسحق
▁أكثر،
اريين
▁إعلامي
▁احتياج
▁220
▁ناف
▁يعجب
▁بالحق
ارم
▁نفق
▁الولد
▁وصفها
▁2019.
▁رعا
▁بحياة
وعة،
▁الدوارة
▁الازمة
▁ثروة
▁شيوعًا
▁ويجعل
ادو
▁الأحذية
▁عملهم
▁10%
▁فاح
▁الشرح
▁الشقيقة
▁الإيداع
وسية
ives
."
▁كازينو
▁العقبة
▁فالإ
▁عدوى
▁والبعض
▁باور
▁خاشق
▁ابريل
▁للبرميل
▁قمر
▁١٤
▁التاريخ،
▁التمرين
كيا
▁للتطبيق
▁تتابع
▁الثوار
▁الأصغر
▁الشعر،
▁التبريد
▁نفي
▁تقديمه
اراة،
▁مقاوم
▁النازحين
ارية،
قلل
▁اللواتي
▁للأن
▁فضائية
▁نفى
▁ليه
روط
▁انب
▁ديمقراط
▁mt
طمئن
▁الأغلبية
▁باليوم
اميع
▁لخدمات
▁أنتج
▁يفوز
عدل
▁شرم
▁سنع
عليه
▁رحب
pro
▁فرنسي
▁إحساس
▁وتقليل
▁لصف
▁وحزب
▁يحرص
اته،
▁لايت
▁تلميع
کن
▁مقدمتها
▁لخلق
▁امتلك
▁جديدة.
سيه
▁الناق
▁الغش
▁التعدين.
▁الشرقية،
▁تعدي
”.
▁Ser
▁انتظر
▁الغالي
ار

▁قاطع
▁بشرية
▁ماله
▁لقانون
▁تسجي
ولياء
▁للهيئة
▁بإضافة
▁محام
▁طائفة
▁الإضاءة
▁الجسيمات
▁يولد
▁سمعة
▁منه.

▁التلك
وتو
▁ابرز
▁يومنا
▁(ان
▁ويوم
▁المحف
▁والتخلص
▁الدورية
▁17,
▁سيناريو
▁لعمليات
▁أقدام
▁بسعة
▁قف
▁تقليد
▁المتطلبات
مبري
▁(أي
خلي
▁النيكل
▁العربي

نفذ
▁البكالوريوس
▁المقابل،
ثيان
▁الواسع
▁هارون
▁والملح
▁اعتقاد
▁الطرح
ُ،
▁جوار
▁20,
▁الطفلة
اً

▁الهزيمة
▁للحديث
▁وسبق
ih
▁ولكنهم
▁الشعرية
▁يدعي
▁يقدمه
>

▁el
▁الافضل
▁لتغطية
وديو
▁لإيجاد
▁بأمراض
▁زيدان
▁وار
▁المناق
وعا
▁المنصر
▁نموا
▁هوتل
لمفس
([
▁الجلدية
▁بإعداد
▁وإخراج
▁والنق
▁الأمهات
▁التصفيات
▁تراب
▁الأكراد
▁PC
▁تدع
واليس
▁النظرة
▁يتلق
▁13,
▁والفكر
▁الضمير
▁الصغرى
▁التالي:

▁الهيد
وبة،
حصائية
أسعار
▁المعطيات
▁الكرة

▁برمجة
تبارات
▁الشقق
ريجين
▁الأوت
▁والتب
▁لغرض
يكل
▁مفاجئ
عجة
EL
▁ودعت
▁باص
ange
▁تحط
▁الذراع
▁بالعربية
▁سافر
uy
▁طقس
▁وتجنب
▁والمنظمات
▁تويوتا
▁وضرورة
▁بروح
ليفزيون
▁يلقي
▁بريس
▁Pol
▁الكوادر
▁قاس
▁المنط
▁للاقتصاد
▁مصح
▁استشهاد
▁موجهة
▁يفوق
▁5,
▁مترجمة
▁للوقوف
▁البنفس
▁قاع
ؤهم
▁الوالدين
-17
▁التصدير
▁مطلب
▁14,
uc
-2018
▁الكمال
▁بدولة
▁لحكومة
▁بأنواع
▁ضمنها
-16
▁الشوا
نوعة
▁والمض
راة
▁serv
وقال
▁إذاعة
-S
ريرك
▁يشاهد
▁ينمو
▁الزر
▁الغاية
▁للسلطة
▁سنوات.
▁ناقلات
▁القائمين
▁وتظهر
▁الانخفاض
▁رامي
▁للمزيد
▁خدماتها
▁المقاطعة
▁الطيار
▁عي
▁فوا
▁Ag
usiness
▁ببطء
▁يتجه
bo
▁ترمب
سيدس
▁بالحياة
▁19,
▁مبروك
▁عمارة
▁السابقين
▁الكواكب
ًّا،
ouse
-s
▁استخدامات
▁الحجري
oint
كوا
ساط
▁للوطن
▁المبيدات
خلية
فادي
▁يخاف
المفس
▁إصابته
▁حاصل
▁,,
93
▁CS
▁عودته
لئ
▁الماء،
ونسكو
▁(أكتوبر
طوانات
▁للتف
منين
▁يبين
▁يتضح
▁المتخصصين
يتها،
▁عيادة
▁الاعتقاد
▁مسجلة
▁machine
The
▁وفهم
/40
▁سبا
▁ماكنة
▁مدي
▁مندوب
▁(قوله
▁القلب،
▁آلي
arab
قرر
▁مسيرته
ية)
ودين
▁IP
▁والإن
فورد
▁رجاء
▁الراتب
▁إرهاب
▁الفوركس،
▁الأنظار
▁تلتزم
▁يُعرف
▁آخر.

▁دعوات
▁التعا
▁الأميركية،
▁يحملون
▁الإصلاحات
▁ببيع
▁have
▁موضوعات
▁العقاب
▁ضمير
▁يمث
▁مستق
▁عام.

كه
▁الجهوية
▁الكرامة
ا"
تك.
▁مضيفة
▁المستقبل،
▁الايرانية
▁تعتزم
▁وأهداف
▁الجنائي
للى
مية،
▁حية
▁المقطع
▁المعروضة
▁الكثافة
▁up
▁الأحمد
▁معز
-2019
▁admin
▁الأرجنتين
▁لني
▁وتقييم
قيع
▁لتعليم
▁2011،
▁ويف
▁مغلقة

▁كلينت
▁نين
▁إكمال
▁الرأسمالية
▁موازنة
▁لشركات
▁أكتب
▁الإص
▁وإجراء
▁Arch
▁العمانية
TC
▁البلجي
▁خصوصية
▁نفهم
▁الاسرائيلية
َن
▁المتواجد
سوق
▁ينبع
▁المشورة
▁الاحترازية
▁بركة
▁عميقة
▁مضاعفة
2017
▁اشترى
قالة
orex
▁البرتقال
▁ومكافحة
زف
▁ديسمبر،
▁وصولا
▁وينبغي
▁الصفراء
▁لهيئة
▁الالتهاب
جال،
▁البا
▁Press
▁البحريني
▁الصحراوي
▁Air
▁صفحته
انوية
5،
▁«الع
▁هيدروليكية
▁قوس
وازن
▁18,
كينة
ريل،
▁وانخفاض
محطم
▁Ltd.
ورصة
▁عبوة
▁Word
▁مناصب
▁احتساب
▁وصلنا
%D8%A7%D9%84
▁والياب
▁بقع
▁ممد
ز

ولمة
▁عديد
▁(G
▁اتجاهات
وووووووو
اكو
▁المفس
▁تفاقم
▁ثقيله
▁الاحترام
ز.
▁تاريخها
▁produ
▁المحليين
▁لاستكمال
▁قفل
▁ضيفه
اعت
▁اعلانات
▁وضعف
▁الخشبية
▁ماز
▁اعلنت
▁وتبلغ
▁الجاذبية
▁التبر
▁الوطنى
▁الفاضل
▁ديف
▁طع
▁ستحتاج
لماً
aut
▁وبالأ
▁خرق
▁الشق
لمود
▁63
▁محدث
▁لرس
▁لقائه
▁اللحظات
يبي
▁انخفضت
▁ولك
تهية
▁بشرة
▁انتشر
ظائف
خيرة
▁رَبِّ
▁عام.
▁ولدي
اللف
▁وأفادت
رائية
▁وسبع
▁افكار
▁الوسائط
▁متاجر
▁عدل
▁والعرب
▁المزمن
▁كربلاء
▁لإيران
▁se
▁الجذور
▁هيل
▁والزراعة
▁صاف
▁امرأ
▁جماعية
▁يقام
▁مسئولي
▁المتمثلة
وفيد-19
لابي
▁يحاولون
▁ويعتقد
▁لأفضل
amsung
▁مشددا
▁إياه
▁وإقامة
▁ولكي
▁مراكش
صنع
َّهُ
ماشى
▁68
▁الألمنيوم
▁أخبرني
طير
▁تستفيد
▁وبهذه
▁(D
▁المولى
احثين
▁اللبنان
ocal
▁كرتون
▁المشتبه
ـع
▁اشكال
▁أزمات
▁الوصفات
يفة،
نيش
▁بيني
كست
▁الجهل
▁تحلي
jpg
▁تتأثر
▁اليقين
▁يوح
▁أحجام
▁العديدة
▁كالس
جة،
▁المنصات
▁وعال
▁تعاقد
▁السيناريو
▁التشريعات
▁صمام
▁واقت
راي
يدون
▁ركلة
ت.
▁سريعا
▁باختصار
فالة
▁خاطئ
▁الموسيقي
▁لمجرد
كّد
▁لكأس
▁مسكن
▁وقود
▁بقوله:
▁الشمع
▁وهب
▁المدعومة
▁المحتل
bc
د

ستجرام
▁معاملات
▁رأيه
▁السيسى
▁لترك
▁الصومال
▁المأكولات
▁ازد
▁أولية
▁عشية
رضاء
▁الأنصاري
يانا
طلة
▁المتكاملة
▁اللوج
▁لكني
▁"كل
▁للرجل
▁التعدين،
▁مواطنين
▁أيضا.
▁والناس
غلق
con
▁سلس
▁المقاول
هق
▁ذراع
▁رياضي
بون
▁أمرًا
▁الين
▁وفاز
▁عجلات
▁الأيسر
▁عشر،
عتداء
▁المثير
▁شىء
ائقي
▁بخطوة
ضحة
▁احتجاجات
▁سناب
▁فرعون
▁شفاء
▁الدوران
▁موري
▁لأجهزة
▁الإنجازات
جرت
▁صيني
▁يوضع
▁8-
▁استراليا
وشات
أله
▁بطرس
▁فقام
▁الْحَ
▁تصفيات
====
▁العنكبوت
▁الغطاء
▁اقوى
▁يتطلع
▁رَسُول
▁للسنة
كاب
▁لبطولة
▁المحاصيل
▁Mark
▁المسئولية
▁Or
▁أخيراً
-13
▁قتي
▁يحول
طْ
▁لمحطة
▁ومقا
▁ثانوية
▁مسئول
▁يشعرون
rack
▁لفترات
▁صبري
▁الاتفاقيات
▁مهنية
اللى
▁جانبي
▁فأخذ
▁بدءا
با،
▁على.
▁بأول
ضروات
لاة،
▁اللف
▁حقاً
▁ألواح
وفيتش
▁يتهم
▁بدراسة
peri
▁الجرح
▁وصوله
▁اتمنى
▁تحسب
▁خالف
▁السيف
تيات
▁والثر
▁القلي
▁رئيساً
▁فالف
▁جيجا
▁معتبرا
▁Power
▁يسب
▁إصدارات
▁و.
▁likes
▁ساخنة
▁Link
▁تستعمل
ose
ّة.

▁الوطن،
طعمة
ريدر
▁فاتورة
▁نت

▁«من
▁مؤكدًا
▁المستفيدين
داداً
▁حقول
تمة
قالي
▁الاساسية
▁تأكل
box
▁مادية
▁لطالما
▁30,
كندرية،
▁المتداولين
بقة
▁نبدأ
▁حشرات
▁الكويت،
▁روسية
▁Equipment
▁نجران
قلب
▁استج
▁وتوقع
▁للإسلام
▁Watch
▁زبدة
▁بدخول
▁الحالية،
▁price
▁ديل
ميمه
▁750
▁)،
▁يدوي
▁مومباي
لِي
▁(20
▁pr
▁دوم
▁الكاري
▁أذكر
▁واللا
▁الحضاري
▁منه.
ْرُ
94
▁وَلَا
-25
▁وارد
▁الاستهلا
▁ركب
▁التوصيات
▁ولكننا
▁ثور
▁تكثيف
▁يراه
▁السادات
▁شهدتها
▁شاهين
▁الكبرى،
▁تشهدها
▁يلي:
▁المهد
▁المتعة
▁15,
▁وبالفعل
▁هُوَ
▁توماس
▁العقبات
▁خاطئة
▁Sm
▁عاجلة
hem
▁مطروح
▁للاعبين
▁وحقق
▁تضمين
▁الحرب،
▁والموس
▁النقود
نط
شابه
▁يلز
▁رأيك
▁أصحابه
اريس
▁حسان
▁لتك
▁تامة
▁النرويج
▁رحي
▁"ط
روسة
زلاق
▁الإرهابيين
لوى
▁Egypt
وِّ
▁فله
ذيات
▁تاريخي
▁والآثار
▁يونيو،
▁الولاء
▁لسبب
▁رضوان
▁الانه
▁الناص
▁للمؤتمر
▁الجمي
▁العذراء
وابت
آآ
▁عسل
▁للملك
▁يفض
▁القمع
▁بولندا
▁وبالإضافة
▁برمج
view
▁ولكني
َّد
▁(F
▁متزايد
▁مصلح
▁بركات
▁وتحمل
شيل
▁السودان،
▁ياسمين
▁Rec
▁يتصل
▁حط
▁مخزون
▁عرش
▁أحذية
رثوذ
▁جوان
▁الصراعات
▁عراق
▁استمع
▁الرشيدة
▁بالعال
▁نهائيا
▁المجاز
▁قصور
▁اقامة
oham
▁للوقاية
ئتين
▁نال
▁لجهة
▁الجائحة
تيان
▁للسفر
لمئ
1-
▁حاش
زويد
▁استشهد
▁"إذا
▁والاقتصادي
ئرة
▁للأنباء
▁كوست
rib
▁بوق
▁وفض
▁ستون
القة
▁غلق
▁قلم
▁وإضافة
▁للدي
▁مقيم
المئ
▁الَّذِي
▁للدراسة
ونهم
▁إبدا
ateg
▁البحار
.4
/ك
▁ريد
▁القديمة،
▁مشاركتها
▁من.

مل،
▁الكرة.
eral
▁لتمويل
▁المقترح
▁كركوك
وايات
▁My
▁الإنشاء
▁معادلة
▁فلوريدا
▁الإناث
▁بقطاع
▁محاسبة
ف.
▁أعاد
▁القطب
داك
▁جرح
”

▁جانبية
▁تدشين
▁الانتماء
-24
▁"مج
▁بروتوكول
▁أصناف
▁بورد
▁مستقرة
يلية
▁محلول
مداد
▁وغربلة
▁Met
▁التمي
▁Sa
▁الإيجار
▁وانتشار
▁الأغراض
ركة،
▁الزنجبيل
▁للتجار
وتك
▁القادمين
▁المنخفضة
▁إبريل
▁بطولات
▁ويلي
هض
قُول
▁توسع
▁تاميل
▁قادم
▁وقم
▁World
وذا
▁والمعرفة
▁170
2018
فترض
visor
▁مراجع
▁قضت
▁يغادر
▁ويتميز
▁البرمجة
▁يليق
▁شكره
لتهابات
▁نعت
▁وكلاء
▁"كورونا
▁بخص
▁الإجتماعية
▁السحق
▁وسهولة
▁مقرها
▁عزم
▁وقوف
▁القائل
▁وتراجع
▁المشهورة
▁لإد
▁المئ
▁الرقبة
▁يستضيف
▁لتلقي
-m
▁ومتى
▁السرد
▁ورح
▁(أكتوبر)
▁فرنسا،
مزق
▁انسان
▁ربك
▁والاهتمام
▁منتظم
▁الأرض.
َالِ
▁مجانًا
▁التخفيف
▁المقتر
▁بمتابعة
▁هونغ
▁تعالى،
▁(ع)
▁LED
اجين
ماعيلية
▁حكيم
▁للشراء
▁الرفع
▁اللياقة
▁تطبق
▁ساعة،
غالور
▁الهيدروكربونات
▁وبالطبع
▁الضريبي
▁وتبين
بيعي
▁حداد
▁يسل
▁الاردنية
ئام
▁الهرم
▁دراست
دته
لَّمَ
▁إنج
▁دراسية
▁وتفعيل
▁الــ
▁الحيوانية
▁خضراء
▁سليمة
ناقش
▁أغاني
نفس
▁تكفي
رية.
▁الإلكتروني،
▁أينما
olor
▁نقيب
▁المقبل.
وريس
▁الصحافي
لغي
▁الفا
▁والدها
رافيت
▁هنا

▁بأداء
▁العباد
▁لجامعة
▁يدوية
▁التعدين

▁أخضر
▁تغلب
▁كيميائية
لموك
▁الختام
▁السرقة
▁يطلع
▁me
▁الهيك
▁يفعله
quir
▁بعقد
▁عينات
▁2:
▁لمراقبة
▁الثنائية.
▁لأولئك
▁الاسواق
▁احتفال
▁اللى
▁مولود
لي.

▁المنعم
▁شيب
▁بالدمام
لُونَ
▁وحر
▁المقاعد
صوات
▁وأيضًا
▁للدكتور
▁وأصيب
▁فرانك
▁hg
▁صهر
▁لهؤلاء
▁الأندرويد
لاجات
طرد
▁arab
▁عدو
▁المهبل
موني
▁co
▁دلو
▁23,
-t
▁وأست
▁لمخ
▁الخلط
كبات
▁ملوك
▁إنشا
وْمَ
▁الضرب
▁off
▁فاعلية
وذهب
▁واضحا
▁موع
▁طويلاً
ha
▁يلاحظ
▁الاقل
▁تصويت
▁إين
▁Sep
https://
▁فخرج
▁فماذا
▁فكس
▁فرضت
▁الرص
▁والأدوات
▁الجغرافية
اوس
▁دكت
rag
ضبان
ards
لطان
▁والجمال
▁الطواحين
▁بالنفس
9-
▁والإجراءات
حكة
▁fl
دها
▁المستهدفة
▁الموالية
▁يتوجب
▁متأخر
▁أدري
▁غربية
يحات
▁رصيده
▁والعلاقات
▁بالفيروس
▁الزوجين
▁الضريبية
▁74
▁«ج
▁التخرج
▁ماج
▁للمستثمرين
▁أنيق
طحة
لام،
▁المالية.
سيما
▁غبار
▁المتقدمين
▁لقوله
urn
▁المفيد
▁Video
▁طالت
شري
مينة
▁1443
78
▁أرجو
▁الأسفل
▁وأسر
َدِ
ايفون
▁معلوم
▁للبنك
ora
الموك
ينَ
▁إدارية
وينة
▁ومناطق
مهما
▁١٢
▁الآمنة
رجح
▁الأتراك
▁تأمل
▁الخمر
▁تتولى
▁تعقيد
تدلة
▁24,
▁16,
▁كوبون
▁ومقد
▁صديقي
جزات
▁التذاكر
▁الهروب
▁الظواهر
▁ومواقع
▁دوران
▁ظرف
▁talking
▁لرئاسة
لتيكو
▁مقترح
▁السخ
▁شَيْ
▁أبسط
▁العامين
▁المليون
▁للمحافظة
ب.
▁عُمان
▁إنا
لمانيا،
▁الكردي
%D9%85
▁كده
ش.
بيرة
▁:-

▁أونلاين
▁الادعاء
▁ينقص
▁لاستخراج
▁كتل
▁كونغ
▁Posted
▁يكره
▁تصريف
▁وتعرف
فراج
▁زراعية
▁ترميم
احية
▁إكسب
▁التوبة
▁أسعد
▁نسبي
صفية
▁أرسلت
▁العشب
92
▁الموجة
▁مزرعة
ino
▁وإح
▁الكاتبة
▁الكرك
▁Duration
▁بإصدار
▁نبيه
▁بالذات
▁تمرير
▁الافتراضية
▁دراجة
▁اتهام
▁As
▁والإدارة
▁يظن
سمم
▁يشرف
▁آلة,
▁المطروحة
▁قالا
▁VSI
▁نشرة
▁النادرة
▁محرر
▁للحوار
▁الصيغة
▁فنز
▁تتحقق
▁وإست
▁الدكتوراه
▁سياس
▁للقاء
▁الودائع
▁تبرز
▁ولابد
▁ذك
▁ببجي
▁وتهدف
▁Phot
▁سيور
▁المسرحي
▁نعتقد
▁وذهب
▁يشاء
▁سبتمبر،
▁والشعر
▁لآلة
▁تستند
▁أطباق
▁وربط
▁فذكر
▁مبتكرة
▁رغبات
داً،
▁لمسة
▁كورونا.

76
▁(يوليو
▁تفتيش
▁استرجاع
▁Car
▁كبريت
▁المعادلة
▁بقدرة
▁«ن
متين
▁حتما
▁الشفافية
▁العميقة
▁النجار
خوذ
▁أيضا:
▁«الق
ويلية
▁ومساعد
%.

▁وتمكين
▁ترس
▁ترسيخ
‏‏/1
ارتفاع
▁المحورية
▁«الب
▁التواجد
▁الفرس
؟.

ونيخ
▁بست
وي.

▁الشموع
▁الشخصية،
▁للتعبير
▁متفق
▁العبادي
▁[1]
▁مغناط
▁لطف
▁شمع
▁الصالحة
▁ابطال
▁لتمكين
▁فغ
▁الحادية
موضة
▁رع
اءِ
ألك
▁عبور
▁حزن
َّن
▁بائع
▁ملاعق
▁وبحث
ورن
مشروع
▁صوب
▁رقيقة
▁الوسيلة
▁شهيد
▁السلو
▁الضحية
تكاب
▁ويبقى
ارها
▁الفوتوغ
▁للتد
▁لإست
▁بالدخول
▁وأشاد
▁الاستحمام
▁تكاد
ine

▁21,
▁المزيج
▁الوارد
▁مارتن
▁نابلس
▁بؤ
▁الكائن
▁الوزاري
▁والتأكد
▁بواسطة:
هنئ
▁used
ternational
zz
.6
▁الإبل
عمار
▁هاري
ُم
▁ناتج
▁للموسم
▁الاستيراد
▁"على
▁الثورية
▁رجيم
▁بكورونا
▁وصفت
▁أفريقيا،
▁وقرأ
▁داعيا
▁الجاري.

▁سأل
▁بالمعروف
▁وقفت
arket
▁القبط
▁(خ
▁معينة،
▁من,
ميني
▁الإخت
َّل
▁الموك
▁أنور
▁“أ
طعت
▁مطهر
احل
▁صام
/10/2
▁حافلة
▁الأنصار
▁بالعودة
▁Af
▁هدى
▁معظمها
▁تحتاجه
▁الأخوة
▁تنبيه
▁ثر
فة،
▁تعالج
▁النزاعات
فعية
▁المزارعين
▁مؤهل
▁"مح
▁يتلقى
▁للأح
▁سورية،
جرات
▁اكتمال
▁الأرشيف
yl
aur
▁المختلفة.
▁تراه
السعودية
▁الوقت.

▁28,
▁ويكيبيديا

▁الاسباني
▁التقليل
ّدة
فزاز
▁العلا
▁وكلا
▁الجديد

▁المعرف
▁طنطا
ضعاف
ادلات
تحول
▁للجامعة
▁تغليف
▁دعمها
▁المضاد
▁وتدمير
طاحونة
▁الوضوء
▁الاحداث
▁«ع
▁تنطبق
طِ
ني.
▁وممارسة
▁السنة،
▁كثيرون
▁الأرصاد
▁بمكان
▁العقول
مًا
▁والتخطيط
▁للعراق
▁يحتاجها
▁مساحتها
▁ادخل
▁الثع
▁بالخط
▁الصوم
▁موضحة
▁انني
▁وسع
▁والصناعات
▁نموذ
▁والمقاومة
٢١
اديل
▁الصوف
▁دقيقة،
▁الإبلاغ
قيمة
▁الطازجة
▁طفلة
▁الماضية.

ames
▁حينئذ
▁يسلم
▁مأرب
دالية
▁وزوجته
▁النادى
▁المجلد
▁ويكيبيديا،
▁بنغالور
▁أسما
▁وبخاصة
▁22,
▁يتد
▁مجدي
▁أوساط
▁القادمة،
▁المختار
صفر
▁شهرا
▁نلاحظ
▁مجموعه
طاة
▁وصرح
▁للتربية
▁السلمية
ءمة
▁تصعيد
▁بالجزائر
▁صدمة
▁الحقول
▁أنبأنا
▁لقياس
ز"
▁الصفوف
▁سلع
4]
▁والدين
▁العيوب
▁تغط
▁السواحل
▁29,
ووس
▁الشفاه
▁يستخدمها
▁الصناديق
راجه
▁موجه
▁sm
▁ليك
▁1948
▁الاشياء
انو
▁للمياه
▁ونوه
▁stone
▁25,
▁الانفصال
▁انما
▁وفاء
▁للبح
▁المنصور
▁جنيها
▁الزبائن
▁يدافع
y.
▁نأمل
▁مصد
▁انستقرام
▁المستحق
▁ننشر
كّل
▁عائدات
▁بترك
ek
▁المكثف
▁الادارية
▁الورشة
▁للجهاز
▁بالحصول
وائه
▁فدان
▁سياسيا
▁MP
▁ننظر
▁ترأس
▁استعدادا
ؤوس
▁أغلى
▁أيضًا:
▁work
▁عطية
▁(١
▁وعقد
▁المبت
▁جواد
▁ودخل
▁Techn
da
▁وأثناء
عمدة
▁المرتفع
ش

▁البعض،
يرت
91
▁جونسون
▁الكافية
▁مسبوقة
▁التركية،
▁سكس
طفي
▁الاعتقال
بتها
▁سامح
▁مراسم
s:
▁الأساتذة
▁عارض
▁الفعال
▁الأظافر
▁بقصد
▁تثبي
▁المتواجدة
▁الثمانية
▁وحمل
▁وجرى
▁26,
▁نام
▁«الإ
▁المخلفات
▁الانع
▁وأكبر
▁صلاحيات
▁المختبر
.php?
▁طلعت
▁المبد
▁والمال
هاج
▁الظن
▁جاسم
▁المرحوم
▁نباتات
▁بشير
▁«ك
▁والغرب
ia.
▁لا.
▁لاحظت
▁التفوق
ada
▁ايفون
▁مجانية

▁27,
▁ما.
طباق
▁محاكم
▁أحيانًا
▁المخططات
لميع
▁باختلاف
▁تخل
▁احتفالات
▁خدي
▁فالر
▁الأقدام
▁الأرواح
▁زكي
▁سببا
▁وعيوب
▁الآليات
▁أحس
▁دف
▁للاتصالات
▁جهة،
ais
باس
▁ترسل
▁آمال
ماسك
اتباع
يطاليا
داق
▁سفن
▁فاب
لاتين
▁الهائل
▁مقومات
▁لتقييم
▁التكامل
▁بلاستيك
▁الجلالة
▁أجنبي
▁100+
▁نعرض
▁ملص
▁سيئ
▁اعلم
▁إلكترون
▁موقفه
▁الانترنت.
▁الانهيار
▁per
▁بايت
▁اصدق
71
جمالي
الة،
▁انتقادات
▁الفجوة
▁حواء
ُها
▁احب
▁شاحنات
َدَّ
تناول
▁أَن
73
▁طرحها
▁شكري
▁بنادي
مانا
▁تفكيك
▁ألس
▁تطرق
▁الخلل
▁والمبيعات
▁والإبداع
▁ومشار
▁وإخ
vert
▁نرحب
▁استئجار
▁المتواصل
▁مبني
▁محاكاة
▁دمشق،
▁لمحاربة
افة،
▁العلف
▁450
▁gt
▁كلاً
▁المسئول
▁سيم
▁خصص
▁عهده
ها,
▁"إسرائيل
َ،
▁ميا
▁جهاد
▁مقص
▁المكاسب
▁الرمادي
▁يمثلون
▁وخلف
▁•	
▁مباشرة،
▁الأعظم
▁عصابة
▁وتنظيف
▁لرعاية
▁الحضارات
ميين
▁ج.
▁3

▁ميونيخ
▁الشائعات
▁انضمام
▁ويحتوي
▁أشك
▁الفيدرالي
▁الصلي
▁قلبك
▁"تح
▁والجرانيت
▁العالمية.

▁الرهان
▁free
▁زامبيا
نده
▁والمرأة
▁محبة
نجر
▁واجبات
يرلندا
▁ثمرة
▁رافعة
وقية
▁والفنون
▁انطلاقا
بيهات
▁للأفراد
▁المتطرفة
▁ونوع
وليه
▁فوراً
ناقض
▁الإرهاب،
خُ
تراب
▁VPN
▁بزي
ific
▁المتبعة
▁واتهم
▁المنيا
▁الانتفاضة
اداء
▁مهتم
▁ساف
▁Pub
كم

بيك
▁العسكريين
▁تصميمها
َّةِ
▁قياد
▁السيليكون
▁US$-
كا،
▁البرتغال
▁والعالمية
▁ومصنع
▁الإمساك
▁HP
▁المخالفة
▁وتشكيل
يندوز
▁قاعد
ّون
ثان
التع
▁المرأة،
ei
▁مصباح
▁الفاعل
▁بتنزيل
▁الصفة
▁الميناء
▁الكلور
▁درويش
▁التشريعي
inter
▁سمات
▁2023
▁الاعضاء
▁المظاهرات
▁للعاملين
▁مؤر
▁لأعمال
▁بصرف
▁الاحجار
▁بالسوق
▁وظل
ستانية
▁مارس،
▁وسهلة
▁يقين
▁الجمركية
▁سيدتي
ّاب
خطاء
آب
▁إنفاق
▁خطبة
▁وقطر
▁حالته
▁مرسى
حاديث
▁أذن
▁sk
س"
▁تشر
ليزر
▁المجال،
وضوع
▁فأما
▁بالمشاركة
▁تشيناي
▁حساس
▁فرط
▁تجدر
ifi
▁إِلا
▁بمنع
لمأس
قة.

▁مضاعفات
▁وموقع
▁شخصًا
▁قتال
▁غلاف
اراً
▁بضم
ثافة
▁ويصبح
▁وجهك
▁بالإنترنت
▁التفجير
وظفي
▁حمدي
▁غاض
▁المعاص
azon
▁العسكرية،
▁الهند،
▁النجف
▁يتوافق
‏}
▁انتقد
▁وزيت
▁منير
▁2013،
▁At
▁2016,
▁والضغط
وريات
▁تتح
.كوم
81
▁مفي
▁رفقة
▁بيروت،
▁بيعها
▁الاراضي
▁إمكانات
▁1442
▁القابل
▁الدورى
▁فضيحة
▁الارتقاء
▁Product
؟،
▁إرهابي
▁البقر
▁لفائدة
ين,
▁ويهدف
▁للمحترف
▁الأول.
▁آرائ
▁لفيروس
هيري
شارد
▁والوطن
▁السويسري
▁والقلق
-2017
▁الطائفة
​

المأس
▁درع
▁المصطلحات
▁الأت
▁لتسجيل
▁المزروع
▁شاغرة
▁ايجاب
▁يوم،
http://
▁مفعول
▁الأولاد
▁(غ
یر
▁ترويج
▁الخنزير
▁اعراض
▁احتجاز
ext:
▁كتالوج
▁خصيص
▁باتخاذ
▁السليمة
شيرات
▁المتابعين
▁ستست
بلاغ
▁الانتخابي
▁للمطالبة
زعج
▁لتوجيه
▁ap
▁استعدادات
▁وحث
▁طاعة
▁المدعي
راعنة
▁وتفاصيل
▁إنتاجية
▁كتير
ثنى
▁تجميد
▁النصرة
▁يحبون
▁يبعث
▁انعدام
▁بقانون
▁شيوخ
اهية
ally
▁روج
تك،
▁الصلاحية
▁مكياج
▁حماة
▁أوروبية
rol
ها".

▁تصلح
▁اعتق
ins
▁تذكرة
▁الوردي
▁اليمنيين
▁الفاض
▁المصابة
▁ممثلين
▁شين
▁حقائب
قيقا
▁مايو،
خرف
-2022
▁كائن
▁الأطلسي
▁المسمى
▁العراق

▁أولوية
واض
▁وإطلاق
▁بالات
▁الترشح
▁زلت
▁حيوي
▁المنتديات
▁انحاء
▁بولا
▁آخرها
موية
▁(الر
▁will
▁غارات
%d8%
▁86
ِرْ
▁لود
▁cook
▁gm
▁شوا
▁بمستشفى
وعين
rushers
▁الفيصل
▁غرق
▁كاملا
▁الحدودية
▁نظرت
▁العس
▁الحكومية،
▁الوقف
▁learn
▁اداء
هيد
▁مكثف
غف
▁زينث
▁روحاني
▁اليق
▁المغلقة
▁إشعار
▁سمحت
▁تألق
▁مناهج
خلوا
▁جراحية
itt
▁البارز
نوا
▁وحركة
▁الحلال
▁ماركت
▁معاهدة
▁افراد
▁ثالثا
▁ستحصل
▁صلبة
▁للقلق
موطن
outh
▁روسيا،
▁ويشارك
▁المستجدات
▁نسأل
▁للاخت
▁المزدوج
ing.
▁حرس
▁العمارة
▁والتغيير
▁الأقراص
▁؟؟؟
▁فارغة
▁النشاطات
▁قبل،
▁عائلته
▁كيب
▁المعمول
▁فو
▁المحاور
▁هدفه
▁لكثير
▁لإصلاح
▁نصل
▁والبحر
▁إجابات
▁كبير.
▁حكمه
▁لأني
سيير
▁بتقنية
▁تكرير
▁دفن
▁لبنانية
▁مدون
▁وتستمر
▁الداعمة
▁بحماية
▁السور
▁للجمهور
▁وقطاع
ان"
▁كيت
▁Copy
▁المسئولين
▁دوار
▁فلقد
▁WhatsApp
▁تهيئة
▁المنتخبات
▁الطموح
▁الراعي
قطة
▁يملكون
ونروا
▁لقناة
▁قدموا
▁ستع
▁هدفها
▁المقاتلين
▁المركب
▁الكوارث
▁لخوض
لّم
▁ستان
ميري
▁طالع
ك"
▁وتسهيل
{‏
▁طاب
▁واستطاع
▁هرب
▁طبخ
▁فَلَ
▁حفتر
▁حددت
▁Mus
▁مهارة
▁يفسر
yz
▁ثالثة
▁لقطع
▁خرائط
▁التحق
▁محتمل
▁اللقاحات
▁أنشط
▁الإمارة
▁والسياحة
▁والجيش
▁الكازينو
▁فيني
▁بالبط
▁تتلقى
▁التداول،
▁الجذب
▁ثبات
تحمل
افح
▁وللت
▁دورًا
▁الإخوة
▁وجمال
اقير
▁البحثية
▁تورط
800
اخذ
بسط
▁الكنيست
▁التنظيمي
▁بحل
عاً
▁استاذ
▁القوائم
▁الحالي.

▁المدينة.
متعة
▁نقلا
arg
▁بودرة
▁USD
▁العالمية.
▁العمرية
▁الحسيني
ِ

▁والأخلاق
▁لك،
▁ريال،
▁الجزائر،
▁بالتد
ون)
▁وكبار
▁النشط
▁العامة.

وذه
▁انتما
▁يلتزم
▁لسوق
▁الشعار
افيه
▁المأس
▁والمغرب
▁والابتكار
▁ابتكار
▁الوقوع
▁والمقي
▁هناك.
▁تنشأ
ائى
فيضات
▁بجمع
▁زهير
▁الحقل
▁بدءاً
gram
▁الخاطئة
رفلة
▁المياه،
▁جهل
▁بأح
▁صنعت
▁تنطوي
▁السقوط
▁الظاه
▁جمادى
▁الباس
▁أيضًا.

▁المكياج
جاهل
مالا
▁تحيط
▁العنق
ica
لمفاوض
▁دينا
▁سماحة
cel
وشوب
▁"مس
اهده
▁جديدة.

▁more

▁المتزايد
▁الأسلاك
▁موحدة
▁ودراسة
▁الخياطة
▁مرس
▁يصاب
▁للفحم
▁ينعكس
▁يشتري
لب،
المفاوض
▁احسن
▁لوف
▁للنشر
▁الأبراج
▁المهتمين
اطبة
▁والمُ
▁أمد
▁وموس
▁الملاحة
▁المواجهات
▁لمؤسسة
▁فلاش
▁أسمع
.com.
▁لكونه
▁بيتر
▁المشروع،
اميرا
[/
▁إخلاء
:-
لاتر
وكمة
▁لكنّ
▁البناء،
▁q
▁للفنان
آمر
▁2020.

▁يديك
▁استقالة
كارية
▁الإخباري
ضْ
Ad
▁مرسيدس
▁مقط
▁مظاهرات
▁مجهولة
ديدات
▁الثلاثين
ائلات
▁لسنا
▁وأوروبا
▁صيغ
▁يجعلك
▁موجات
شرف
▁الكومي
لسوف
▁لوز
▁وقائع
▁كليب
▁يتعل
خطط
ym
▁عظام
▁الرسومات
واتر
▁بألوان
▁الفخ
▁اللوحات
▁تدعى
▁نشطاء
فرع
▁بدت
▁متأكد
▁الترفيهية
▁1.2
.g
▁وأنهم
▁دمياط
▁وإذ
▁كالا
▁الحلقات
اجأ
ype
▁التغطية
هُوَ
▁السوقية
▁والسلع
▁Inter
▁أخصائي
▁ذكاء
ذاً
▁المال.
عَلَ
ing,
hor
▁دراسته
▁62
▁المفاوض
▁عرفات
▁منزلي
▁ابني
▁أبوا
▁والرسوم
▁فانت
other
▁صقر
▁كوبا
▁مكثفة
▁وعمليات
▁السجناء
▁ونفس
▁بإحدى
آلات
حضار
▁الطعام،
تبس
▁(يوليو)
▁وعرف
▁بمط
▁بهم،
ميلية
▁مطحن
وكرانيا
▁عناية
▁الأحمر،
ودعات
▁الصواب
▁عضوي
▁واترك
▁تكنولوج
▁تنسي
▁الإبداعية
▁المشروعة
▁رؤيته
▁النبيذ
▁بلون
▁الأحساء
سخة
pen
▁القومى
▁#1

▁القات
▁والدة
▁الأجنبية،
▁وأمريكا
▁الأمامي
▁ويسعى
و6
▁نسبيا
▁المتعل
▁لوزير
▁والترفيه
▁(الص
▁معجم
▁سوهاج
▁المناظر
اريح
▁لوجه
▁فكري
▁Pr
▁البندق
كرت
▁AUT
▁فرس
إلى
▁شبي
▁الاخوان
يله
المود
▁الشيعي
IP
▁الاختلافات
>>
▁العرف
▁الأردن،
للص
ضرب
▁ومشروع
▁الاستحقاق
▁الكفار
▁بمديرية
▁أناس
▁العصب
▁لقيادة
▁تحتفل
زْ
OT
▁الزهري
▁مذا
▁ليال
▁القتالية
▁جدية
مهام
▁وبق
▁الحياة.
▁أعمالهم
▁جيف
▁خبرات
▁ويترك
▁استفاد
▁الكوليسترول
▁التفصيل
فسيرات
▁اكتشفت
ونال
▁رأسهم
▁لحسن
▁الأورام
▁احتمالات
▁منشآت
▁السبعة
قَدْ
حظ
▁بغداد،
▁أيقونة
▁القلم
▁أقوم
▁المبذولة
▁النار،
▁والفنان
▁مختار
ple
▁مجهزة
▁شكراً
▁مسلمة
▁معان
▁الثقيل
▁محذ
▁سباحة
▁نادو
رائد
▁تخيل
▁تعميم
▁ذبح
ائيل
▁لغاية
▁غازي
تِي
▁المعمارية
وداع
▁اجتماعا
▁أيضاً:
▁المنشور
▁سوريا.

▁حجاج
لصت
▁ويستمر
▁ومعظم
زيغية
▁وشرح
ارتي
جات
رتفع
▁2022،
▁للتسجيل
▁ذلك

▁للكسارة
غات
▁وجدنا
▁ويبدأ
▁3.5
▁المولد
ren
▁صالح،
للت
▁مشروب
▁بإلغاء
▁ترفيه
دوية
79
▁النقابات
▁البصرية
▁Art
وريين
▁حذاء
▁قلوبهم
▁المحاكمة
72
▁هاتين
▁نفع
▁ورأ
▁الدوليين
ظرية
ؤولي
▁ولايات
زلات
▁يفتتح
▁خبث
ها؟
▁والحقيقة
▁لبر
▁([
▁تحذر
▁أنجز
▁دورته
▁وروح
▁الاعلى
▁ننتظر
▁البخار
▁المقط
▁جديد.

سلين
▁بوم
▁واستغلال
▁قتادة
ياطات
تصالات
▁خوفا
▁أنغولا
▁القرآن،
▁«الس
▁وباقي
دي.

▁دش
▁بالاحت
▁ازالة
▁الاماكن
ظافة
▁الفاعلة
▁كاست
▁Samsung
▁سيُ
▁تها
▁يأمل
▁()
▁ظاه
▁كريستيانو
▁الحاس
▁البكت
▁بتشغيل
▁رقائق
▁إيصال
اه،
▁أوم
▁السيسي،
▁عرفة
▁والتنظيم
▁دينه
▁القن
▁العطر
▁Med
كس،
▁مكالمة
▁بالمز
▁مستقر
▁غينيا
▁يخفى
▁العظ
▁تغيرات
▁بديلة
▁قتلت
▁عـ
▁جادة
ظاهرون
▁السماسرة
▁كومي
▁الحديثة،
هيب
▁حدا
▁الرقة
▁ضده
▁البريطانية،
هابية
▁هلا
▁تاون
▁بنيت
نر
▁اللاتينية
▁القصور
تَّ
riev
▁وتأمين
▁الغزو
▁Web
▁جاي
▁ارس
ربيجان
▁مساع
▁وخام
ورط
اريوهات
▁الأمريكية.
▁السبل
▁للخارج
▁التحوط
▁خاتم
▁مولى
▁تتسم
▁والمملكة
▁القحطاني
▁اللاذ
▁الأمريكى
ابَ
▁جهن
▁وفيات
▁وتحرير
مار،
امنئي
▁خاد
▁الجماع
▁و6
▁اعتمدت
▁الدافئ
▁المود
BM
▁المواصلات
حي،
▁بإرسال
▁والتركيز
▁تكبير
▁الاجنب
▁إِلَيْ
لسفة
▁المصير
▁نزاع
▁Group
▁التسمية
▁وتبدأ
▁الاساس
وبه
▁فيز
بعات
▁الكندية
▁جونز
▁معلن
▁لمرا
▁الثاني/
اعرة
▁الهاشمي
▁استقر
▁للجدل
▁الكوكب
▁اليوناني
▁واحدًا
▁ميركل
▁جهودها
▁لأج
▁للمركز
▁احتمالية
اسر
▁والصنا
▁التمسك
▁هنا.

▁للنقل
كومات
▁لضبط
▁وبلغت
▁الفعالية
كر،
▁للوجه
▁وتوفي
▁المؤهل
▁صحيح،
▁2018.

▁إحالة
▁فيزا
▁المكونة
▁أدلى
واصم
▁Em
▁مجاز
▁ووفقاً
▁وإش
ثل
▁برون
▁المعيار
ذائف
▁الامراض
▁الصدم
▁الشهور
▁كبر
▁أفض
▁ورود
▁شوقي
▁والكتاب
▁كوادر
▁بحوز
▁التاج
▁لإس
▁73
▁فأكثر
▁أروع
▁الترمذي
▁والأمان
▁طرحت
▁8221
▁التنافسية
▁ممارستها
▁تارة
خطى
▁خزانة
▁اليأس
▁والأهم
▁إنني
▁وعملية
▁8211؛
▁توفرها
▁بالسيارة
▁أبدى
▁ويجوز
▁موثوقة
▁الآتية
▁الضرورة
▁مظلة
▁نشاطات
▁مركزية
ِل
▁والحق
▁مازن
▁اعتبرت
ات:
▁إقليمية
▁يمد
▁واسم
▁أفعل
pd
▁الماكينات
▁وقول
▁بريدك
▁فلل
▁(الخ
▁الاستغناء
▁ممّا
▁صَلَّى
ونخ
▁بقرية
▁هذا.
▁؟؟

▁والدولة
▁دبلوماسي
▁موديلات
و:
▁رات
وتنهام
▁لاحقاً
▁لشعب
ياً.
أنه
▁Find
▁برت
▁خشبية
ذِينَ
▁سوني
▁لاند
▁متوق
▁ناح
▁تستقبل
رائها
▁أوسد
▁المنبر
▁ماني
article
▁الموحدة
▁والتقدم
▁إسب
▁ترقية
عيان
▁ملاحظ
▁وشروط
▁وبعضها
▁المتغيرات
▁الإنترنت.

له

▁أيضًا،
▁مسيحي
▁عقيدة
▁مركزي
▁الاسود
▁خات
فّ
▁دموع
▁اية
▁منها:
▁حكومات
▁شراب
▁فعليك
▁وتدريب
يمكن
بدون
▁حمود
▁شخصين
▁قاسية
▁المحاولات
▁والصرف
▁فاتح
▁التدفق
▁Wh
	أ
▁مديري
▁ايجاد
▁وجودة
▁الفين
▁أظن
الي،
▁النمسا
▁المجوهرات
▁الولي
▁استنادا
▁الجديدة.

▁سيأتي
▁mp3
ستين
▁إضراب
▁ميثاق
▁التصحيح
▁فران
▁الأخت
▁وشرك
▁يعين
▁نحب
▁الجراحية
SA
▁يوني
▁وأعتقد
na
رافيك
شون
▁يتأثر
▁سيل
▁تتنا
▁وقانون
▁ومنت
▁الأسهم،
▁السني
▁شيء.
▁عديدة،
▁١٥
▁يوقع
ating
▁حشد
بي

▁الرقص
▁شوف
▁بارزة
▁المرشد
▁يخسر
يئ
‏}‏
▁أغلق
ابته
لمفعول
▁6,
▁سيخ
▁APK
▁هيك
▁حلوة
▁خطيب
▁بأحدث
▁جماعي
%D9%88
ديدي
▁مطابقة
▁الكربوهيدرات
▁30%
▁وقدمت
▁للأج
▁وقلت
▁ضو
▁بتوزيع
▁الضابط
▁الحجرية
▁نشط
يشن
ضيه
▁معلقة
ركون
▁التدا
▁علی
▁غرا
راند
▁الصخر
▁المباركة
واكب
▁الناعم
▁والدته
▁العادلة
▁الفحوصات
جى
▁تسديد
▁فازت
▁نيويور
▁مرونة
▁آمنوا
▁مواكبة
▁منظر
▁حجاز
خبة
▁للجمعية
▁(E
▁الكبير،
▁الإسرائيلية،
▁خاشقجي
▁أسل
▁تنب
▁/7
ها؛
▁الوطن

rieved
▁الحُ
▁اليورانيوم
▁للهجرة
▁فهى
▁الالتحاق
▁تنقية
سبات
هاينة
▁نفسه.
▁أعماق
▁ارتبط
▁مشعل
▁ونشرت
▁التوضيح
▁عواقب
أَرْ
▁البلدين،
mal
ar.
ابن
▁للتأمين
فلات
▁المسموح
▁بتحويل
▁ومميز
▁استحقاق
فصاح
▁عامة،
▁بقطع
▁الأجور
▁ومنظمة
لخيص
▁الإمبراطورية
2019
▁طلاق
aster
▁ويفضل
▁أمطار
حتك
المفعول
▁‏{‏
▁العمق
▁المنصورة
▁حكمة
▁نزيف
▁لعبت
كيفية
▁السائدة
▁الحديد.
▁المشرع
▁لصحة
▁الحزم
مٍ
▁راق
▁ياف
▁8220
▁بصراحة
▁سيحدث
▁الجامعة،
▁بحثا
▁والشرطة
▁للاجئين
▁ببطولة
▁خلقه
▁سيلي
▁قولهم
دوء
-27
▁تلبي
▁شئون
▁للغة
▁خلاص
▁مفصلة
▁عتبة
▁يشرح
▁اسئلة
▁أتت
▁الأرضيات
irst
▁قصائد
▁والعنف
▁الفئران
▁-.
▁7,
▁ممي
▁Eu
▁الوقائع
▁جها
▁تخطي
عملية
▁ودية
▁الأسهم.
▁والأنشطة
▁مقربة
▁النية
▁بهدوء
هشة
▁Plus
▁تخسر
▁الثور
▁جند
▁بقليل
▁سون
▁الإمكانيات
▁الأكسدة
▁بالموردWhatsApp

ِّل
r.
ميلي
▁مسك
▁ميليشيات
▁ميدانية
▁ببر
▁دولارات
تبات
▁للحركة
▁برق
▁تفريغ
74
▁صلابة
▁برغم
▁لمرضى
طريقة
▁يارب
▁61
quot;
▁(7)
▁عاما)
▁الجزي
لاوي
▁الذرية
رجي
▁بينت
▁السلطة،
▁يوليو،
▁نتوقع
ضين
▁المفعول
▁الأضواء
Hotel
▁تربي
▁high
انق
▁العجوز
َّب
▁وتسبب
جادة
▁ومخت
▁وبرنامج
▁الغدد
▁الاسكندرية
▁المقاولات
▁وبحضور
▁تتقدم
▁بدائل
▁الموقع،
▁أغلبية
ياتهم
ّلت
خلاق
▁وبقي
▁الاموال
▁واللح
▁حصريا
▁يصير
▁وبريطانيا
▁أشر
▁تتق
لأن
▁عوائد
▁الإلكترونية،
▁إعت
▁"هناك
▁تاك
▁وفقدان
▁للعبة
▁تعقي
▁الأحماض
▁ابنته
▁بعق
▁والسيطرة
اقه
▁سياحة
▁قبلها
▁نيف
▁أقد
▁الأقصر
▁وتتضمن
▁الفاصل
▁تسريب
▁بأنك
▁الرفض
-26
▁الآسيوي
▁حرارية
موات
▁كامب
▁ملاعب
▁بالأمس
▁1998
▁والفنية
▁About
▁غَ
▁بالعالم
▁تحقيقات
عْلَمُ
▁وأقل
▁أسد
لشان
▁الأطر
ياً.

▁يُح
▁فبراير،
▁100٪
▁ذهن
▁Gen
▁الدولية.

!!!
وثر
غرات
▁معها،
▁الغازات
▁الرزق
▁هاجر
▁La
▁ومشاركة
oom
▁20%
▁تساوي
▁قطرات
▁تسربات
؟"
▁صلوات
▁فـي
تيه
▁الأحرار
▁لمباراة
يادين
▁ورؤساء
▁وداع
محور
▁عدسة
-28
▁للمرحلة
▁التظاهرات
▁حنان
▁صاحبها
طحن
▁السُّ
▁الاتهام
▁طفيف
▁والقوات
اؤل
▁تعليقات

▁الجزائر

53
▁جديد.
▁بنوك
▁علية
▁وتوسيع
▁تضرب
▁الخزانات
▁(N
جعله
▁الدولتين
▁يهودي
▁للخبر
▁المتقاعد
ضة،
▁تزامن
لموبايل
▁اغاني
سائل
مهمة
▁يصب
▁فيينا
َرُ
لذلك
▁محتملة
▁يقال:
▁قارة
130
▁بوينت
▁اشخاص
▁بتحميل
▁«الش
▁والنجاح
work
▁كتابات
▁ظلم
▁التدقيق
56
▁الهائلة
‎

▁رافع
▁المستقل
▁تُع
رموك
▁المولود
▁طحن،
وظف
▁اهتمامات
▁ابيض
▁عيا
▁"اله
▁شئت
▁هندي
▁خلفه
كان،
▁experi
▁والمرافق
▁الاحتلال،
▁المؤثرة
-A
ream
▁نبض
▁الأسبوع،
▁الخزان
فري
▁النشرة
▁نسائية
▁نشعر
لانكا
يطانية
▁المهاجر
▁الوظيفية
▁تطويرها
▁لتجارة
▁زمني
▁Univers
▁وتصنيع
▁السكانية
▁العبور
▁القشرة
▁لذوي
▁لغز
▁كمس
▁ماين
▁"حزب
▁الحجاز
▁حضارة
▁ائتلاف
▁الواقعية
ماة
▁نجل
▁تعليمي
▁العشوائي
▁واجهت
▁em
▁Shanghai
▁machinery
▁السابع

▁رفضه
▁رول
▁صارمة
▁مستعدة
▁الخالية
▁كلوب
هارة
▁وقتا
▁ديمقراطية
▁المخلص
▁اليكم
▁«الج
▁حجمها
▁الرضاعة
▁الصنف
ليفون
▁دعمه
مرأة
▁وتث
▁تصب
▁المتج
▁التناس
▁Retrieved
▁اجعل
▁وهي:
يل

▁لاستخدامها
▁پ
▁لاَ
ركه
لعبة
/كانون
وس.
▁والمشروبات
▁دى
▁عجل
▁والتسويق
▁جذابة
▁هيا
▁والمحافظة
▁يقدمون
▁الفقري
▁المكافآت
▁طبعاً
▁لتط
▁التاي
▁بلط
▁أعلام
وم.
▁وتحويل
▁فَأَ
▁ونائب
يَا
▁المدينة.

▁البرق
▁غسان
▁زينة
▁حليف
▁المحرر
▁قدمنا
▁للبدء
▁المرغوب
als
السلام
▁والمراكز
▁التعافي
▁اعتاد
▁أحد،
▁وغيرها.
▁١١
▁ذكريات
▁الشيخ،
▁Av
▁76
▁وقرر
مولي
raph
▁الحمل،
▁قِبل
▁شيرين
▁فُ
▁بنشاط
▁فرنسية
▁تبد
ن.

▁العاجلة
▁حمامات
▁البوس
▁ومعنى
ظور
▁حسنة
▁الحكم،
▁معبد
▁ديون
▁اربعة
▁يدعون
▁الغداء
▁الإنسانية،
▁(صور
▁للمتداول
عوب
▁سعره
تربين
▁إص
▁منتظمة
▁Dev
▁الحرائق
▁وحضور
▁والعاملين
و4
osh
▁الامة
ollow
ِّد
▁الدولة.

بطل
▁سئل
▁ولديه
)..
▁الفرنسية،
▁نقي
▁وضرب
54
RO
▁وصلة
▁الجرافيت
▁"هذه
▁الصلح
orp
وكا
وّة
▁والاع
▁للعثور
▁فأجاب
▁أعمل
▁كالب
▁وآلة
▁للدور
شاري
▁شهي
▁وتذ
▁اقليم
▁Red
يحية
▁المنشورة
-23
▁تحديثات
▁الكنائس
▁الروت
ism
▁تقييمات
▁كربي
▁مرفق
yn
▁ميونخ
▁بتعيين
لدين
ووسط
▁كالح
▁صلي
▁ادعاء
طاير
▁وتساعد
▁ميتاتريدر
▁التلاعب
▁كامل،
▁تشغل
▁العائلية
/14
▁78
▁المدفوعة
وعوية
▁والخوف
فاقم
▁المدربين
خدير
زج
بارة
▁الجولان
▁بالقطاع
▁ساعة.
▁رؤيا
▁قدرت
▁التصاميم
▁لكى
▁الشاش
▁ترشح
▁قادرا
▁العمرة
▁الفردي
▁مكانها
▁عراقية
▁سندات
▁درهم،
يانغ
▁احتف
▁ومراقبة
▁فتنة
▁والفساد
▁يرسل
▁كوين
▁أنيقة
▁المسؤولون
▁مايك
▁تدريجي
▁قتله
▁وحذر
اللص
ايب
▁منشورات
▁الاطلاق
▁والإسلام
▁يزعم
▁المناز
off
▁الجديد.

▁تتعلم
▁but
▁والهيئات
BD
▁الأمن،
ساسية
اعف
▁تجعله
الموبايل
▁الثقافات
▁شهريا
▁للإدارة
فريقيا
▁السمسم
▁ويحتاج
راوات
▁والبالغ
▁تحديدا
ريقية،
لوين
▁أنواعها
▁مكلف
▁بإقامة
▁الفرض
▁الدول،
▁الالتهابات
دياً
▁منافذ
▁للتسوق
▁من:
▁التعليم،
▁كج
▁هالة
▁ديار
▁الخطورة
ثلة
ices
▁طيور
حبة
المنا
▁للنادي
▁ولله
▁الشهية
▁خامس
ديرة
▁ليبر
▁أغراض
▁الفحم.
▁بكفاءة
رابطة
▁انتصارات
▁الامين
▁الكم
وائق
▁ثانية،
▁باستعمال
▁الغر
▁الأعداد
▁2،
▁عدوان
▁الانتقالات
▁تعرضه
▁المعتقل
▁المُت
▁النساء،
ث،
▁الملونة
▁الشاشات
▁غذاء
▁لقرار
رحيل
فوف
▁الايفون
▁فرشاة
▁تشتهر
منتدى
▁قدمتها
▁غار
▁عشوائي
▁منهجية
▁عامًا،
▁التحلي
▁وأز
▁لمحاولة
▁المجهول
ضيات
▁بلوم
▁الصدمة
▁سكاي
▁جانبها
▁الميداني
▁المتشدد
TS
▁إنتاجها
▁الحرار
▁أحق
▁يحتفظ
▁حلها
▁البارزة
▁المحل
▁راية
▁خشية
▁الجاد
▁تستثمر
▁يحيط
▁الحياة.

▁جورجيا
▁التوس
▁واضط
زامنا
▁استقطاب
▁وبش
▁وضمن
▁استخد
▁تقلق
▁وقراءة
▁الجسر
▁للالت
▁يؤدى
▁العينين
▁يكتشف
ثرا
▁المعلوم
▁my
▁وتريد
▁تغيرت
▁تقني
▁للإس
▁المعماري
▁واوضح
▁النفقات
▁بالدولة
▁أبريل،
▁السعة
اليه
▁المرتبط
جوع
▁لشر
▁هبط
CH
▁لمواصلة
ادف
▁ثوان
▁للمعلومات
▁الاردني
▁تركيبة
▁لزم
و�

هنات
▁(9
▁الرئة
▁ed
▁صلصة
▁تساؤلات
▁information
▁أَمْ
▁البلديات
▁يجلب
▁لأحكام
2016/10/2
▁وتسجيل
▁افتراض
▁الاستخدامات
▁الموصى
er,
▁واللج
▁بتنظيف
لاقا
ياسات
▁مزاج
lt
▁Supp
دالله
▁one
▁العصرية
نعام
▁وقلة
▁"الط
▁النطق
▁بالشعر
تقدات
▁الانتخابات،
▁أصحابها
▁av
▁الفيزيا
▁أخري
▁وقدرات
▁الأوز
▁ونسبة
ابز
▁رخص
رطيب
▁الوافدين
▁المليشيات
▁التث
▁لجماعة
MA
▁إِن
▁تحتفظ
▁الأُ
▁الجلسات
▁أنهى
▁نسيت
▁حصى
▁96
▁Acc
سيين
▁والمو
▁نواة
▁المرفق
▁اقتر
▁الدعاية
▁هيكلة
▁المترا
▁كمد
▁والصلب
ريفي
ئلا
طاعات
▁تعترف
مته،
▁2500
ظة،
▁نضيف
صره
▁شخص،
▁ونجح
▁......

▁تعلمت
▁الجديدة.
؟..
▁القصدير
▁كعكة
▁ووسط
▁تبريد
▁خاص،
حنى
▁ذاكر
▁حدّ
▁شفط
▁تسيير
▁و

▁العمري
▁؟!
▁والاز
▁وعود
▁المسلحة،
▁متمن
▁الإسرائيليين
▁الاي
▁مدفوعة
▁التلفاز
▁إبراز
▁يحتوى
▁ملائمة
▁الشوكولاتة
▁ثياب
▁المائدة
شفير
ية,
▁الحادة
▁تقليدية
باشر
▁إبداع
▁النوافذ
▁(يناير
▁الكوم
▁علب
▁وألا
▁الفحم

▁المدخل
▁خانة
anon
▁بمعرفة
▁وغيرهما
▁بروتين
▁يرأس
s)
▁الاصابة
▁بخدمة
مي

▁الضبط
▁الأسمدة
▁كلاب
▁الروائي
▁بالولايات
▁شيكا
▁المرسا
▁المقامة
▁الاسترخاء
َّة،
فاهم
▁الضيقة
▁يار
▁تناقش
▁قارن
ed.

▁Serv
▁غوغل
▁قدوم
▁ارسل
▁متفاوت
▁تجذب
تفع
▁العادل
▁لاقت
▁أسلم
تَّى
arb
▁Tag
en.
▁و4
▁وأماكن
▁يدين
▁المتوسط،
▁يحرم
▁لأبناء
▁الأوائل
▁اغت
▁للضغط
▁تو
▁غيب
▁تقطع
alm
لو،
▁لأمر
sm
▁الموبايل
acy
صقة
▁موضة
▁زعم
▁وتجاوز
▁الممتدة
▁ريادة
▁تسليط
وثي
▁والتغليف
▁قفز
▁لحوم
▁تكري
witter.com/
▁الغسالة
▁والتحكم
▁أحمد،
▁للتحميل
▁جنية
أثر
زي،
▁الاستبداد
/تشرين
▁دبليو
ففة
ونين
▁يحتفل
▁وتأهيل
▁امين
▁this.
%D8%AA
▁مقبرة
▁ملاك
▁الاخبارية
▁الإدمان
▁ملحق
ّك
▁أخيرًا
▁وتؤكد
وارق
la
▁المعلق
VID
▁الإيران
▁جسده
▁بأننا
▁2015

▁نهضة
ular
▁شُ
▁الفقيرة
read
لفي
▁أكان
▁بمساحة
▁بالان
▁لنس
▁رجلاً
▁غيره،
▁مقبولة
▁أخط
▁منحت
لدون
▁إعمار
لك،
▁وتسعى
▁اليدوي
▁دقيقة.
%D8%B1
▁العشوائية
▁يُعتبر
▁التكيف
▁معطيات
▁إراد
وماتيكية
ife
عان
▁اللغوية
▁عروس
▁الثورات
...	
▁البنا
▁الحيض
▁الطح
ملحة
‬‬
▁والثروة
▁الطاقة،
نقل
▁الشقة
▁احتياطي
▁الشريحة
▁webs
▁وسوء
▁الضوئي
ـق
▁للشرطة
▁الذنوب
▁والقوانين
▁هاتفية
وتس
▁الرومان
▁مهند
▁اري
▁ومحا
▁الاختراق
▁يؤخذ
افى
▁بندر
▁تدين
▁نير
▁حجارة
قباط
▁اتجه
▁ورث
▁احلى
▁الطاهر
▁بورت
عور
▁تستخدمها
▁بأكملها
▁الكراهية
▁ألبوم
▁واغ
▁لتصميم
ممز
▁هجرة
▁تعارض
اتٍ
صيلي
▁تهد
▁أرامكو
قناع
▁مشاهير
▁إنكار
▁والأمر
▁كمان
▁اللص
▁اندلعت
▁قاض
▁روعة
▁ترطيب
م,
لال،
▁يتردد
▁مشددة
▁يخلو
▁الليرة
ارَ
▁تلمي
▁للحكم
▁تعليقا
▁والاش
▁مرتضى
عاليات
▁الفيدرالية
▁حصاد
▁"دي
▁لاتفاق
58
▁وثيق
▁الأساسية،
فيلد
▁الموانئ
▁الكاكا
هولة،
▁ينال
▁الإقبال
▁أعجب
▁جاذبية
▁راديو
▁المعنيين
▁الشئون
▁تقلب
▁Sn
▁مشك
▁يخطط
▁اصابة
▁حرار
▁قال:

ناده
▁عجينة
اني.
▁وتحتوي
▁وعلاق
▁(H
▁وصدق
▁السويدي
▁لمعدات
عبي
▁الأشغال
▁شمعة
▁ينام
▁الشيعية
▁بيرو
▁فأمر
َيْر
قطت
▁بوتفلي
▁تحديداً
▁1.1
▁ثانوي
▁نيكولا
▁قصارى
▁الدقه
▁سنوية
▁أنجل
نى،
▁الغالبية
▁الفارس
▁البشرية،
▁روسي
▁برلمان
▁نسي
▁المتعامل
▁مبرر
▁ثبوت
▁الهادفة
▁زعماء
▁بالقانون
▁جوف
▁بنو
وتهم
ود.
▁إبقاء
▁التجسس
شتا
▁ثروات
▁للمنتجات
▁فى:
▁رمي
▁الناعمة
اعة،
oth
وهذا
▁للفنون
▁المكلفة
▁وأظهرت
نسحاب
▁راي
▁الفاتح
▁غروب
▁(الد
▁تحقيقه
▁والكويت
▁البروست
▁الاستعمال
▁جيت
▁مقع
▁انسداد
▁اختارت
▁مبيناً
وصيات
▁سابق،
▁كيرالا
▁تشتمل
▁لتدريب
▁آيفون
▁Indust
▁الضيافة
ّمة
▁مطحنة،
▁الحوت
▁الإيجاب
شاهد
▁كبيرة.

▁صيدا
▁سنقوم
▁وعز
▁،وا
ید
▁ويصل
▁83
▁وأمام
وون
▁أسطورة
الوريا
▁ألقت
▁قذ
▁زائد
▁وغالبا
▁مخزن
مياة
▁ابنها
▁بحري
لده
▁جديدًا
▁أغسطس،
▁الحساس
▁/7/24
▁الحديد

▁معص
▁بجهود
▁اعتقلت
▁كاي
▁84
▁أنظر
▁للحامل
▁وَسَلَّمَ
▁وحص
نتان
▁أمض
▁الوزارة،
over
شاور
▁طوله
.co
▁الخاضعة
▁الجسم.
▁fe
▁يكمل
▁وأحيان
▁والتعرف
▁إنذار
جزأ
▁للرد
▁السينمائية
▁الدرج
▁أقرأ
▁برسم
▁جارية
▁التناقض
▁جيد،
عانة
▁رقم:
ال

▁بالمي
▁تجعلك
▁عاصفة
▁الانترنت

▁التهابات
▁مرتك
▁الاستثنائية
▁حاسمة
▁جيران
▁والسياسة
رته
▁فز
▁أنظار
▁ويضع
▁الحفظ
▁مكتبه
▁مـن
▁بى
els
-M
▁الأوّل
▁التسعين
NA
▁سليماني
▁وتداول
▁الفك,
▁وايت
▁ستعمل
▁ولفتت
▁وشكرا
▁لتعلم
▁تنوي
▁والذهب
▁الشعب،
▁البروفيسور
▁ستقام
▁واضحاً
▁والامت
▁بشعب
▁بيانا
إِنْ
ربح
ونداي
▁بتجربة
▁هذي
▁وتحديث
▁طائف
س.

)؛
خخ
obal
▁نفقات
▁أهلي
▁نوبل
▁1440
▁الاصطناعية
▁اسمك
▁كمر
▁يسار
▁النفط،
▁الممكنة
▁والمصنع
▁أشرطة
▁الهام
اينة
▁عريضة
تهم،
▁سنتي
OL
442
▁المزمنة
▁هاتفي
ولها
▁والخص
تقبة
براز
▁رسوله
▁عمالة
▁حجب
▁الحواجز
▁اختفاء
▁الصبي
▁فصار
▁(L
▁رز
▁التعدين,
\\
▁منال
▁int
/2015
▁أهلا
▁الوهم
▁قيل:
يل.
▁يستدعي
موش
▁اللاجئ
وّن
▁الطبية،
▁ويليام
▁البود
▁جائز
yt
▁أَيُّ
▁الرسل
▁المراهقة
▁وشكل
▁فتج
▁التمتع
▁العملاق
▁88
▁الردود
▁باز
▁ونشاط
▁الطائفي
▁الجاهلية
جزئة
▁تناقض
▁الضح
▁يتغ
▁الاما
▁دهون
ing

▁عدّة
▁0.0
▁الموضوع،
▁العاز
▁ماريا
▁مقترحات
▁للطلبة
دة

!!!

▁والقطاع
▁عناء
▁الأقرب
▁فضلًا
علانات
▁كرامة
▁يلق
▁قبضة
▁الأخيرة.

▁الجسم.

تراح
▁تلقائيا
▁لقراءة
▁‏(
واجبات
▁تيمية
▁3)
▁بالرباط
ويله
▁مختارة
▁وصحة
▁نهى
▁الفريد
▁الهوى
▁الانتحار
كتاب
ral
▁بدعوة
▁تصليح
▁شکن
▁نقلة
▁عنه.

▁الأبيض،
▁لمحافظة
▁مستجدات
▁الدولية.
▁خطف
▁يسر
▁الحجر،
▁تدير
▁إبلاغ
▁العصابات
دلات
عالة
▁للتغيير
▁وحكم
eth
▁العملية،
▁لمرحلة
شئ
/39
▁للمرضى
نصر
-29
▁ومستقبل
وثق
▁حذرت
▁مُت
▁تعليقًا
▁الأسد،
▁الشمري
▁الدوس
▁وتحديداً
▁الكرسي
▁87
▁ومحم
▁بموضوع
هناك
▁الدقائق
▁المستوطنين
▁والهدف
▁عبرت
▁بالتج
▁بَيْنَ
▁يخشى
▁تلاحظ
▁نواف
▁بمزيد
▁Tran
▁مصنع,
حيى
▁مثلها
▁إتاحة
▁aut
▁الطائر
▁الرضع
▁فيرج
▁بسرطان
▁والحكم
▁لندن،
▁الكود
▁كربيد
▁تعاطي
▁تطورت
▁الطالبات
▁وسير
▁غادة
▁المفاجئ
▁الاقتصادي،
▁والاستماع
▁الأعلاف
▁كرت
▁مرسوم
▁وأثر
▁مزودة
▁حلمي
▁بقعة
▁عينه
▁دخوله
شة،
باحة
▁design
▁حصار
▁مشيط
▁والرمل
▁الْأَ
▁وطرح
▁الاند
▁ونست
▁الطريق،
▁متزوج
▁سجلات
▁ايف
مئة،
▁القطعة
جلات
▁1980
▁69
▁8,
▁طالبة
▁للعناية
/ح
vious
▁أفضل.
َرَّ
▁لجهود
▁السعوديه
▁وكلمة
▁زينيث
▁بينهما،
▁الحوامل
▁وقب
ممك
▁ويتضمن
قراء
▁البركة
الود
و7
▁نهائيات
▁شوب
▁لونه
▁الدمار
▁البحر،
▁Mobile
▁أيضا.

▁تخلي
▁الطّ
▁القادمة.

▁تسأل
▁عشق
▁بعمق
▁للمدينة
▁وو
▁متعب
ودة،
▁تنخفض
▁وبقية
▁موزع
▁لمي
▁بكتابة
▁read
▁التقي
▁هيثم
▁وفن
▁يقوله
اميكية
ويات،
▁متوقعة
▁الاسد
▁وقص
▁مفض
▁معظمهم
▁Duration:
ضُ
▁قشر
▁العلم،
▁الصمود
▁طوب
▁محليا
▁السماوات
▁لذيذ
▁والدولي
ديش
▁تعنى
رائه
▁يظ
▁المقترحة
▁بروكسل
▁دماغ
▁والإصلاح
▁معتق
▁والواقع
▁حقوقهم
يلون
جوا
.8
ّط
بتين
▁بفرض
وفون
وادر
▁اتّ
▁تار
▁مبدع
▁الصحراوية
▁ورقم
ما

▁9-
▁يطبق
▁التعايش
▁وثلاثة
▁مسابقات
▁الحام
▁هروب
▁ربيعة
▁حلي
▁بمض
نزاف
▁منظف
▁محول
مدت
▁لهن
▁القرآنية
▁ومستوى
▁الإقتصاد
▁وهؤلاء
سنجر
▁-:
▁الداعية
▁تقترب
▁عصابات
▁علشان
▁يستند
▁الكافر
▁المتص
▁ارجو
▁بلدنا
▁قرون
▁بجهاز
▁جيدة،
▁نستعرض
▁بحب
▁توعية
ety
▁Share
▁الويندوز
▁مؤرشف
▁بأكمله
َت
▁شوال
▁ينفي
▁والطلب
▁قرط
▁بأعلى
IL
▁عشوائية
▁القوس
▁الأزواج
م"
▁4000
برين
▁والإنج
▁والأردن
▁المحافظة،
▁المفرط
رقات
▁ومطحنة
▁والجنوب
▁رقيق
وزات
▁(رويترز
▁افترا
▁يتوجه
▁ينكر
▁ميز
▁تكلم
▁ساخن
▁وأخيراً
▁الحبل
▁للبرنامج
▁المستدام
▁سلالة
ware
▁الآخرون
▁الأرثوذ
▁العراقية،
▁الصابورة
وِ
فارة
لقاب
▁يوقف
▁مناسبات
▁الشمس،
▁تمرين
دائه
▁مؤثرة
▁الأخلاقية
▁بدليل
أه
▁ومحت
▁الشكاوى
▁"ست
▁فيب
▁والكهرباء
▁بمقت
▁جاب
يقاظ
زيه
▁مالا
دعى
▁1441
فاهية
▁2021-8
▁تونس،
▁شيوعا
▁حرمان
رعه
▁بصمة
▁هدوء
▁الباحة
▁إقبال
▁استفتاء
▁رهن
▁بلوك
▁تجدد
▁ولح
طوطات
▁"أس
▁لفحص
esh
▁الحال،
▁مشابه
▁والرعاية
▁مستقبلا
▁للذهاب
▁كأنها
▁download
رنسية
▁over
▁الأولى.
▁والظ
▁نوري
▁كلفة
▁ورعاية
0

▁comp
▁الناب
▁وأين
ott
▁الستار
▁الإيراني،
▁ميس
▁How
▁(ص)
▁والوقوف
▁والقوة
ويز
▁والتراث
▁لكِ
▁يتذكر
▁ليم
▁يعلق
تها

▁مجر
▁يتمّ
▁سعرها
وع،
▁المنف
▁حريص
خِ
▁دما
اتور
▁تركه
▁وأمراض
لذي
▁منبر
▁يرتكب
▁إنترنت
شاق
▁كابيتال
▁فاخرة
▁منسق
▁والسعادة
▁السراج
▁المتفق
▁القرب
كتر
يات.
▁وجرح
▁وأنتم
▁دفتر
▁ومصالح
▁دقيقة

▁خدم
يفه
▁حصص
▁للغاية.

▁تراخيص
▁مرآة
▁المطارات
ميك
▁ونز
▁الأميركيين
▁وجامعة
▁العلمي،
▁بالدرجة
▁att
▁البحرينية
▁منحرف
▁المرات
لماذا
▁سعى
▁أزرق
جج
▁النمر
▁بأسماء
▁مختلفة.

▁المبارك،
▁بكأس
▁مذكرات
▁ومختلف
▁العناوين
▁واصلت
▁يان
▁سترة
▁فقه
وهُ
▁الطبيعية،
▁السجائر
▁يعطيك
▁الفريق،
▁Copyright
▁Cap
▁استفادة
▁البلد،
▁لسوء
▁كبير.

%0D%0A%0D%0A
▁و7
ملين
تف
▁بولس
▁الخاصة.
▁الناقد
▁التبرع
▁الرسمية،
▁بدمشق
▁قراراً
▁الإبت
وز،
▁بأيدي
▁منسوب
▁الجنوبية،
ادرت
لفه
▁وَرَ
▁ra
▁يعاد
▁خيوط
▁بالدور
▁صبر
▁لمستخدمي
▁Chr
▁زكاة
▁(سبتمبر
اولاد
▁اعتباراً
▁لَمْ
▁2019.

▁الفيفا
▁والجامعات
▁موباي
▁مبنية
▁سميت
▁صغر
▁ليث
▁الشاحنات
▁وشي
▁المترتبة
▁المنزل.
▁98
▁الإسماعي
▁سيك
▁الدهر
وائده
▁علاقته
▁رفيعة
▁جمعيات
▁يمنحك
▁يكر
▁زيوت
▁تقول:
▁2012،
▁احتواء
▁PS
▁احترافية
▁دوماً
دائل
لتزم
▁بالدي
▁نحصل
▁كحد
▁out
▁ألمانيا،
▁(ديسمبر
وشيال
▁السائد
▁نمر
حيان،
Live
▁قنبلة
▁السورة
▁القادم،
▁صوف
▁رابعة
▁مغذي
▁دامت
▁ball
▁السنية
▁آمَن
▁ومواق
نامجه
▁وكسر
▁بذات
▁المان
▁فرحة
▁تمتع
▁وقواعد
▁العلوية
▁الود
▁وألمانيا
▁والفلفل
▁والعلم
▁الفك.
▁قارب
((
▁تهديدات
▁مهاج
▁دبلوماسية
▁صعد
▁رحل
▁القرار،
▁الأقل،
▁طاز
▁تُس
▁كورد
و”
▁news
▁مشاع
▁وتحتاج
▁تخلص
اة،
▁مطلقا
رجل
لمدي
▁نحاول
▁مشاركت
▁أغلقت
▁فقط

▁مجتمعات
آل
▁الحديد،
بعه
ريّة
igital
▁غوا
ينال
▁رتبة
▁هو:
▁متقدم
▁ISO
▁(يناير)
ى:
▁العود
▁اسود
وردي
▁والمقيمين
هن،
سيك
▁وعقب
▁حولي
ويورك
▁بأمان
▁بانتظار
▁تخلق
دفع
ري:
▁منوها
اني:
▁نزار
250
▁الوضعية
سم،
▁العربي.

بيدي
▁لجذب
▁للتحقق
▁الجهوي
▁وتحديدا
▁الإجهاد
▁بجنوب
▁لتوليد
▁ويدخل
▁والبيانات
▁ويمثل
▁محمية
▁تشاهد
▁المجلس،
ــا
▁الاخضر
▁والمصالح
▁زائدة
▁(مارس
▁الجديد.
▁"يا
▁بياض
ids
▁الرقيقة
▁يجدون
▁الأنسب
▁الترابية
▁بريطانية
▁١٨
▁اللوائح
▁1994
▁الإصدارات
▁التجريبية
▁غانم
▁الذهب,
▁حفلة
▁وظهور
▁المعلمات
هجة
▁منتجاتنا
▁المتوفى
▁انفص
مكة
▁الكترونية
▁إفطار
▁بالنظام
▁غربلة
▁إدارات
▁محاضرات
ser
▁موحد
المدي
▁اللبنانية،
▁كلينتون
▁تأهل
▁غرض
▁التجمعات
▁٢٠٢٠
خوة
▁المسلحين
▁يبرز
واف
مراً
▁وثمان
▁اليرموك
▁بالدولار
▁الدنيا،
▁البديلة
▁فعند
▁سعداء
▁اعتمادا
▁الشاذ
▁تقم
▁مفص
▁المنظم
▁جثمان
▁الضعيفة
▁وشعر
▁Amer
نن
▁تقدّم
▁زهر
▁استفسار
▁فيليب
▁Hu
▁الرؤى
▁1.3
▁وصنع
▁مشهورة
▁للأوراق
مصدر
▁الأممي
▁التأثيرات
▁تقتل
▁باتباع
▁الكردستاني
▁نشهد
▁الشرايين
طلاعات
▁فتكون
▁العامة.
▁نشرتها
▁عفر
▁والتوزيع
هك
▁الهدى
▁Wik
▁بريدة
وغياب
▁فهمي
▁إعدام
▁رغبته
▁العمل

اقين
لية

▁جيم
▁حنبل
▁اظ
▁لقطات
▁لفرض
▁اللاعبون
▁للبيع،
▁٢٠٠
▁توليه
▁اللاتي
▁Book
▁دوارة
▁ولاسيما
▁عينيه
▁الداعم
▁والجزائر
▁à
▁عمه
etails
▁تزوير
▁التمريض
▁خصومات
وخي
▁5

▁الاكتشاف
▁الاستد
▁بيري
▁الأسطح
رية.

▁يقودها
▁الحسنة
▁فقرة
▁للإع
▁يعاقب
▁وتختلف
حقاقات
▁الآلام
▁أمامك
▁اللغوي
ق.
▁تبذ
▁لقمة
▁للمحكمة
▁تريده
▁مضيفه
▁التكفير
▁وأهمية
▁التدوين
▁آلة

▁جيجابايت
▁مهماً
▁تمتاز
قطر
▁لشبكة
▁الاقتباس
▁ويحاول
▁بتسليم
خذة
▁الغابة
▁البداية،
▁أوك
▁سماعات
▁عارية
▁أسطوا
▁Ac
59
و»
▁مجانا.
▁وتعود
▁أسم
▁طلع
▁المعقدة
▁الخالد
▁70%
▁مناقش
▁العون
▁بتعديل
Class
▁الثلاثية
▁مراح
هبط
تحام
▁وتصل
▁وبها
itation
بايا
▁تهي
اركين
▁جدل
▁الصخري
▁للمؤسسات
ائية.
▁بومبي
▁المحركات
▁الاحزاب
▁المصريون
▁يشتمل
▁ارتفاعا
▁تستطع
▁والسكر
▁مدعومة
كرونة
وقين
pdf
▁والحل
الصين
▁تطبيقه
▁الموقع.
▁والأفكار
▁العاجل
▁توكيل
ملب
▁مابين
▁الغيب
▁المسمار
▁كلين
▁بإزالة
▁مساجد
▁حبات
اكرتا
▁للفرد
▁واختتم
▁استراتيجي
▁كاملاً
▁الحداثة
▁تنصيب
ِّم
*

▁والتميز
▁شكاوى
▁Cam
▁صوته
de
▁نراه
▁وسمو
▁حظك
▁المدي
اني.

▁طهي
▁التحديثات
▁الاندماج
▁الموجات
▁ستبقى
-2016
▁الكفاية
▁ابواب
▁وغياب
ِيم
ساتذة
▁mod
▁هنري
▁ترين
▁عباس،
▁مواهب
▁No
▁القدير
▁Gold
▁الغالية
▁يختص
▁ضرائب
▁الماضية.
▁فف
▁يتراجع
▁الفلسطينيون
▁الفري
مّل
▁مداخلة
▁فيكم
▁«ما
ؤنا
▁انتفاضة
▁الأطلس
وكو
▁النزول
▁حاضر
▁"ز
▁الياء
▁الانتقادات
▁طعن
ration
▁والسودان
▁ومهما
▁وانتهت
▁يتحدثون
▁دوام
ملان
▁لإخ
وس

▁لتشجيع
لحان
▁«الا
قاش
▁الإفراط
▁ومواصفات
▁والقيم
▁عداد
▁الأسبوعية
▁(21
▁للأزمة
▁يرتدي
▁سكين
▁أهدافها
▁تشت
vers
▁الجديدة

وائط
▁معقم
▁أوصى
فنج
ional
▁ساحات
▁الجان
▁الأنفاق
▁للسيد
▁كابل
لاديش
▁تقر
▁يضطر
▁نيمار
▁لمعظم
▁بلادهم
▁الكاميرات
سيوم
▁0.5
▁mak
▁فنزويلا
▁حبه
▁الفصح
▁وأُ
غور
▁AL
▁التاريخ:
▁الأوكرانية
▁ندرك
▁وعودة
▁قيادي
▁121
▁اولاد
▁الشاغ
▁فردية
▁تتواصل
▁الرومانية
▁وثلاثين
▁وجدوا
▁العزيز،
ملفات
ثرين
▁تتطور
▁الحقيقة،
▁النعناع
▁الرحيل
▁أرضه
▁عنه.
AB
▁التنفسي
▁المذاهب
▁يدير
▁وهيئة
▁عملنا
▁والسيد
▁مؤش
▁ذاتي
وغا
/19
كني
▁لكونها
ities
▁أفضل،
خرط
▁جبس
▁لبنان

▁لمحة
▁والإسلامية
لراقية
▁واللب
ئبق
▁حضرت
chool
الراقية
▁ونب
تيون
ثين
▁نفايات
▁والبحرين
▁1996
▁وعلوم
▁مرضية
▁وأنظمة
▁اعمل
ل:
▁الرائحة
▁المشرفة
▁بقسم
▁مؤقتة
▁sa
▁المعرفي
▁الفيوم
▁الواي
هائي
▁وأكثرها
▁ثقافي
▁والعروض
▁شوت
▁لأعضاء
▁وممث
▁البطاطا
▁الايطالي
▁الواتس
▁الدخان
▁النكاح
▁إطلالة
عها
▁فلتر
▁بأج
▁للعميل
▁مصرا
kh
▁سياحي
▁كويت
▁الكرتون
▁أسرته
كاري
▁الاستيلاء
▁عجب
ِك
▁النفطي
▁وبج
▁4

▁يعرفه
▁الاعتراض
ذبذب
▁تدري
▁فيمن
ياري
▁الموسيق
▁إيطالي
▁years
▁°
▁يوصي
▁والمشاريع
▁رسالته
كرو
▁ميكرون
▁براون
▁plant
▁إبراهيم،
لاحي
قيها
▁أمية
▁البكاء
▁See
▁ذَلِكَ
CM
▁الأرض.

▁بإنتاج
ُ

▁الراقية
▁المستورد
▁الإطلاق،
▁الحوثية
▁الكاظ
ئًا
شهر
▁النيج
▁الإت
▁المنتج:
▁كأحد
▁أكبر،
▁البالغين
▁البوتاسيوم
▁(ط
▁ريتشارد
▁والفن
▁بإشراف
▁زميله
▁هدفين
cri
▁نفسه.

▁المباراة،
▁خروجه
pert
▁اليك
الرئيس
▁المستشارين
▁جاكرتا
▁نتمكن
▁الناس.
▁لهم.

▁بدلًا
▁تدريجيا
-l
▁بكسر
▁ويحمل
▁حصرية
▁ومتنوعة
▁أصلاً
▁نهائية
▁بإسم
ربها
▁آخ
غام
▁والموارد
حها
▁حراج
▁لأسعار
▁بالمه
▁الرفاع
▁موط
▁عوف
▁يسأ
▁يتف
▁ستبدأ
▁وتصبح
طنية
▁الحفلات
▁لمرض
▁السداد
▁التطبيقية
▁ومواجهة
▁بدايات
▁ابنت
▁قطعت
جيبة
ضوية
▁الشيب
▁الاستعراض
▁فقيل
▁السيارات،
▁للسيارة
▁مفع
%D9%86
▁كالي
▁لادن
▁إصرار
▁الانضباط
▁بالحديث
▁وإيجاد
▁فأس
▁الخبيثة
▁المحدود
▁الدرقية
▁الحصة
سار
▁supp
▁é
▁أثرت
}

▁ممدوح
▁الكولا
ووح
▁رقابة
▁التنزيل
▁تحتاجها
▁اخترت
▁القرون
▁ضدّ
▁Manag
ليمه
▁جنايات
▁إهمال
▁الأسترالي
▁الجسدية
▁بصفته
▁الإلكتروني.
▁للمغ
يتون
▁علاجه
▁والجهد
▁والعقود
▁الحصر
▁يشجع
عتراف
نائه
▁منافس
▁الكميات
▁فرك
▁شفاف
قلها
▁والقوى
▁جولي
▁الجنسين
▁علو
▁Sk
▁فورية
▁تمك
▁مسافر
▁موظفين
▁لفصل
▁وحصلت
▁1997
▁الزملاء
▁بالليزر
▁الإسعاف
▁إداري
▁المستوطنات
▁الأوساط
▁مفق
▁تصرفات
▁تقديرات
▁والمتابعة
▁المناعي
▁الواحد،
▁والبحوث
▁روم
ووتش
▁ويلز
▁الفراش
▁عنه:
▁الثالث،
▁الجنسيات
▁حقبة
▁والعص
▁منفر
▁الفراعنة
▁ضيقة
وائها
▁إبن
▁الفتن
▁عصرية
▁Int
▁تعالي
▁الغاء
▁أنثى
▁بنز
▁التحسين
▁الكتاب،
▁المصحف
▁قويا
▁فوزي
GM
▁تحتوى
▁لمنتجات
▁الشريفة
▁الوسوم
▁تمد
▁المختصين
▁ذكرته
▁إلت
▁وسائر
▁يأتى
تمان
دول
▁تروي
▁inter
▁وبالا
▁وأسباب
▁سوب
▁القاض
رقل
▁أوبك
▁الأحيان،
▁حراك
باقي
▁Queu
▁عالمنا
▁المحاس
▁الأمريكية.

▁الاحتفالات
▁انطلاقة
اشا
▁نأخذ
▁ثَ
شان
▁تعقيم
▁الضربات
▁أختي
plete
لا

ily
▁لإنجاز
▁لاختبار
▁سول
ير.

▁مَعَ
▁الفاتحة
▁بحرف
▁طرحه
▁الجدوى
وتشي
عْمَ
▁240
هالى
bit
▁توتنهام
يهقي
▁كليا
▁قوته
▁"محمد
▁للحرب
▁والأف
▁وسلم)
▁الفيص
هضة
▁مترو
▁إِذَا
▁التالى
▁آت
▁حراسة
▁اللافت
▁وصلوا
▁المناخية
▁السرا
▁سنو
▁والمواقع
▁بالصور..
▁تعثر
▁غزو
▁حَتَّى
▁والشعور
▁الشواطئ
مديد
▁أهلية
▁صوتية
▁التكييف
▁أجهز
▁سيارته
▁الزهراء
▁شوي
▁سنن
▁مألوف
▁يفع
▁خياطة
يحاء
نياء
▁تشويه
قطار
▁الأصابع
▁إطارات
▁لأعلى
▁صحافة
▁يرض
▁واحدة.

▁باغ
▁هيئات
▁الروسية،
▁للتعديل
▁نوعاً
▁تحيات
▁الإعلام،
▁وَإِ
▁العزاء
▁بعد.

▁المساهمين
جر،
نابل
▁والسعي
▁ويغ
▁والدليل
▁إسترليني
▁بالتعادل
▁71
▁والشؤون
اشف
▁بيه
▁تنح
▁سيحصل
دتين
▁الإخبارية

ع.
لاقيات
▁Black
▁الاخرين
▁المكتبات
▁مخز
▁365
▁للانضمام
▁البوليس
▁يطالبون
كول
▁دافئ
▁اختطاف
▁الافريقي
▁العراق.
▁تخصصات
▁أصلي
▁إختيار
▁وسيع
رفه
▁الوان
▁شاركوا
▁لي،
يست
▁وتونس
▁الأقمار
▁سق
لكة
▁شوط
▁الغازية
▁م،
▁سكا
▁المبتكرة
▁يتمكنوا
▁عبيدة
▁محتج
▁time
▁معط
ياك
▁موسيقية
▁للمريض
▁الخل
▁المملوكة
ضرر
▁أجور
▁تتوافق
▁القراءات
▁والحوا
▁كوسيلة
▁بسحب
▁الإرشاد
▁مكافآت
ality
aint
▁3D
▁الصحي،
▁العاطفي
▁والفضة
▁المجاميع
▁ممنوع
IA
▁سعيد،
▁العربي.
▁ساعدت
▁Amazon
▁ورجل
▁موطن
▁الحزبية
▁يلحق
▁Local
▁برز
▁النصب
فساد
▁متكرر
عبان
▁الوداد
دتهم
▁والمدارس
▁أطعمة
▁رياح
▁الخرج
▁المستوردة
▁الأخبار

▁منتخبنا
▁Office
داسة
▁زوال
▁بالمناسبة
▁والخيارات
▁ومجتمع
▁وأبد
▁لاعبو
▁ووتش
▁International
▁يتصدر
▁الليل،
روم
▁بدءًا
▁ل.
▁قير
▁الصوفية
خرة،
▁والمخت
▁جنيه.

لينا
▁المدني،
▁الملحق
هبة
▁إيرانية
▁مخيمات
▁أحجار
▁تين
▁نيت
▁والدواء
▁فإني
وال،
▁ورصد
▁المكالمة
▁بالمنزل
▁مقهى
▁صغيرة،
▁ماع
ours
▁وود
▁ردة
▁الحبر
▁ساند
▁سيج
اخستان
▁وختم
▁الزبدة
▁وطالبت
▁!!!
▁حصوله
▁يفصل
▁تموت
▁ليالي
▁محمّد
▁للثورة
▁دراما
▁الخمسين
▁لك.

▁arabic
▁ميجاب
▁إبعاد
دائها
urr
▁تداولات
▁المتمثل
▁والوقاية
▁صيحات
▁رانيا
نو
▁إجبار
▁أجراها
يزة،
▁انتقاد
▁الحذاء
▁حلال
MS
اَ
▁ولديها
رائحة
▁(30
▁برنت
▁جنرال
▁GT
▁والكتابة
▁Ali
▁الباطل
51
▁تنق
▁ابوظبي
▁العينات
▁مخلص
كُمُ
▁والمساعدة
▁ورأس
متد
▁الخشنة
▁ازدياد
▁بالتحديد
▁صحراء
▁المرونة
فحة
▁الاستعدادات
▁يسعون
▁اطلق
تي

▁المصلين
▁لتشمل
كُم
▁والشراء
▁طبيبك
▁وتجدر
▁عاق
هوت
ايس
▁تتهم
▁ألت
حدّث
▁ومشاكل
▁خليف
▁فالد
▁[الب
▁يتداول
▁1.0
▁ليونيل
راقة
▁الشياطين
▁الأبرز
▁المطور
▁عطا
▁البروتينات
Ex
▁ميليشيا
▁pic
▁الطرقات
▁الصلوات
▁رصاص
▁أبها
▁المواطنون
▁المجتمعي
درو
▁الشرائح
▁إضاءة
▁ستظهر
▁لبناني
▁شعيب
▁المنحة
▁وذوي
pos
▁والتحليل
لمقيم
▁والتحديات
▁عليه

▁ريفي
▁العراقي،
لسطينيين
ركي
▁مختصر
غانية
▁بالملا
▁البدني
▁بعد.
▁وجهاز
اهن
▁بندق
▁للوزارة
▁بممارسة
▁التحركات
عًا
▁لأق
موي
▁ونقص
▁المشتريات
%)
ولعب
▁المذكرة
قاً
لّى
▁تاس
▁لتبادل
▁المهرجانات
▁(199
▁للطالب
▁الحلوى
▁المغادرة
▁للبناء
لاش
▁الْعَ
▁المشركين
▁التتويج
ثث
▁وجعلها
▁لولاية
▁الوزارية
▁cs
▁مزاد
رأة
‏.
▁اضرار
ضانات
▁ويعتمد
▁شعرية
/s
▁متابعات
ئبة
وتة
▁تداولها
▁لافروف
▁تقارب
لوغ
▁والفرق
▁حفص
رسون
▁تتحكم
▁قائلة:
ـات
uary
▁which
▁نبحث
▁والتصميم
▁العولمة
▁الموسم،
▁وقي
▁رعب
▁والأب
▁حنا
▁رسالت
▁للمؤسسة
▁الأول.

▁وبيان
▁المركزى
▁اسهم
▁مقاتلي
▁الممتازة
▁الروماني
▁السوق.

عا،
▁(أغسطس
▁YouTube

لودية
▁للايفون
▁معني
▁الخاصة.

▁الحيات
واله
▁القطاعين
▁رسميًا
▁فيلي
▁لتأسيس
▁حبيبات
▁ينتمون
5]
▁ووح
▁بالدا
▁AS
▁وعبدا
▁لَكُمْ
الودية
▁product
عرّف
▁جلوس
▁تدوين
▁11.
▁كويتي
▁وعص
▁وفحص
▁ركاب
▁تدعي
▁وهن
▁بته
اءُ
▁شقيقه
▁المقادير
▁والاتصال
▁التيارات
ople
▁الهرمونات
وأم
▁العراق.

ائه،
▁البنى
▁سوريا

▁العداء
▁صبغة
▁والتفكير
▁تخفيضات
▁وقيام
▁أشغال
▁مائ
▁القبيلة
▁ليح
اللهم
▁حزين
▁وإنه
▁مباشرةً
▁تبث
▁الشتوية
▁خطرا
▁المغربية،
▁الكارثة
▁Ter
▁بيلا
▁الطلابية
▁والحقوق
Fi
▁خريجي
▁الاولي
ساوي
▁يتجزأ
▁اجتياز
▁الحث
▁الخرائط
▁79
▁التلقيح
▁لري
المقيم
▁مليء
▁مثلث
▁الكفاءات
▁وأحدث
▁وأفكار
▁المستقبل.

▁ثقب
▁فائق
ت

▁إخطار
ذرت
▁يتص
▁الودية
▁10-
▁سلخ
▁قطب
▁عموماً
▁متقد
▁نتائجها
▁الاعداد
▁المستثمرون
▁التجارية.
لوة
ويلي
▁عباده
▁وجدة
▁الأخير،
▁بالصحة
▁جرينتش
▁●
ased
▁يحسب
▁أنفاس
▁ومشاريع
▁Ass
الذهب
▁المفوض
AP
▁Mod
▁تعجب
▁لبث
▁سيمونز
▁بالعراق
▁اتساع
▁الحالي.
▁ريم
▁الشركة.
▁المدعو
لمني
▁الباري
▁للتنظيم
▁المشاهدة
▁ولعب
▁الدولي.

▁Page
▁وسلوك
aterial
▁امل
▁فوضى
مومة
▁الدُّ
▁الناتو
▁وعروض
▁تدمر
▁92
▁Previous
ء،
ثُ
▁الرصيد
▁نطق
▁القفز
▁المعز
لاميين
/س
▁مولاي
▁الحدودي
▁تركيا

▁التشكيلة
▁نوعين
▁أبوظبي،
▁نبينا
عرّ
ابك
▁الخا
▁الأجنبية.
▁والحب
▁use
▁السمات
▁وتكوين
▁لطرح
▁دفعه
كيمة
▁أهد
▁تيسير
▁احتجاجا
▁الجند
ead
▁الخالص
▁فاذا
▁البنود
شياء
▁وسبل
▁مصطلحات
▁فاكهة
ئته
▁دورتمون
▁الحلبة
▁كاشف
ينها
▁قارئ
▁بالراحة
▁الغموض
▁التكليف
▁بامتياز
▁وللح
▁مجتمعنا
▁سابقًا
▁المكافأة
▁اتضح
▁بأب
▁شكلها
▁يكونون
▁الإقتصادية
▁مصاريف
▁الاكتفاء
ا)
▁الرضيع
▁بارتكاب
▁أطلقها
▁حاسوب
▁الجلي
▁ليص
▁وليبيا
▁الْق
▁تحمله
▁نتي
▁طبقاً
لان،
▁التساؤلات
▁ويتوقع
▁الاختراع
▁ولغ
▁حضرة
▁المقبول
▁الشهرة
▁أتم
▁تيك
صائل
▁بالفوز
▁التحية
▁وثقافة
▁تصديق
▁الدراسة،
▁شجاع
-2014
▁sy
▁رؤيتها
"؛
ravel
▁طَ
▁لسب
▁دلالات
▁الساحلية
▁يستعرض
▁بظ
▁وسلا
لسون
▁يشر
▁[2]
▁أوروبا.
▁الضعيف
▁للمساهمة
▁أولها
شام
كدة
▁الأفقي
▁عكا
▁صـ
▁(سبتمبر)
كتوريا
▁الكابتن
▁بسام
▁المقيم
▁القاعة
▁أحدكم
▁إجمالية
▁الاستهلاكية
▁سبائك
لافات
▁إياها
▁أوقف
رازات
▁الحاص
▁SP
▁رضى
▁الماركات
▁نط
▁الحرجة
▁ينخفض
▁المنطقي
▁كيري
▁صان
▁وتجديد
pap
▁(مت
ham
▁تطعيم
▁البرك
▁للإن
▁اعلام
▁أدي
▁للمنزل
▁يغيب
▁اتش
▁جديدة

▁صبحي
ور.

ألف
▁(مساعدة)

ضرة
▁«الن
▁سوريا.
▁المصمم
▁المبتدئين
▁الألبان
▁خف
▁فكما
▁المحمد
▁والأحكام
▁النامية
▁بدعوى
hatsapp
▁المتصلة
▁ضمانات
▁واعتماد
▁يتعدى
▁الخريجين
▁12.
▁المُست
والى
▁أحداً
▁المنقولة
مبراطورية
vest
▁أراض
▁والطلاب
▁جوني
▁مائية
▁وتعلم
▁وهمية
▁الدفاعية
▁يخفف
▁المثلث
▁للصحفيين
▁الوزيرة
رق،
▁القنصلية
▁تغلق
▁والطالبات
▁93
▁لحالة
▁الاشتباكات
▁القش
▁التركي،
▁الاسباب
▁وقوله:
▁ترتدي
▁بلده
هامات
▁جوزيف
▁مصداقية
▁1987
▁للمنظمة
▁الاستطلاع
▁لاز
▁وانق
وازنة
ناح
▁قَوْ
▁لخفض
ل"
▁باطن
ممه
▁سيدات
وظيفة
▁حاجات
▁الشح
▁ونف
▁وجيزة
يات

كانت
stru
مرير
▁واللغة
▁الدعوات
▁يتصرف
زمون
▁ودولي
its
َّت
▁واجهات
ized
▁وآثار
▁التقسيم
سحق
▁وممثل
▁نعود
▁السطحية
▁المحتلة،
▁حبيبي
▁ضياع
▁الحقوقية
▁مسبقة
▁متشاب
▁إنتر
▁Hotels.com
▁الاربع
موحة
▁بصد
▁النوم،
سيوية
▁خضر
▁وإجراءات
▁الحبي
▁مباحثات
elle
ِّدين
▁الشبان
تصار
لاء،
▁ورؤية
▁والبدء
▁لفائف
▁(مارس)
▁الإباحية
▁قضائي
▁الفارسي
سيو
▁المحاضرات
▁الاساسي
▁المضادات
لراق
▁الفخذ
▁gl
▁الحوثيون
▁يهاجم
▁بالصورة
▁الممثلين
▁المخاط
▁بعضنا
▁كوني
▁هوم
▁(...)

▁المزرعة
▁لاد
ضطرابات
▁المرئي
▁حاضرة
▁يوحنا
ائية

ield
▁أساتذة
▁sur
▁مطلقة
▁توش
تيم
▁والنز
▁الطاقات
▁طُ
▁وأقام
▁السَّمَ
▁باسمه
kt
▁Trad
وولي
,ت
▁نينوى
▁للأرض
▁تشرف
▁تجرى
▁Isl
▁الدف
▁حائط
▁tran
▁عانى
▁الحالات،
▁احتاج
▁التوالي،
▁بالرصاص
▁بروف
الراق
▁الصديقة
▁بإستخدام
▁(18
▁تفعله
▁الفترات
GB
سبي
▁تعلمون
▁للاتصال
اله،
▁الاطراف
▁حاص
▁أرت
▁ممك
▁اهلا
▁تصميمات
▁Ap
باري
وهين
obe
▁المجالات،
▁تشريع
▁وأخبر
نتهي
جرس
▁وأر
▁تعداد
ووحدة
أفضل
▁قادرًا
▁ودورها
▁الكتف
▁بقراءة
▁91
▁لدوري
▁لوت
▁الضخم
▁الإلكتروني

▁ذلك؟
▁الاجتماعي.

زيت
▁فلت
▁دجلة
▁الالات
▁أسأل
▁ويطلق
▁الحمر
▁باحثون
▁ومدر
▁الخردة
▁والتزام
▁تتص
▁أصر
▁شور
حتي
▁الاستشارية
▁يجعلنا
▁du
▁سحق,
▁جداول
▁حراس
▁تحدثنا
▁باردة
▁القالب
▁للسهم
▁بشاشة
▁publish
▁جول
▁بإط
▁كرافت
احبه
▁النعي
▁الإضافة
▁تنقسم
▁تمثال
▁"لن
▁زملائه
▁متص
▁رفح
▁Bitcoin
▁بالدوري
▁اليونسكو
قعة
▁بساطة
▁حلويات
era
▁والمساواة
▁انترنت
▁البيضاء،
▁زراع
ايم
▁اوب
▁الكوفة
▁بيش
▁الطارئة
▁قراره
-f
way
تحميل
▁ووحدة
▁جوم
▁تحكيم
▁الاصط
▁لخطر
▁أئمة
▁والإرشاد
▁تتداول
أييد
▁ومي
▁الجابر
▁تزيين
▁مهلة
▁الدعا
▁أكثر.

▁عبق
▁تحققت
▁فقرات
-2013
▁سنة.
▁أكرم
▁إحباط
▁مفاجئة
▁والتكوين
▁الثروات
▁سواءً
▁(ديسمبر)
▁خبي
▁بدائرة
ضلة
▁رده
▁بالمرا
▁الرخام،
▁شعبه
▁لمنتخب
▁وأداء
-T
▁أديب
رشد
▁(نوفمبر
▁أخص
▁وَتَ
▁الانتاجي
▁علمنا
فولة
ردام
▁عمر،
▁البشر،
▁الموقعة
▁المثقفين
▁عك
▁توتر
▁وسهل
ويّة
▁عالما
▁المملكة.

▁Sec
▁ووضعها
▁الأحدث
اسات
صى،
امِ
بسات
▁250tph
▁الخيري
▁بدم
▁للزواج
▁Me
▁اليومية،
▁ets
▁جمعها
▁السمعة
▁المخاطرة
فيها
لمخر
▁الاصدار
▁الواضحة
▁بالشراكة
▁وصنا
m

......
اقدم
▁النظامية
قطب
in.
▁يخبر
▁حكومته
▁لاغ
▁هناك.

▁مرنة
▁كوش
▁الاجابة
▁أموالهم
▁المصور
▁لقول
▁النبوة
▁للحي
زيم
▁بابل
▁نفعل
▁تمهيدا
▁بالطرق
▁بيتك
-2015
▁ضارة
ero
ضلات
▁المستقبل.
▁مضحكة
▁ومساعدة
▁فإنَّ
▁الشمالية،
▁128
▁الرئيسية/أخبار
▁طلق
index
▁الأربعين
alt
▁احترافي
▁فردي
▁لكشف
▁باهتمام
▁ملاءمة
▁يمتاز
▁الزبادي
▁طلحة
▁مشاهدات
▁خاف
TP
▁نووية
▁المونديال
▁التدريبي
▁ظلال
▁للدا
▁الزمن،
وكيا
▁وبنات
▁بعودة
▁كره
▁af
▁وتمثل
المخر
▁الاعتداءات
▁متواصلة
▁دمر
▁0183
رضت
▁تأثيرها
▁وكلها
▁والمطاعم
%d9%8
▁Arabic

▁شعره
ووض
▁العمومي
▁لوسائل
▁الرومي
▁معروض
▁الحبس
جّ
تراوح
▁خلافا
▁الزميل
▁المحلي،
▁سكوت
▁فلاح
لست
ينين
▁الأثناء
▁بيرام
▁١٣
▁صديقه
▁برنامجها
▁وخفض
▁تحطم
▁نكهة
▁معجون
▁المواعيد
▁مارس/
▁ماسة
▁فتر
‏)‏
قتنا
▁حكايات
▁بروز
▁كالف
وابة
▁سيطرت
▁ولولا
▁تحويلها
▁والتجارية
▁العريقة
▁داني
▁حجري
▁بهاء
▁لحملة
▁نود
ani
▁سو
▁الطاع
▁والتقنية
فاز
▁الخرسانية
▁كتائب
·

▁ق.
▁وكر
داها
▁الطازج
▁9,
▁الموقع

▁للاطلاع
▁لبلاد
▁فلابد
ائية.

▁بالخير
لزامية
▁الصغيرة،
▁صورته
p.
كة،
▁التنازل
▁أردنا
▁وظهرت
▁الكروية
▁(ل
▁غلب
وجا
▁أمتار
▁الطرفان
▁لشئون
▁يوم.
▁1970
▁بنسب
▁المكتوبة
erson
▁حرا
▁124
استخدام
▁خديجة
▁(15
▁ادعى
▁كلث
▁بالأساس
▁باركر
▁نالت
▁الطالبة
▁حكمت
▁النقض
▁تحقيقها
Pl
▁الحصان
▁العمرانية
▁المستحقة
▁بالقرآن
▁مجوهرات
خيم
أكثر
▁افتراضي
-2011,
رعات
▁وَكَ
▁مكلفة
▁بأع
▁video
▁دستورية
▁الحلوة
▁الزينة
▁الطاقم
irect
2.

▁تشيلي
▁جديده
▁الراق
▁AC
▁ونتائج
▁عملاً
▁بيان،
▁الجزائريين
▁وبك
▁الضوضاء
▁مستودع
▁إبان
▁للموظفين
▁81
ايق
▁الحضرية
▁سيح
ras
زيران
▁رومانسية
▁سمة
▁باهظة
▁المحاولة
▁1991
ثيق
▁عقدة
▁قشرة
▁صوتي
▁صادرة
▁eu
ipp
هاك
▁تظ
▁أنكر
▁الاسئلة
▁التكنولوجي
▁الانتقام
▁بالمعنى
▁البعيدة
▁والروح
يان،
▁وبالتالي،
▁انتظ
▁بآخر
▁حجاب
▁الضوابط
▁الباه
▁مخرجات
▁الحقن
بيلية
▁ستين
غلبية
▁الجزائر.
عتهم
▁وتشكل
مجموعة
ئتها
▁العليا،
▁لموسم
أب
▁الريفية
▁ملغ
▁المصادقة
▁حساسة
▁الثمينة
ضيرات
▁لاتحاد
olution
▁المخر
رحمه
▁أَيُّهَا
▁(22
▁الخلاص
Al
▁سلبا
▁بقضايا
▁وتضيف
ipedia
▁آذار/
ظير
▁للاحتفال
▁محتوي
▁فمثلا
حديد
-power
▁العملاء

مأنينة
ely
▁الجيوش
▁ليلاً
▁البدر
▁حققه
▁دولة،
▁وولي
تاة
▁النشطة
يماويات
▁وصحبه
▁ago
▁بنتائج
▁وصلاح
▁الدرك
▁‏‏
▁الحق،
▁ويأ
▁خريج
▁Par
▁ضربت
▁الشكوى
▁تشهده
vent
جبت
▁للمغرب
▁محلل
▁الرياضية،
▁89
ارجه
▁وناش
▁لمحمد
▁والدعوة
▁بالبلاد
▁"المس
▁بالقلق
بيس
▁تعرفه
▁بشخص
lex
▁والمجلس
▁مستغ
▁تقييد
▁الفك،
▁السيّ
▁«ق
▁مواضع
▁تجسيد
▁أجندة
▁فخامة
▁كوري
▁الدافع
▁اصل
▁لاجئ
▁نشطة
▁ومنظمات
▁استثنائي
▁الفك

▁24

▁كثب
▁الصاعد
▁اقدم
ould
▁والأمراض
▁تقلبات
▁أكواب
▁شفرة
▁وتوجد
▁زوجتي
▁أوغندا
فيديو
▁سبباً
▁لنفسك
▁وحالة
▁1/2
▁مرارا
▁الهجري
▁اشتهر
▁للعلاقات
▁خَلَ
لطنة
▁العين،
▁الكونغو
▁النقيب
):

▁نوت
▁1995
html

▁cookies
▁المورِّدين
▁AR
▁الروبوتات
ارو
▁حديثي
▁rock
▁تأسيسها
ونيك
▁فالي
▁المجهود
▁عدة،
▁عظمة
▁2021.

ادى
▁بشبكة
▁أفر
▁الديموقراطية
▁بعضا
▁عرضا
▁الغزل
كسب
مِينَ
▁الماضيين
▁للبقاء
▁المحال
رررر
▁المنافذ
▁باسيل
ائجه
▁وكنا
▁والعربي
▁المجتمع.

ذية،
▁ID
▁حالا
▁والتطور
▁عن

▁لتفادي
▁ونع
▁العام

▁الحالة،
ورس
▁إلحاق
▁الميلادي
▁الأقوى
▁عقلية
يدو
▁الشوفان
-2010,
xx
مده
▁الخضوع
▁القيادية
▁والمصادر
▁منتخبات
▁وأنّ
▁وبلا
▁وشباب
لَة
وار،
▁والفواكه
لوكوز
▁الصوما
▁ألقاها
▁الصلاة،
▁منظفات
▁يستجيب
▁تخلو
▁المألوف
▁تحضر
▁العربيه
▁حلت
▁فربما
▁وأحيانا
▁وتضمن
▁سيبقى
▁والحديد
▁الكبيرة،
▁والنشاط
▁جافة
▁عالية.
▁منتشرة
▁وعلينا
▁النداء
يمي
▁الزاحف
▁الصراف
▁حياته،
▁يفضلون
▁[الن
▁فاخت
▁طلي
▁لتست
▁يعرفها
▁وتعتمد
▁ابتداءً
▁برنامجه
▁الشبابية
▁هولا
▁مقاربة
▁تتفق
▁الهيمنة
▁والإرهاب
نعت
▁part
▁الجزئي
▁الاتجار
▁التسهيلات
▁لَهُمْ
▁أقبل
▁بالكامل،
▁دبي

▁الشروع
px
▁أعيد
▁نصرا
▁الضيق
ليّة
▁اكسسوارات
▁والعد
▁الأناضول
▁وسريعة
▁وقضايا
▁محج
▁2.0
▁وإغلاق
▁دبي.
▁رأسية
▁المعاهد
▁تواجهها
▁اعجاب
▁رعد
▁وتسليم
-in
▁المساس
▁فهرس
▁العَ
▁الإفتاء
▁pic.t
▁الارهابية
▁يوجب
▁الصبح
فأ
▁فأت
▁الموجودين
▁هدفاً
▁اليومين
▁استخدا
ور"
▁تشغي
▁ضمت
/p
lam
▁تضطر
▁موجز
▁تقاطع
▁تشفير
▁المتراكمة
▁ويتكون
▁أعمق
▁دبلوم
▁بوح
▁أرادت
▁لوق
▁تنشط
▁الحضر
▁مهن
نازير
ّمت
▁بالشكر
كيزة
▁جيدة.
▁وعناصر
▁للصحافة
▁جنة
▁الشيخوخة
▁آسيا.
▁Ant
ه؛
elop
يباد
▁صفحتها
▁quot;
mi
▁يمشي
▁لأهم
▁العاهل
▁أمناء
▁الأصناف
▁التجهيزات
▁وخصائص
▁Per
▁مرغوب
▁صهي
▁الموجه
▁والطحن
▁المنجم
ابد
طدم
▁يتزوج
ka
▁فالص
▁ورواه
▁الصيفي
▁لرجل
▁حكما
كالها
▁تتوافر
▁رذاذ
▁والمدن
▁أعمدة
انته
▁حقها
▁وتنق
▁دعما
▁أفريقيا,
▁ساوث
▁(أغسطس)
▁التميمي
▁بالإسكندرية
▁فتب
▁Mon
▁تتد
▁عشاء
▁بوكس
رياً
▁ء
▁موقفها
▁الأمنية،
▁حقهم
ource
▁يراها
▁لاكتشاف
▁التشغيلية
▁يوفق
▁تولد
▁الناجم
▁والور
▁موزعة
اعه
▁رمزي
▁الأولى.

▁التعليمية،
▁اغلاق
▁ببرا
▁ووس
weet
يهَا
▁اسمع
▁تلقائيًا
▁ووض
▁الكيماوية
▁الاكتتاب
▁والعناية
اهو
▁رفاق
▁جديد

▁تشجع
▁الفني،
▁الطوائف
elt
كود
▁حِ
▁ابل
ers,
▁Port
رجت
▁للأجهزة
▁GMT

▁Search
ول.
▁الصعوبة
▁ملاحظة:
▁منهن
▁الاستيطان
▁عقاب
▁دولار

▁اللثة
▁وحيدة
▁يكثر
▁ميقات
جارات
▁أفع
▁كغ
▁جمل
▁عدمه
▁اذن
▁المسبق
▁علن
%.
DA
سوة
طلقت
▁فسأ
▁كمح
▁سويت
▁محمل
▁العلمانية
▁Sport
▁للقرآن
▁ايا
▁العمالية
▁للتطوير
طرنج
▁الدولة.
براً
▁شاع
▁كلامك
▁تتطلع
▁كبيره
▁بلاستيكية
▁"فيسبوك
▁الاضطراب
كمه
▁وخمسين
▁بإع
▁بقلم:
▁CNC
ien
▁التكت
▁مؤكدين
▁التابعين
▁فجعل
▁وكفاءة
رّك
▁3:
بة.
▁والاستمتاع
▁وزيرا
▁مواسم
.‏

▁الانفتاح
▁صلة

▁الإنش
▁نكت
▁للأندية
والم
▁للمشاريع
▁بالأمن
▁الأسعار،
▁مضط
▁المحضر
ضطر
▁للوف
▁استبدا
▁إجرا
▁احتفالية
mun
▁Leb
▁المنشأ
▁الإذا
▁Business
سيون
▁أجيال
▁جزيئات
▁الحمار
▁والجهاز
▁بوقت
▁قافلة
▁جبران
جها
▁الحاضرين
ووافق
▁للتحكم
▁سيبدأ
▁رؤى
▁تسهل
▁الجبار
▁بمجا
▁مقدمي
▁التطوع
ُد
▁الغوطة
▁سنتعرف
▁واهم
▁وأدى
▁�

▁واستعرض
▁ارتكب
▁ومهارات
▁تستدعي
▁آنذا
▁وتقارير
▁كله،
▁مفادها
▁فتيات
▁طارد
نوفمبر
▁المعاش
▁لتوزيع
▁للاستمتاع
▁القلبية
unn
للوم
▁الإجماع
▁للآخر
▁الاستحواذ
▁بإعلان
back
▁جولد
مٌ
▁"الغ
▁بالمجلس
▁نقرأ
▁المتبادل
▁امتدت
▁1/
▁المركزة
▁ضئي
▁جبير
▁المجفف
▁شتن
▁لتفعيل
▁2014

▁ديزني
▁اعتقل
▁مجزرة
▁البحرين،
▁الأوان
▁تتك
▁به

▁باليد
▁والتعبير
▁يوليوز
ranite
▁القسط
ures
ول

▁الشباك
عمير
▁المتكرر
▁كفاية
▁وبمجرد
▁للبطولة
▁فيا
BS
▁المجرمين
ونك
▁شابة
▁تخلف
▁والأستاذ
▁المصدرة
▁الإنسان.

▁يدها
▁المصممة
▁للنهوض
و2
▁التجاعيد
وجين
▁مطابخ
▁January
▁تجهيزات
▁توصية
▁مستحيل
▁أدم
▁الشيف
▁الوزن،
▁خصوصًا
▁سيساعد
▁1975
▁الحليم
▁والاج
▁النواحي
▁الأمور،
▁تبعا
▁رقمي
▁مبعوث
▁4.5
حجر
▁أومي
▁لتوسيع
▁94
لين،
▁ملحوظة
▁يستغل
▁تتصل
▁والسفر
▁عفيف
▁صدقة
▁ويؤدي
▁مربح
▁ودين
▁الاكبر
▁ظلّ
ثائق
ارين
▁بوصفها
▁الكرة,
▁(8)
▁والدكت
▁ومراجعة
▁وضح
▁الأوروبية،
مايو
▁الثورة،
oor
▁ومحمود
عباء
▁أوروبي
▁August
ما.
▁اجتماعه
▁مجه
▁بالدم
لملق
▁بيتا
كنه
▁فعليه
▁اعتمادًا
خائر
▁نضال
▁يتعارض
▁والخضروات
▁مشواره
▁مثبت
▁إمت
▁المئوية
▁سيعمل
52
▁ناجي
▁والحرية
▁باند
▁الأخلاقي
▁وسبب
▁Archives
▁يُذكر
▁الموضع
▁RT
▁شيخنا
ونيات
▁إشراك
▁ارخص
▁القطيف
Ch
▁الوراثية
اللوم
▁يكسب
▁البيضا
▁إحضار
▁لأخذ
▁فيست
▁ماليزيا.
▁الجبلية
uter
▁والنحاس
▁________
▁إنّه
▁قوتها
▁ببغداد
▁قلوبنا
ابة،
▁ودولة
▁الحَ
▁البلجيكي
▁كاظم
▁اقرب
▁أيديهم
الملق
▁وقته
▁قاعات
قدّم
رعان
▁فالله
▁ينتقد
▁ووافق
▁بالموضوع
ابرة
▁grinding
▁أحت
-B
▁بمجال
▁معين،
وهان
▁مــ
▁Ah
▁يعقل
▁المنطلق
الفات
▁ولدينا
▁والسؤال
▁الأسس
▁الشائع
▁بالفعل،
pc
▁مصور
▁للكهرباء
▁وشملت
▁الوجهة
▁السكة
ولندا
▁2021-10
▁وحرية
▁ينهي
▁التأخير
▁مضاف
▁ويعيش
▁الطبع
رى،
▁تعطل
▁IN
▁اللذان
▁عبير
مصان
▁قَبْ
▁وموث
▁وخالد
▁الصين.

▁يمتلكون
▁لرح
▁للعيش
▁العريضة
▁والأسعار
▁يراد
▁الصحيح،
حتنا
▁مضمونة
أثير
▁برح
ادته
▁الثق
▁والوقت
▁الروحية
▁برأي
▁البؤ
قصاء
▁لإضافة
▁"لي
▁تطلعات
تاحة
اعفات
▁القفازات
▁الشريف،
تاج
▁وحدد
لِهِ
‏‏/1442
▁مستعمله
▁منتجاتها
▁القضيب
▁الطاعة
▁للإنتاج
▁والجودة
abl
سترا
▁أبحث
▁فكرية
▁أضيفي
▁أتلتيكو
▁القاسية
▁انتظام
▁تصريحاته
▁السائ
▁خيال
▁الملائمة
▁تقريرها
▁إيقاع
▁يواجهون
▁الصحى
▁البطريرك
ااا
▁الخليج،
▁الصبار
▁السال
▁والأدب
▁وقررت
▁وتعليم
.(
▁التراخيص
اُ
ient
▁التوراة
▁محق
▁فسيكون
▁وثالث
▁بيبي
يلو
▁تنزل
▁جثث
▁تفصل
▁equipment
معات
▁شواطئ
▁(نوفمبر)
▁للعق
▁كالن
▁وتتمثل
▁وقتًا
لطي
▁وسين
ailable
▁خام,
▁وقتك
▁التعل
▁طاع
لوط
اجئ
▁بحت
▁Saf
▁منزل>
زراء
▁حمو
▁ويه
▁الزخم
لدينا
▁الغن
لا.
▁أرز
▁November
▁لتكوين
▁الجروح
▁Te
▁إفريقيا،
▁القدمين
oj
▁الإتصال
▁للفصل
▁أيرلندا
▁الرياضيين
▁خطابه
▁University
▁الإلهية
▁تشارلز
مناه
▁النشطاء
▁السياسى
▁العنصري
▁ولدى
نائها
▁ومسلم
▁يُق
▁احرص
أما
▁وأثار
▁بالرد
▁الصهاينة
ift
▁Edited.

▁سلعة
2015
▁العاصفة
▁ولاء
▁الاعلامية
▁لته
▁الانخراط
▁ذلك:
▁0.1
وفه
▁أجسام
▁أزيد
▁المشغ
▁وجعله
▁اوف
▁احجز
▁شاهدت
▁إنقاص
▁دجن
oss
▁فاخر
افؤ
▁للهاتف
▁مباني
▁لنجاح
▁حرصت
▁وبدا
▁خصيصا
يسى،
▁الكيك
▁اللوم
▁الألواح
بييض
▁والمساهمة
▁التحرش
▁العمر،
▁أفضل.

▁ديك
▁مستحي
▁العبيد
▁بدوري
inal
عة.
▁2017.

اته.

▁زوجك
▁يومها
▁إليه.

▁كثيف
شي،
▁الكاتب:
▁المكسرات
▁Fran
▁مخلوق
▁القاهرة

▁الملق
▁يغلق
▁ويحدث
▁تـ
▁ينتظرون
▁واشت
show
▁ستايل
▁المكملات
▁وتخفيف
يمنة
▁أصبحوا
▁حرمة
/2010
▁العبرية
")
▁واثق
▁وتبقى
▁عذر
▁تبنى
▁ناقص
▁وهدف
▁الاجتهاد
▁تركها
▁مستثمر
▁الرهن
▁المنتهية
▁وطريق
▁عمير
▁٢٠١٩
▁تبقي
وسا
▁الكاكاو
i,
▁بشارع
ثني
▁أبيه،
▁الضباب
▁أقامت
ِرُ
▁وَلا
▁للري
▁التعاطي
قطيع
▁Sl
▁بشروط
▁ميني
ووع
▁هوب
▁القطارات
▁الاخوة
▁الهيدروليكي
▁الشعارات
ربوا
▁ذرة
▁سيء
▁المعارضين
▁والاد
▁تقريرا
▁حلمت
▁اثار
ّية
▁سطر
▁تسخين
▁للمستهلك
▁سبقت
▁ترحيل
وقيف
▁بوسع
▁الباح
▁الأخيرة.
▁هادئ
▁طوق
▁رأسي
يانه
▁احتجاجية
▁الإسلاميين
ركت
▁المشتركين
▁للسكان
▁الألفاظ
▁حربية
▁الكامنة
o,
▁راك
كم.
▁pdf.
▁النَّاس
▁والشركة
▁الطفل،
▁والتجار
▁الدم.

▁وتقنية
▁ساي
▁الفنية،
▁اسلوب
▁لتخزين
▁لباس
▁بلات
▁للتو
▁عملاقة
▁#1
▁الفقرات
▁بها

▁الانك
▁"ني
▁خطب
▁اللقاء،
▁وخطط
▁الحاجز
▁خضع
"(
▁عنها.

▁وثاني
▁(مساعدة);
▁وآليات
▁الشرطة،
▁فِيهِ
▁السائقين
▁الحداد
||
▁للنبي
▁ذوق
▁إِلاَّ
لندية
▁زوايا
▁قصب
▁مرد
OM
2022
▁الممتلكات
])
▁وكتبت
▁تنال
ايات
رائع
inc
▁إحراز
▁العاطفية
▁والمدير
▁التغليف
▁المحفوظ
▁كُلِّ
▁لإثبات
▁الجارى
ِها
▁يتفقد
▁les
▁بالاتفاق
▁التحولات
▁واعتبرت
▁السك
▁التحريات
▁النجاة
برك
▁مكالمات
▁يتحكم
▁لِي
▁حلّ
▁بلع
باخ
▁تغيب
عَلْ
▁رفضها
ساكر
▁هكت
▁الصدد،
▁الّتي
▁مظلات
▁بوصفه
▁rec
جالية
▁بتونس
▁قومه
▁محاك
▁والسعر
هانات
▁المتبادلة
▁الصناعية،
▁تجعلها
▁الاقتراب
▁الأولمبي
▁وعين
▁خيانة
▁المحتويات
▁كواليس
▁النهي
ديز
2-
▁مماثل
▁اعتب
▁وبدء
صدرت
اء.
▁تزي
▁تليها
اجات
و10
▁نشاطها
اعدي
▁الإعدادية
▁الصياد
▁2016.
▁عشبة
▁اثنتين
▁وتجعل
▁قاص
▁حبان
za
▁منام
▁رمال
▁يتك
▁الرازي
▁قرعة
▁إلى

يت

▁لانتاج
▁الافلام
▁بطرح
▁للفيروس
▁أبراج
▁شهير
▁الشيوع
تناع
▁مقولة
▁المخيمات
▁بالفيديو..
▁هوائية
▁استعمل
اغية
▁الرئيسية.
CD
شفى،
▁الدَّ
ّال
▁لحما
ر.

▁pic.twitter.com/
▁ادى
▁التحريض
▁بالتش
▁والجدير
▁للمادة
ه؟
▁عنيف
▁نسيان
▁النواة
▁والأخرى
ويك
مة.

▁شريطة
▁احتلت
ideos
نحن
▁المؤامرة
▁مُست
▁تلجأ
▁لرؤ
by
▁يدا
▁متساوية
▁ماضي
▁للمستقبل
▁زمي
▁المحلى
ظه
▁الأجرة
▁عملاق
▁الدوريات
▁الواجبات
▁والمما
▁وعلق
▁di
▁واستعادة
+00
▁بالتزام
▁رافق
▁ولده
▁الإغاثة
▁كالق
▁الجراثيم
▁بالحي
▁كيما
▁المصطفى
اتيكان
▁Now
▁فواتير
▁ونظر
قته
▁والعسكرية
▁بكسل
▁باطل
▁رِ
▁حاملة
▁الغوص
▁الرؤيا
▁حاولوا
▁للتكنولوجيا
▁بيتي
▁ضياء
نعي
▁إلهام
▁تجلب
▁ولإ
▁التبغ
وبيا
▁ميان
▁قدمته
▁العبث
▁صابر
▁"ات
▁شعراء
▁بالقدس
▁يعارض
▁ستشهد
▁طالبا
رئيس
لهة
▁جماع
▁استثمر
▁يرام
▁أيضاً.
▁وتكرار
▁نابولي
▁محاضر
▁طقم
▁السويسرية
▁يتمتعون
▁Dis
▁المتطاير
▁استجاب
▁خور
▁وبعضهم
▁وبأن
▁الاسرة
▁تحكي
TV
▁المزدوجة
▁بشمال
ارًا
▁صالون
غبات
▁بالقول:
▁دوافع
▁تُستخدم
▁الجغرافيا
▁المصاحبة
▁والسلطة
▁العار
ماق
▁خالق
▁والمعنى
▁دينار،
▁برؤية
▁واعتبار
▁بعمر
▁إليه.
▁ساعة

▁واستمرت
▁خصصت
▁للبحوث
II
▁والحض
▁معانات
▁انمي
▁الأعياد
▁المطابخ
▁ويوضح
▁وعلاوة
▁القبلة
▁وقسم
▁أمرت
▁هذه،
▁جرّ
▁أموالك
▁عروة
▁الورم
▁والأحداث
▁لرجا
▁عاشور
▁مدبلج
▁الوجهات
ادتها
بريل)
nal
▁راكب
دي:
▁وبذل
▁خضم
▁المناسبة،
▁هض
▁حزبه
▁مهني
▁يفرق
▁،و
▁نِ
٥٠
لموف
ريكة
▁أحلى
▁الكلاسيكي
▁الاعلانات
▁بوتفليقة
▁الرمان
▁بروت
▁وتسمى
▁دولاراً
▁اسفل
▁بإدخال
▁قَالَ:
▁الشرج
▁للصناعة
▁الهاشمية
▁الأهلي،
▁بينك
▁والموت
▁للحرارة
سكا
▁ربحية
▁الضيف
▁حفارة
▁طارئ
نث
سكويت
▁يقترح
-2012,
▁النخل
▁تجسد
▁التحرر
▁متوافق
▁والطب
▁سيناء،
▁كاملة،
▁لجمعية
▁بجولة
"‏
▁تجدها
▁وأحب
▁ونسب
——
▁مساندة
▁ناص
▁وترا
▁لاحقًا
▁طاقات
الوطن
▁قديما
▁«ص
ُ:
▁ونجاح
▁توض
اطؤ
▁أونت
نيها
▁علاجات
▁بالنادي
▁يجه
دا.
▁الأولى:
▁للسعودية
▁زهور
▁ألمانيا.
▁الوضوح
▁ودرجة
▁و”
▁يسود
▁«داعش
▁يشت
▁رصدت
▁"ث
▁تتعدى
▁مؤت
اماة
▁صفاء
▁سينا
▁القادسية
▁الاستثناء
▁كافي
هماً
الموف
▁ستُ
▁الشعبية،
دتنا
▁إِنْ
▁معناها
▁والأمنية
▁خيمة
▁الفرنسيين
معت
▁خواص
▁الروحي
▁وسائط
لَا
▁been
ضو
▁الآخرين.
reak
▁2020·
▁اضاف
▁شاس
▁صحيح.
▁والقنوات
▁ايد
▁ديس
▁مقاتل
رمون
▁وسلب
▁معتبرة
▁أذهان
▁المدخ
▁ماركات
hu
▁City
▁لرجال
ique
▁Soc
▁المسارات
▁نونبر
▁80%
▁علف
▁sim
▁الرؤساء
▁أنق
▁والنهي
id=
خدع
▁معجب
▁الأديب
▁ولاد
eek
▁الأنهار
▁عصا
▁أفهم
▁بنفسها
▁أخطأ
▁جيد.
▁عقلي
▁ويمنع
مليون
▁الإبداعي
▁المكث
▁كريس
▁تصادم
▁أعوا
▁شط
▁الشعير
▁"المن
▁عربات
▁الداكن
▁يؤمنون
▁والمدينة
▁المسالك
▁سيرا
▁وأفريقيا
▁الضحك
▁والفعاليات
▁https://t
▁طموحات
▁اسرع
▁مروحة
▁وبالع
▁وساهم
▁هو،
غاء
▁نهب
موقة
▁لأع
▁إدخ
زيق
▁مناص
▁والإنسانية
▁لتحليل
▁مرسل
▁التنبيه
▁صوره
▁اهتماما
▁المعيشية
▁التروس
▁احتيال
▁وشكر
▁بكلمات
ددًا
▁وإنهاء
▁سوداني
▁للشحن
▁السؤال:
▁الفرنسي،
su
ءٍ
▁١.
▁مليشيا
▁قتيل
▁لتقرير
فَر
▁النخب
▁للنجاح
▁تضخم
▁التبرعات
▁الجيران
▁وأردف
قور
▁Store
يّة،
▁المحروقات
▁وتتبع
▁وسحب
▁التوحد
غطاء
▁توري
▁الجبيل
فتتاح
▁عان
▁إرجاع
▁و10
▁التهاني
▁يعيشها
▁القطاع،
▁المحام
▁المقاييس
▁وتخزين
▁اسلام
ذات
▁مساكن
▁العماد
▁المالية.

َالُوا
▁لهم.
▁تقلص
▁اليوم:
▁باللغ
▁الأميركي،
▁صباحًا

▁الاستفسار
ole
▁المرضية
▁الصحافيين
▁ملونة
▁ومقاومة
▁الذهنية
▁واقتصادي
يييييييي
▁ويخت
▁متغير
جي،
▁تتكرر
▁وترتيب
▁يتسم
▁105
▁مرخصة
▁هاجم
▁قُلْ
▁بإغلاق
رضة
▁اللؤلؤ
▁تكريس
▁بأخذ
غنية
ه"
▁hd
▁كوبي
▁المحذ
▁وليام
جعين
ba
وا

▁إرشادات
▁إمكان
▁"غير
▁داعية
▁iso
▁قبي
▁الميثاق
▁دورتموند
▁السعد
▁الماضى،
ج.
▁mar
لاسفة
▁ابنتها
▁يتصور
مينيا
▁مسلمين
▁الاجنبية
مخص
▁إصلاحات
▁سيصبح
▁غزل
▁دلهي
▁إطلاقها
▁بحركة
▁الترجي
▁النعمان
▁المعص
▁وعالم
▁ميتس
▁ستتمكن
▁الأسعار.
▁وأك
▁الثالث:
▁للنمو
▁يرمز
▁محض
▁شتنبر
▁الاحتراف
▁رأيي
▁المدفوعات
▁والسير
▁البيولوجي
▁8230
▁بنغازي
▁وطبيعة
يتنام
▁ونعم
سّ
▁يحارب
▁تكل
▁النصارى
▁المحاضرة
▁هاوس
▁فكتب
صان
▁فايز
▁الموف
▁par
يرال
▁بالاتحاد
▁آخرين،
▁لوائح
▁الحصرية
▁القمار
الرياض
▁وتغير
▁تشديد
▁وبالتالى
▁تؤخذ
▁٢٠٢١
▁وخير
▁نؤمن
?

▁بدّ
▁!!!

▁عبوات
▁المتبقي
▁كفاء
▁إتباع
1]

▁وحكومة
▁كبد
▁والصيانة
▁وأفراد
▁يزيل
▁ذُ
▁متهمين
▁أقصر
▁المحافظين
▁نصت
▁المخط
▁المنذر
▁الوصية
▁طرفي
رف،
▁الميادين
▁البرلمان،
▁المغار
▁عائلية
▁توجهات
▁هذا.

▁الانتصارات
▁115
▁الإما
▁يترأس
ظيفة
بريس
زله
▁والأنظمة
▁والإدارية
ى"
قتهم
▁شيك
▁الترحيب
▁الحمص
▁والمل
▁أخير
▁فأصبح
▁بعضهما
▁مجريات
▁لسكان
▁المجاهد
▁حدودها
▁الستائر
▁ويسمى
▁الجلد،
▁فاين
▁شم
▁هب
▁عادلة
▁يحلم
▁مجانية;
▁مستوح
ature
▁و2
▁متنقل
▁الإجازة
لغاز
▁متصلة
▁apk
▁السلا
▁لتعديل
▁لذيذة
▁الصوتي
▁روحي
▁رايتس
▁نوعان
▁الكهف
غالية
▁ونا
▁وتحقق
▁تزوجت
▁للبنان
▁البان
▁خليجية
ديولا
▁النقاد
▁يود
▁لوب
▁التوك
▁جهنم
▁سميث
▁النزلاء
▁حنين
▁لتكسير
▁قضيب
▁مساعي
▁التقارب
▁تفتقر
▁يحرك
▁Di
▁مدنيين
lp
كاذيب
ites
▁سيجعل
▁اسلامية
▁كيلومترا
▁راض
▁بالدين
▁السوء
▁فاص
▁تدليك
▁Col
▁شاف
راصنة
▁"مر
▁...-
▁Alibaba

▁للكبار
▁الدمش
▁أَح
قدونس
▁الهياكل
Citation
mp
Class=
▁آمَنُوا
▁جدا.

▁مقطوع
▁وإج
▁Super
▁زيتون
▁وفاع
▁any
▁تلاميذ
ديدان
هابي
بثقة
▁وأرض
▁أجبر
▁كذلك.
▁يستمع
▁المثلى
▁عليها

▁المغربي،
▁خرا
▁عاشت
▁التجاوز
▁الشجر
▁مستقبلية
فسنا
▁Moham
▁فارغ
▁|Citation
▁|CitationClass=
▁ليزر
▁وتذكر
▁البيت،
▁سياسياً
▁برأ
▁تتويج
▁ونساء
▁الخيانة
▁المتصل
▁الإساءة
▁وذه
eel
▁متأخرة
▁الدني
دلة
ابها
▁حمى
▁لإظهار
▁وبث
ار.

▁الاعتصام
▁اموال
ممين
▁غزة.

tr
▁سرت
▁يحكي
▁والمحيط
▁وبالأخص
▁"كورونا"
نبه
▁للتأجير
كرير
▁مطاط
▁المعتادة
br
اطعات
▁وأحكام
▁مكان،
▁(٢
ators
▁مسلحين
▁فائض
تهرت
▁الصامت
مشاركة
▁فی
▁يسع
يبات
شوة
▁العجين
▁وبع
▁مصفاة
▁يلب
blog
▁للسيدات
▁أضواء
▁النفس،
▁لمف
▁الماكينة
▁Bin
▁التظاهر
يمين
▁Vis
را

▁est
ناوي
▁وأساليب
▁‏(‏
ince
▁للهواتف
eu

▁كاذبة
iles
▁الكروي
▁يتط
▁كقوله
▁يوليو/
▁التوترات
▁vis
▁يتساءل
▁العنزي
لافة
▁نواجه
▁وتواصل
مزج
▁رداً
▁To
▁بريطاني
اليون
لامك
▁المدعى
▁والقد
▁جاري
▁ماستر
▁المحظ
▁الرسمى
▁Out
▁غوج
▁مبيدات
▁الرياض

ادِ
▁مطلعة
▁dis
بوهة
▁سيراميك
▁السامي
▁النصيحة
▁اختياره
▁منعت
▁Technology
▁الديك
UB
▁«أن
▁مقالنا
erc
EX
▁تجربته
▁التجارة.
▁النيت
▁سمر
ane
▁والمكان
▁لسد
▁صخر
▁سبعين
▁للسماح
رّد
▁لطلبة
▁واحد

▁داف
▁القصد
▁يسافر
▁لكيفية
▁برلماني
اطس
▁المجاهدين
▁نقدمها
▁هاش
و,
وليك
▁والسماح
وماتيكي
▁التلميذ
▁الحمى
▁سعت
انا،
▁الإسكندرية،
▁(أن
▁لتثبيت
مرد
▁حافز
▁ووفقًا
▁الإمكانات
ليمان
yp
▁راف
▁مزورة
نقلاب
علت
▁والإقليمية
▁بالبخار
▁بمراجعة
▁مفوضية
yle
وسبة
▁الدالة
▁لمكتب
▁الحالت
▁العالمى
▁الجرحى
▁الاقليم
▁الفروق
▁also
ياء،
▁صلَّى
▁امكان
▁اختيارات
قفين
▁معارف
▁والتقاليد
كيين
▁ومشاهدة
▁والدتها
▁الأسط
ج

▁المساح
▁نظره
▁فورت
لَى
ضجة
▁(فبراير
▁يوحي
▁البترولية
▁لارتفاع
▁Ge
▁تتراجع
▁للمتداولين
▁الكلوي
ردين
▁ينسى
▁ومرة
▁تتشكل
▁بِمَا
▁نقف
▁واحده
▁بعل
▁بريت
▁بشعبية
▁تختفي
▁"مي
TML
▁قضا
▁إيس
▁السلفية
▁لنا،
▁بقضية
▁صادقة
▁سلمية
▁المحرز
تك.

▁اثبت
▁والمشاكل
▁ساك
▁باريس،
▁والمهارات
-2012
▁القصاص
▁عقيل
▁المنتدب
SS
▁Company
▁واجتماعية
▁إليها.

▁انطلاقاً
▁طين
▁يحتاجه
▁البكر
▁نايل
▁الانترنت،
▁أقارب
ute
▁الانطلاق
▁واتباع
▁اعط
▁وحلول
▁لاق
فالنا
اجل
▁تعذيب
▁الكُ
▁وعليك
▁وأتمنى
▁يعني:
▁تلع
▁بسلا
▁البيتزا
▁تضيع
▁حملته
▁الموت،
▁5%
▁النقالة
▁إدوارد
▁الغياب
▁التحويلات
▁جنون
▁الاتحاد

▁متدا
6]
▁القاطع
▁التحفظ
▁أفكر
▁إجماع
▁بفترة
▁هدد
▁وَيُ
▁دوليا
▁جئت
▁علنا
▁نشأة
▁٢.
▁زائ
▁نجاحا
▁علاقاتها
▁والحوار
▁مؤامرة
▁أيضاً.

▁شحنة
▁والقرى
▁المعقول
▁كروز
▁لكسر
▁الأولويات
▁مرزوق
▁السلك
▁فاضل
▁الشيخة
▁"المر
▁الاحتمالات
▁جريج
▁وكثرة
▁النعمة
▁جنبلاط
EO
خخة
▁الجولات
▁دولار)
▁المخضر
ئِكَ
▁كارول
▁الأقباط
▁بكالوريوس
▁الأستاذة
ربيا
هجير
▁عكر
▁وبفضل
▁غامضة
▁الغذائية،
▁(99
▁بيز
▁تارك
حونة
▁بفض
▁معدة
▁فتوى
▁نظرنا
▁فتص
▁يومئذ
▁وانتهى
▁للغاز
يوت
▁التأشيرة
لاته
▁الاوضاع
وثيين
ret
▁انقسام
▁Develop
▁يعتبرون
▁إلزام
▁وإعلان
▁كلِّ
ُرُ
▁no
▁المظلوم
▁تهدئة
▁المعرفية
▁اعتقاله
▁السائلة
▁نَفْ
▁نوضح
▁باللقب
▁الشوائب
▁المشترين
▁السابق.

pload
▁بالأن
▁رافض
▁تجب
▁الاسماء
▁شاش
▁جزا
▁Priv
▁قريبًا
▁والحركة
▁الثّ
▁الاخباري
▁وترى
▁cnc
▁للمف
▁كتابا
▁مستندات
▁القعدة
▁تمثلت
يزان
▁هائ
▁بحساب
▁كِ
inn
▁أغنى
▁والام
▁الحمامات
لحين
▁مداخل
▁اعتذار
▁الرمضانية
ّ.
▁يرسم
▁وسريع
▁تبييض
مي.
نتر
لازل
-2009,
▁نمت
lease
▁ألياف
يجاب
▁2013

▁طبل
▁النظيفة
▁الدراجة
▁عيان
سمين
زمات
enith
▁بسط
▁(الط
▁يثق
▁الرومانسية
▁"مد
▁احترا
▁الطبيعي،
▁act
لٌ
▁متواصل
▁بمنزلة
▁بالعل
▁الروسي،
▁الاستلام
ِنَا
▁دعنا
▁تمو
▁هطول
▁غلط
▁نملك
ردت
▁لونها
ّرة
كوبة
▁برفض
▁التجفيف
▁إعفاء
▁كالج
▁طويلة.
▁والقتل
▁بطاق
▁مرجعية
دى،
▁تظاهرات
لمآ
وتير
▁بالري
▁أضافت
▁القدماء
▁الإثارة
▁واشنطن،
▁ومؤسسة
▁خاصا
▁تعرضها
ia

▁ننصح
▁مسطحة
▁معنا

▁كيميائي
▁ltd
▁مسموح
▁الفقيد
▁أنَّه
▁البطولة،
ider
▁المرتقب
▁يبذ
▁إبت
▁الحكاية
▁تعرضوا
▁وعاش
▁spec
ردقة
▁بمحاولة
بّر
▁ناسا
خبرك
▁ناسفة
▁حسنا
▁معدني
▁لايع
▁الثمار
▁أبنائها
▁المكانة
▁الختامي
▁بنوع
▁ووصلت
▁ادي
▁والابتعاد
ines
زيما
▁تقتضي
▁المعدني
▁إضافةً
▁الوالي
▁power
▁للمجموعة
▁لساعات
▁لوم
▁1992
▁إدانة
▁وشخص
▁والاث
▁ce
▁العقرب
▁للقيادة
▁بانورا
كارات
▁إيراني
▁التشفير
وثات
▁عقدها
▁وفوق
▁بلف
▁المرض،
▁الشهود
▁"مت
لبك
▁انتي
مخدرات
▁جرار
▁الصحون
▁منطقي
▁الطحين
▁يَتَ
)(
OC
▁سلمت
▁الغار
َّةٍ
▁حبل
▁جمر
▁والتوتر
▁والمراد
وانه
▁ألماني
▁والحريات
▁وحش
▁المستقيم
▁السابقة.

▁طوارئ
▁وأربعين
▁الايمان
▁شفافة
▁بادر
����
▁زلنا
ّوا
لالا
%D8%A8
▁الإنسان.
▁مباراته
▁القرفة
▁ونتمنى
▁ويجري
▁الائتمانية
/ف
▁توزع
▁التسليح
▁إليها.
oun
▁بالوصول
▁سواحل
▁مقرر
▁الماي
▁والموضوع
▁متعددة،
أهل
▁زملاء
دابير
▁المنافس
▁only
▁حراري
▁مدينتي
unction
▁أوري
arabic
▁زالوا
▁للخرسانة
HD
▁شيبة
▁إبرام
▁انطباع
كس.
كالة
▁وتعديل
ائمين
غيان
▁ازمة
▁نعتبر
▁وأذ
▁نموذجا
▁بكتاب
ائقة
▁اعتصام
▁بوي
▁التقلبات
▁ومقاطع
▁فقلت:
▁حلفاء
▁الأمريكية

▁مبكرا
مولات
▁وطب
▁برئيس
مضان
▁وأشهر
▁دارت
▁أوّل
زة،
▁لائق
fl
▁phot
▁إنجاح
▁دائرية
▁جنسي
▁اللباس
▁واللاعب
▁أتحدث
▁الدماغية
▁مليشيات
▁المجني
▁الخيول
▁بتمويل
▁والتكنولوج
▁(مح
▁لنحو
▁ومرت
وران
▁دلتا
المآ
▁لاعبيه
نتظر
▁الثبات
▁قبة
▁ذوات
▁(آ
▁الأنماط
▁والألعاب
▁أمهات
لماس
▁هدفنا
▁del
▁الماد
▁إيجار
▁الرئيسية،
▁بانها
وراد
▁sbm
▁ضا
بينما
▁والبرت
▁Bar
ences
▁غيرت
▁تساء
▁امراض
▁بالاعتماد
▁عقله
ّلة
▁قرارها
▁حجمه
▁العلن
▁بألف
▁والسلوك
▁الإطلاق.
▁تجتمع
▁يكذب
▁يواجهها
▁المشاهدين
▁سدد
▁December
▁بالمال
▁يشك
▁تغي
▁الاحترافية
▁بالرئيس
▁لقطة
▁ودخول
▁اخري
▁Bu
▁ملزمة
▁الشجاعة
▁"الز
▁اليمن

play
▁العيب
▁تكسب
▁هشاشة
▁طولها
▁النوبة
▁حديثاً
▁ومبادئ
▁الالماني
nik
▁تعرفي
▁ووجدت
▁ببي
▁أعني
مسين
▁والمنتج
▁المجلات
▁ومتطلبات
▁وطلبت
▁هياكل
▁الكرة،
!.

▁أخرى

▁الرملية
Advisor
3.

▁قابلية
▁الإخراج
▁وني
وانغ
▁لعبه
▁التماس
▁تكرر
▁وتثبيت
▁Sal
▁عمان،
▁واكثر
▁تقديره
▁مرّة
شوفة
تات
▁يمني
▁الدير
▁1.6
فرات
▁بــ
▁خوارز
▁للام
▁ولس
▁لعبد
▁كروية
▁المرتقبة
▁تحليلات
ody
▁للرقابة
▁منب
▁الغسل
▁والتشري
وازية
▁التيت
▁أسطول
▁مؤلمة
▁نعد
▁إقليمي
ويجي
▁ولات
▁تُعرف
▁محتاج
▁مباشرة.
▁مصطفي
▁وتطلع
▁بصور
▁حارة
▁وتفسير
▁ومحاربة
▁الاهداف
ضبط
▁المشير
▁ذاتها،
▁ساكن
▁ستيفن
199
لايت
وك،
ِّين
▁هدفك
▁لسعر
▁شامبو
▁الزق
▁أنقذ
▁استئصال
ُن
▁ومسان
▁عدالة
رَّ
▁ايها
وعها
▁خصوم
▁وردة
▁المزعجة
▁إشع
▁والطفل
▁الميكا
▁بالاشتراك
▁وخسر
▁فرغ
▁"إسرائيل"
▁اختلفت
▁يعطى
▁Rel
▁تقدما
▁ووع
▁ومشارك
ستال
دَّ
▁العمراني
▁40%
▁بتوقيع
▁تطل
▁معهم،
لبنان
▁مضخات
▁السلعة
▁Ku
▁استشعار
▁its
▁أرقى
▁Ball
▁والأوعية
▁والحماية
يات.

▁اجزاء
▁مأساة
هتزاز
▁العتيبي
▁اسواق
▁وشرق
مداف
▁قناعة
▁هيونداي
▁أقنعة
▁المؤدية
▁والجماعات
▁بافضل
▁المحافل
▁الحقائب
ممول
ود

للاحقة
▁العينة
▁البشرة،
▁وشقيق
ony
▁Inc
▁الكافيين
▁المقبلة.
▁يرس
اللاحقة
▁العالمي.

عقدة
▁القضية،
▁الراوي
▁الماء.
▁ميغ
▁لتزويد
▁ظريف
▁لبيان
▁انو
▁نوعًا
▁شيكاغو
age.
▁عائلت
▁التراثية
▁لوبي
غون
▁بعكس
.net/
▁طابق
▁لهدف
شمل
▁وحض
▁محملة
▁المحللين
▁لافتًا
▁ليقوم
LC
▁يتعرضون
▁خرسانية
▁اللاحقة
▁صممت
ادمة
▁السودانيين
▁البوم
▁براد
▁خامنئي
▁المضمون
▁العملاء،
وخروج
UM
▁يقوموا
▁لينا
▁أرسنال
▁3،
▁بدوره،
▁قاط
▁1.4
▁المنافسات
▁التدفئة
▁book
▁مغامرة
▁ولكنني
▁الافتتاحية
وينت
▁إبليس
▁معتدلة
ياً:
▁وجماعة
▁سى
▁ينوي
▁الزجاجية
▁الساحرة
▁مأخوذ
تين.
▁ذالك
و19
▁واقتصادية
هـ،
▁جـ
شوط
▁الأعلام
▁أطلقتها
▁أمامها
▁اللبناني،
▁الموثوق
تي.
ويح
▁Fire
▁السوفي
▁وتترك
▁1988
▁المائة،
▁الصمد
▁محاس
▁التعقيد
ايرة
▁شما
ـــة
▁هموم
▁فتت
▁ومطالب
▁التأويل
▁أعز
تجاوز
▁للاس
▁Next
وش،
جعي
▁السيول
▁امريكي
▁مؤق
atform
▁أجساد
▁التنس
▁كنز
وظروف
▁بالاتصال
-،
▁وبارك
▁مسبقًا
▁لجأ
▁المنتجين
▁وخاص
▁وجهود
رشادية
▁بمنح
▁ص.
عُونَ
▁الأممية
▁التما
▁كورس
ضيء
▁بأسرع
▁لتتمكن
▁وطموح
لدات
▁نوصي
يه

▁سيارتك
▁لتجاوز
▁الناس.

▁Linked
▁التبديل
وصلة
▁المسببة
ّهم
▁المكان،
▁المدرسة،
▁here
▁ماتت
▁تستهلك
▁بتصنيع
▁لكتاب
▁لبنان.
▁محبوب
▁العدا
▁مهاجر
سائي
▁قيامه
▁المعتص
▁الدينية،
▁2020,
▁التكريم
▁وخروج
▁التاب
▁التفاعلات
تيل
▁متكررة
طان
▁المآ
▁العقلي
▁وظروف
▁موضحًا
▁السعال
▁«الف
▁الملاك
▁غشت
▁يومه
▁للدين
▁تعظيم
▁طقوس
1.

اردو
▁رقص
▁ويسر
▁ب"
▁ثع
▁التطوعي
▁دجنبر
▁"تويتر"
▁"سب
IV
▁أوقفت
▁يدك
▁China
▁الكورونا
▁وَهُوَ
▁لانتخابات
▁ميشيل
▁غلي
▁المحادثة
▁شخصيته
▁المار
▁الكورد
▁للابت
▁ايقاف
▁بندقية
▁المنتج,
▁احتفظ
▁بداخله
▁بيئية
interest
▁أنطونيو
▁واستمتع
يادية
▁المراقبين
▁الإسماعيلية
▁القاري
▁ايمان
▁تأويل
▁المخالفين
▁جروب
▁Cent
اتبة
افِ
▁التطهير
▁والراحة
▁وإبراهيم
▁الأسرية
▁سنا
▁الزنا
▁تأسس
rial
عري
)-
▁المشتقات
▁آسيا،
▁الشغب
▁العبر
▁mag
جنات
▁midd
▁Sur
▁مشروبات
▁لنمو
▁تميزت
▁؟!

▁يستمتع
يمٌ
▁بركان
▁تراوح
▁والعلماء
▁متخ
▁لتعويض
▁استفسارات
▁الاحلام
▁نفر
ـف
▁فكرت
▁الزراع
▁الإنتخابات
خ،
▁انتم
▁القرط
▁بسوق
▁تحميلها
▁وزارات
كوف
مالها
▁يفس
▁الهيدروجين
▁بتاريخ:
وتنا
▁"أبو
▁الأنترنت
▁خرجوا
لالم
▁مقالا
▁أحببت
▁لسم
▁والتنفيذ
▁الواف
▁المحسن
ven
▁دانيا
▁١٦
▁بالمرض
▁السامة
▁التقديرات
▁معقد
زلي
▁الأعمار
▁وعاص
هما.

-w
هايمر
▁"هل
▁الإيرانيين
nl

▁الكتان
▁الروضة
بيها
▁والمؤتمر
▁Sept
كم.

▁للمباراة
▁قضاة
▁المتزايدة
▁جميعهم
▁لإعطاء
▁الالمانية
▁أبوابها
ضخم
▁غدًا
▁مفه
ضه
▁سباقات
▁الواردات
▁وللع
▁بصنع
راصير
▁الكهرباء،
▁ورسم
▁يكبر
▁Facebook

▁الرؤوس
uring
▁لعملائنا
▁محظوظ
▁انتبه
رمان
▁والعملات
▁صمود
▁اللَّه
▁بأربعة
اشير
▁أجرة
للطيف
▁تنويع
▁الضربة
▁العلمية،
▁10000
▁التشاور
▁الرقابية
▁وتوا
لائع
▁الحيل
▁الرياضات
▁السماوية
▁متنقلة

▁نقبل
لونات
اكون
ustom
▁الزهرة
حيه
▁نكن
▁والمشروع
ذوق
▁ناري
▁/7/24[
▁للإيداع
▁فنلندا
▁الخدمية
الحجر
▁مرفأ
▁تلفزيونية
▁للتوصل
▁وعنه
▁دخلوا
▁الآفات
▁الكويت

▁ايدي
▁لوقت
ragon
reet
بأة
▁أمله
▁يحصلون
ـلـ
▁الرجال،
▁العبادات
▁واردات
▁غزوة
▁مفتي
▁اطلاع
▁Snap
▁أسماك
▁للمنتج
▁المقربين
▁وَعَ
▁إيلي
▁وإمكانية
▁بالتعليم
هر،
▁196
▁إحصائيات
▁والحرب
▁الشاه
اطا
اوباما
▁اوراق
/2014
يت.
رفيهي
▁أراضيها
▁فِيهَا
▁صغيرة.
▁سريعاً
▁("
▁يجذب
▁المارك
▁للتصدي
▁التامة
▁والاح
فَّ
▁لحجم
▁كييف
▁والهندسة
▁الأرضي
ّنت
▁استمرارية
و200
▁والأسواق
▁للتب
▁التحذير
▁شهرية
▁للإصلاح
▁187
▁الامتناع
لملص
▁لتأكيد
uss
▁تركيا.
▁خطابات
▁الروائح
▁طفرة
▁يكتسب
▁تسكن
▁خواطر
▁يفعلون
يسون
▁تبذل
▁COVID
▁النظريات
▁بالعملة
▁الحلاقة
▁الفتى
▁شخصياً
▁تجمعات
10.
▁«د
اداة
▁ومناقشة
▁مشدداً
▁وتوقف
▁الناقلات
▁كيا
▁تيري
▁AD
▁"الدولة
▁وتميز
▁الأنبا
▁market
اء

ملاً
▁لمشاريع
▁ينح
▁الموزع
▁وأسلوب
▁غرينتش
quiry

▁حكا
▁2021-11
▁أصالة
▁طلبه
▁والتعليم،
شغال
▁المزيد.
ميركا
▁SS
▁وبني
▁صفي
▁بشرى
▁للخط
▁الاخبارية

▁للجهات
▁الشكوك
▁مصادرة
الملص
▁العاصمة،
▁الشاط
▁خلطة
▁ممتلكات
▁أسرى
▁التصرفات
▁إمب
▁وسلّم
▁وسوق
▁ـــ
2010
▁الأعراف
▁المقعد
سي.
▁حملها
▁Des
/38
▁مهاجمة
▁معالجتها
▁مهمًا
نة.
/2013
▁iPad
سبريس
اتها،
▁التفاؤل
صفحات
▁والآلات
▁والصيد
▁أدركت
▁لثلاثة
▁والتهاب
▁تلخيص
▁روان
ii
▁والمهندس
▁granite
▁90%
فيس
▁بالعين
wait
جتماعي
▁لمطالب
▁يدري
▁بالتف
▁المدونات
اءت
▁المتحد
▁لوازم
▁1989
▁المفقودة
▁عمن
▁ليج
▁فيه:
َم
▁بالجسم
▁الاشتراكية
▁سريلانكا
▁التبويب
▁وطبق
▁والإيمان
-D
▁فلفل
▁مترج
▁المخز
▁عضواً
▁لا.

▁production
▁تصح
▁عضلة
▁النصية
عاتها
▁الغارات
▁سهيل
من،
▁مخازن
▁عقلك
▁الإهمال
مزيد
▁أجنحة
▁هاما
▁تقشير
▁أولاً:
▁أَهْ
▁وأبناء
▁الطبيعى
▁الإلهي
▁تُعتبر
▁الوكالات
▁القطر
▁أن

▁وقائد
ربة،
▁الحضري
ك:
رحم
▁صلّى
▁وسيد
ush
▁الحقيبة
▁كوبر
▁قبل.
▁والخارجية
ense
▁برصاص
▁الجيوب
ك؟
جاجات
▁والملابس
▁يتماشى
▁وسادة
▁الله)
▁نيويورك،
▁أغني
▁"المع
▁للعل
▁وزع
▁للمستثمر
▁للدعم
▁الدائري
▁الصغيرة.
▁ساس
▁«الك
▁النبى
▁وطنه
دنا
▁الإفصاح
تين.

موية،
▁وتعادل
▁"فر
▁المغامرة
▁الانتصاب
بية،
▁مزيدا
▁الدم.
▁صورا
▁ستستمر
▁اسمي
▁[البقرة
▁طائلة
▁فرعية
▁للضيوف
▁Part
▁مكانتها
▁مطالبا
▁ا.
▁بحثية
▁بيون
▁استطيع
▁مسودة
افير
▁وفيتامين
▁ومعالج
لوجد
▁والتأثير
▁ترق
▁ساكنة
▁الفراولة
▁بدأنا
كو،
مة

▁فلور
▁عيادات
ياغ
ها)
▁الذوق
▁بالإمكان
▁ترتب
▁يشاركون
▁يليه
▁لكتابة
▁والتقنيات
▁الأسترالية
▁للواقع
▁سيعود
▁تعيينه
▁والكرامة
NN
▁كخ
▁Save
▁وَلاَ
▁موهبة
och
مرين
▁ضجة
▁موسي
▁وحوا
ضطراب
▁أجرت
▁أظ
▁للمحترفين
▁لنيل
يوبية
▁الملص
▁والعقل
للتين
▁العجينة
▁رغبت
▁عنها.
▁..........
ama
▁تختص
▁روتين
▁يغفر
▁الأمة،
▁يتطور
▁تدريجياً
▁معاك
▁تداوله
elf
▁سنتر
طاقات
مـــ
▁may
▁يشرب
▁ويشكل
▁ولمدة
▁inst
؟؟؟؟؟؟؟؟
اوية،
▁وإلغاء
▁للذين
▁(فبراير)
▁مرّ
▁واختلف
▁صلاته
▁شكله
▁ستظل
▁وألف
▁الدوائية
▁نائبا
▁يحوي
▁بالتسجيل
▁العريض
▁وتزيد
▁الأبرياء
▁نظريات
▁وانع
▁التخصيص
▁الثاني.

▁فيقول:
RE
▁عملائها
▁وصورة
▁العسكري،
▁مدريد،
▁مركزا
▁فراس
▁و19
▁و200
▁31,
▁مودرن
▁وكسب
▁الساعة،
raw
▁ريج
▁التصنيفات
▁لكبار
▁بمطار
▁فالخ
▁الازد
▁هوس
▁هَذَا
بلوماس
▁للمخرج
▁وكوريا
▁علاقتها
انيليا
ثِ
▁مهمته
▁تجده
▁تحريم
▁أحاول
asy
▁وإصدار
هيبة
▁والتربية
▁Market
▁نقطة.
▁التوالي.

▁حصلوا
▁قذيفة
▁استقالته
▁بدار
▁الأغلب
▁للتقدم
▁گ
▁الورود
▁فطر
▁مكعبات
▁الإمدادات
▁بيط
اللتين
▁تجريبية
▁<<
▁زلزال
طنين
▁المحتملين
▁كلثوم
▁TripAdvisor
▁موانئ
▁بحا
▁بشارة
enn
▁الإخلاص
▁تدافع
▁والتطبيقات
▁تحياتي
٬٠٠٠
▁القذف
▁الايطالية
▁Pay
▁للبشر
▁بماء
▁للفترة
▁وفرص
▁الفساد،
▁سكري
▁معترف
▁اشترِ
▁ماهية
▁عِنْ
▁الإعلاميين
▁للأسمنت
raft
▁لإصدار
▁للإعلان
فيك
▁والعطاء
ندت
▁إرث
▁كافة،
▁l'
▁اوباما
▁هندسية
▁عن:
▁إيهاب
▁فحين
▁الخطبة
▁اشار
▁جذاب
▁تحطيم
وتنيك
▁جيوب
▁مستقيم
▁الرافض
▁تمكنك
▁الاستغلال
فِي
▁بمدرسة
▁روايته
▁بخطوات
الوجد
▁وخيارات
▁للخدمة
▁بنج
هرت
▁بتعزيز
-L
رسين
▁pf
▁بذلك.
▁هيت
▁وتتكون
▁الجدي
150
▁أمث
▁رشد
▁للأبحاث
▁الأرثوذكس
▁ارك
وكسي
e:
▁يريده
▁الفلاحين
▁كط
▁التباعد
يوط
▁وقرارات
▁مزج
▁تجلس
▁شيف
▁لفض
▁رغوة
▁أكس
لميل
order
▁والـ
atic
▁انفصال
▁بيراميدز
▁ا

▁سببه
كراً
▁للمض
▁الكريهة
▁كالآ
▁بعبارة
▁للإرهاب
▁تفرق
طو
خصصات
▁ستصبح
▁بالأعمال
▁أرادوا
▁كازاخستان
زداد
▁يلبي
فورت
حزب
▁شهاد
▁الإيرانية،
▁الأوروبيين
▁معتبراً
▁230
▁بشري
jpg

▁اراضي
▁اللتين
جنبي
▁وسجلت
▁يجرى
ــر
▁أذهب
دارات
▁بريق
▁والعكس
▁الباكستانية
▁هوك
▁غوجارات
عاه
▁best
خارف
120
▁المحرم
▁التجول
▁للبترول
▁والمتوسط
▁الوراء
▁هدي
▁قطرة
▁الراشد
▁والرجل
▁اللوح
▁أعلاه،
'.

▁عبء
▁تصميمه
▁فضلك
ؤُ
▁الخادم
▁هي:

▁الرائي
طنان
▁الموقع.

▁أوغلو
▁ملب
,آلة
▁التهريب
▁المفصل
▁الإعمار
▁لول
▁لصندوق
▁ريح
ّار
▁الربو
▁الموضوع

▁استخبارات
راته
لمكن
▁بالعلم
uan
▁-	
▁الشرعية،
▁اللحام
▁اراد
▁2016.

▁مليونا
▁ألفاً
▁السودان

▁المزمع
▁والتحقيق
▁ساعه
زابيث
▁لظروف
▁الفخر
▁المعلمة
▁نوبات
-2011
▁ايجابية
▁تتصدر
▁الثوب
▁الهدنة
▁وإعطاء
▁التمور
▁جامعي
▁افتتحت
▁ويدعم
/2012
▁Blog
▁خيراً
▁للزراعة
▁بالقيام
▁المناقشة
▁بخدمات
▁المخلوقات
▁تماما،
كاست
▁ec
▁وبداية
▁لايمكن
▁مصالحها
▁مشروعا
▁اسرار
▁لاستضافة
▁كنوز
ازيق
وغان،
سبير
▁إيمانويل
▁أصدقائك
▁بإقليم
▁ملابسات
▁برسالة
opp
▁تمي
ونالد
▁بلدا
▁والخبرة
▁الموتى
▁ومكون
▁استطعت
▁تندرج
▁محقق
▁التونس
▁والعسكري
▁المتعاملين
▁بالمعلومات
ility
▁الإِ
▁استمارة
▁اتباعها
▁فوكس
▁إنشاؤها
▁Blu
وجبات
▁التحصيل
▁كروس
▁الإطاحة
▁بالمشروع
▁بيضة
▁بحفظ
▁لمكان
لاي
▁المتحدثة
▁into
المكن
▁Can
▁نفقة
▁مجنون
▁كتب:
▁المستوى:
.المزيد

▁الوطني.

▁المتور
▁الشركات،
▁التهنئة
▁التعيين
▁تلقاء
▁المتعاقد
▁pc
▁jaw
▁الوجد
▁،ف
▁واحة
▁PF
▁إلكترونيا
▁وسعيد
info
▁تكتشف
▁هيد
▁العابدين
▁ماض
▁رمادي
▁ملأ
▁عقيد
lean
وكادو
▁امور
▁مقلع
▁وفلسطين
▁يوصى
ينيك
الميل
▁برض
اط،
▁[3]
▁الدستور،
▁لموظفي
▁واسعار
▁نورا
ئيا
يزو
▁العزلة
▁للأكس
▁ولق
▁عَنِ
▁أعربت
▁يتدخل
▁يصرف
ote:
▁الأزمة،
▁مرات،
rive
▁نوافذ
▁التجميع
▁وتمويل
▁الماوس
ونى
▁والشروط
▁أوصي
▁تحذيرات
▁وللأسف
▁المعلنة
▁شهيرة
▁سنة.

▁الديار
fin
▁المفرطة
▁والحرص
▁عرضية
▁الإحصاء
▁بانخفاض
▁فعليا
سبان
▁الدسم
▁المتشاب
▁عانت
▁غسول
▁والسكان
▁للرياضة
▁هنا:
▁بتط
خامة
▁كبسولات
▁توطين
▁المراة
لحة،
▁ولايته
▁الّذي
هدار
▁القاص
▁إرتفاع
▁مؤثر
▁فاعلة
mar
ouch
▁على:
▁اولى
▁القاموس
▁للمسرح
ط،
▁15.
▁وقدرة
▁خدماتنا
▁crushers
▁الرباعي
▁المرسل
▁نحوه
ضد
▁بخاخ
▁كارلوس
▁والديمقراطية
▁الحافلات
▁القانون.

▁بدف
▁واتخذ
▁غن
▁فسر
▁زميل
▁زمام
تكلفة
▁2010،
▁ناج
مامه
▁والإنسان
▁تلميذ
▁الضوئية
▁(W
▁(10)
▁الأسرار
▁تتر
اته.
▁بداخلها
رية

▁التسلسل
انُ
▁استغرق
▁نانسي
▁فادي
▁صراعات
▁التجارة،
لّف
واكشوط
مولية
▁الأمر.

▁الخشن
▁يفتقر
▁أصفر
▁والثقافي
▁(17
▁هيلا
▁الرفيع
▁وضعتها
خلل
سمت
▁التحاليل
▁mon
▁أيام.

▁التسويقية
ley
▁مصعب
ب

▁بذلك.

▁والكتب
▁+

لوكالة
icy
▁ريو
▁التنسي
▁مناظر
▁السموات
clud
▁شبح
▁Che
▁الرما
▁سني
▁والظروف
▁الخطير
▁صالات
▁المذهلة
▁عمل،
▁مملوكة
▁الشهر،
▁النعيم
▁وخبر
▁كوز
▁خال
▁تحقيقا
▁Machine
▁manufactur
▁لله،
▁تغريدات
▁احفظ
▁الذهن
▁تعرفها
▁الفقير
▁اُ
اوي،
▁لتحضير
▁والعمرة
▁للتخفيف
▁السوفيتي
▁النقابية
erb
▁كروات
وامع
▁ثقته
▁لتجربة
▁أخذه
▁أجنب
▁320
▁"لو
▁سوم
▁التدبير
▁عطف
adem
▁الملاحظة
َبِّ
▁جنبًا
▁تخاف
▁هزي
▁الراح
▁والمركز
▁عدت
▁دقيقة.

▁غرس
نيد
▁إقامته
▁ناتجة
▁معجزة
▁أكر
▁المحتجين
▁■
▁shanghai
▁تفوت
وجهة
▁وللا
▁رمزية
▁لمهرجان
حيي
می
رائهم
▁بائ
▁التشي
▁أعادت
▁مستوصف
مؤسسة
▁الرئيس،
▁قومية
▁حققته
عرّض
▁كلتا
▁خوفاً
▁تجنيد
VD
▁التأليف
▁وطأة
ترون
يا"
▁الأمراء
▁القوالب
▁سلمى
+03
▁2/
▁مشرق
▁مشاهدة

▁اتخاذها
▁لأنَّ
▁والأفراد
▁تتدخل
▁وانخفض
▁يَأْ
▁العزي
▁ادخال
ـى
▁منسوبي
▁سمعنا
▁رحاب
▁للاسف
▁(المع
▁تخوض
▁السوشيال
▁النزيف
▁أملاك
▁يبكي
▁نيران
▁ضحك
ِنَ
▁أعباء
دمت
▁الترجيح
▁بالدار
▁المعترف
▁التنغ
▁والوجه
▁تعويضات
▁المستند
▁والنظر
/d
very
الكرة
جيلات
▁وتشهد
▁فيديو

▁طاحون
▁النقط
▁الادوات
▁المدعوم
▁رتب
ober
▁بدوام
تكوين
▁انّ
▁حمله
لوان،
▁وموقف
▁الانفص
▁واليابان
▁تعطى
▁650
▁sec
▁المصرية.

▁July
▁ماسنجر
▁البيئة،
▁مكملات
▁بالتدخل
▁وحياة
▁يدر
▁طي
▁لئلا
▁فظ
▁كهذا
تلة
▁طفولت
▁تحميله
▁شفت
يال،
▁لِلْ
▁المكن
▁يلقى
ov.
▁الرخيصة
▁استنتاج
▁البنكية
rab
▁الجين
▁الانحراف
▁أبوه
▁فَإِنَّ
▁المرجوة
كتاتورية
▁(إبريل)
▁حقوقه
▁يوسف،
▁ربة
▁مصانع,
▁ينشأ
▁رويال
▁الدخ
▁المنه
نح
▁لأمن
▁التصديق
نجات
درائية
▁ميلا
▁الحضارية
▁الخرس
▁شجر
▁نرجو
▁أسئ
▁اكل
▁البوك
▁كافر
▁تعترض
▁View
▁الفلسطينيين،
▁للأمراض
▁بالموقع
▁وتطبيقات
▁ستتم
▁وبأسعار
▁أهدافه
▁أوجد
▁داعياً
▁لاعت
▁التساؤل
عة.

▁أجانب
▁مشكل
▁إسناد
▁السجلات
داوي
▁بديلا
اكين
▁والأداء
▁يتعرف
▁الترد
ساءة
▁2021-7
▁لقيت
▁غرين
▁التزامات
▁ذيل
▁مائدة
▁المحكوم
▁2021-12
ايع
▁تعذر
▁Park
هم:
EG
▁علام
يّن
▁استقباله
▁يضيع
▁عمولة
▁أميال
▁ر.س
▁تربوية
▁وزنها
▁المنفذ
▁مكيفات
▁دعوته
مجلس
▁لمتطلبات
▁رائعة.
رازيل
▁يُش
▁كوت؛
▁وتعاون
كاديمي
▁الهند.

▁على.

▁بامكان
▁الأفارقة
وواصل
▁اوا
▁العربيّة
▁التين
▁صغ
ووقت
للام
مجد
▁الفاص
▁الثانية:
▁العشائر
▁وتحويلها
▁الانباء
هُم
▁النهاية،
group
▁جدًا،
▁←

▁هون
▁تقصير
▁،،،
▁غيرها،
َّةً
▁ألمانية
▁حلوان
▁الاداري
▁التأمل
▁قادراً
▁ترصد
▁البلط
▁العضوي
▁أذربيجان
▁للحماية
▁معتبر
▁إيب
▁other
▁فيكتوريا
▁تلمس
▁لهجوم
▁العجلات
اقت
▁فيفا
▁دراج
▁وينتظر
▁وتسويق
▁مغامرات
▁الاستوائية
▁خاضعة
▁سجله
▁سودان
▁قدّم
▁under
ّدت
ذكير
avy
▁بوري
▁الشركة.

2014
▁المجال.

نائى
▁أسف
▁حظي
▁ثواب
ips
شهاد
▁تسبق
▁وقيمة
▁تحتضن
struction
▁Details
▁أربي
▁البيرة
▁تتعرف
▁رجالي
▁1960
▁وتضع
▁الافريقية
▁لاعبا
▁المالى
▁ابْ
▁كمع
▁متواجد
▁مختصة
▁إخبارية
▁"يجب
▁صغيره
▁المصنعةWhatsApp

▁والوسط
▁الكروميت
مائر
▁التقليدية،
▁الجحيم
تحرك
▁بِأَ
▁سيستمر
▁إزالت
▁وانف
▁تنفع
mill
▁يصد
▁موته
▁النفق
عوبات
▁1080
▁التداول.

/سبتمبر
▁والاحترام
▁السابق.
▁المعلقة
▁Top
▁وباك
▁play
▁الديمقراطية،
▁أحادية
▁تدخ
▁بأنني
▁عطل
▁للطن
▁بافت
▁03,
يبه
▁حسين،
▁add
▁الإقرار
▁أفريقي
▁متري
▁هجوما
▁مخدر
▁many
▁موسى،
▁الليالي
لسات
▁الوجبة
▁لمشاركة
▁ردي
▁ووقت
▁بشهادة
▁تخريج
▁-ت
▁if
▁ريس
▁"نا
لكريم
عليم
▁أندا
▁وتخت
▁أبنائهم
▁المبدعين
/2011
▁ولكم
▁كان،
▁وتؤ
▁عطور
▁ثقيل
▁السنغال
▁التبول
▁محتر
▁Rob
▁ناع
▁المدين
▁البقاع
در،
▁محمدا
▁البرنامج،
جاد
▁حيثُ
▁الافتراض
▁وسيق
▁�
edu
▁الميل
▁يزل
▁acc
▁مائي
irc
▁والدخول
▁أعيش
▁الحلفاء
سها
▁عسكريا
▁ألكس
oz
▁بالمجتمع
▁للدورة
▁الهولندية
▁م)
مينا
▁نترك
m.
▁comment
▁بموجبه
ones
منية
▁هونج
وجّه
▁الاض
▁CBD
دا

راحه
▁يراقب
▁لاستكشاف
▁وفرت
▁معقل
▁والأصدقاء
▁إسعاف
▁قائلًا:
▁وكتابة
▁جاهزية
▁middot
▁المنشورات
▁مضيق
▁مستند
▁استقبلت
▁راضي
▁الجيش،
▁أحضر
▁إدمان
سنة
▁كص
/143
▁العزم
▁يجز
▁اللذيذة
▁زيارتها
▁كبديل
▁والزي
▁الحدود،
▁المخدرة
▁وينتهي
▁بنص
▁وتنتهي
▁الأسطورة
▁النزاهة
طفات
▁شج
▁مروح
التح
لاتها
▁وسنة
▁بالمدرسة
▁ويعت
▁هداف
▁بالمياه
▁تتكلم
▁الاحتيال
▁المنافسين
انز
▁أنكم
▁صدم
▁المقترحات
▁وصالح
▁وتحفيز
▁إساءة
▁للتغلب
▁العالمي.
وبية،
▁الكش
▁الجسدي
▁وزنه
▁لزراعة
▁متراً
▁1993
تدى
▁بالتحقيق
▁وفكر
▁يعشق
▁آداب
▁شفيق
▁prov
▁للجامعات
▁مسيرات
▁يناهز
▁السرطانية
▁Pe
▁جنيه.
▁ارش
▁ال

قَوْ
▁الأفغانية
▁للإمام
▁يمه
▁الباكستاني
ائيين
يين،
▁ندعو
اطى
▁الاستثماري
▁png
فقا
▁مستحقات
شِ
يهما
▁أتذكر
▁وعملت
▁وواصل
▁سيق
▁للعد
▁كيد
▁الجواب:
▁الجص
▁نيوتن
▁1400
▁مليوني
▁Note
▁لعودة
هرية
▁للتط
▁له

▁حاوية
▁مرخص
شئة
▁٣٠
▁مثلي
▁المسجلين
▁لايك
▁احيانا
▁وأقول
▁دعاة
▁ساعة.

▁عاملة
▁أجود
▁تتغ
الأخبار
▁المناظ
▁25%
▁وساعد
▁لإرسال
▁مؤتمرات
ريمير
▁العروبة
بلي
▁متفاوتة
▁وشددت
▁كالك
▁جنازة
%D8%B3
▁صبح
▁لمنح
وسفات
▁المحاص
▁car
▁يجبر
شستر
▁تتسع
رتباط
▁صريحة
▁الانص
awei
▁المؤسسي
▁نشاطه
▁يتبين
▁ندوات
▁ورعا
▁ويعني
▁الزئبق
▁سيولة
oday
▁1800
▁دفعها
▁مشاورات
▁الاستقالة
▁أولا،
طارات
▁جبهات
▁عارضة
▁سماعة
▁ets-power
▁مافي
▁متداول
▁النعم
▁١٧
▁ملق
نانير
▁برزت
▁عث
▁الجواز
▁السيئ
▁تمهيداً
وائية،
▁حظيت
مورة
▁ستاد
▁عبداللطيف
▁والمقد
▁ايجار
▁يسري
▁أوص
▁حلوى
▁والملك
▁خلو
▁لحياة
▁احنا
▁الأراضى
▁الألباني
▁اوس
رائض
مات،
▁سادس
▁تعقب
▁يوصف
▁الاداء
▁الاشارة
ودو
▁"بر
▁والرد
▁الخصوص،
▁أجز
▁المثانة
▁Complete
▁"ليس
▁يحظر
▁فنق
قتين
▁الاستدامة
▁ثقل
ِم
▁معيش
▁sub
▁شنو
▁السعر:
▁ذرا
▁التيتانيوم
▁المتعدد
▁كيلي
▁سيغ
رابط
▁بشتى
▁بنظ
▁السويدية
▁استراحة
▁Rew
▁الاوراق
▁خلقت
▁عَبْ
▁بمظهر
▁للعرب
▁والترب
نكار
رواه
▁101
▁بالحكم
نيسان
▁بقاع
▁وانس
▁براديش
▁لقبول
▁جعلنا
▁تدعيم
▁نقطة.

وقفت
▁الآخرين.

▁الفترة،
▁لوط
٬٠٠٠٫٠٠
فاقات
▁كثيرين
▁وشد
▁المستجد،
▁اللوجستية
▁الاجنبى
▁بالبشر
▁بريطانيا،
▁للجمهورية
▁لقيام
▁ولهم
▁لسياسة
▁والسيارات
▁لتاريخ
ال،
▁الأسود،
▁تحترم
ِّن
▁تكفل
▁الاوروبية
وبك
▁ايس
▁وتقوية
▁Over
▁مواطنا
▁الأقاليم
01
▁مردود
▁لصديق
▁الفاتيكان
▁الجوية،
▁فم
▁المدمجة
▁الآبار
▁والوحدة
atal
ــن
▁واما
ميزات
▁المهنيين
▁الفاخر
▁معاليه
▁٢٠١٨
▁وطننا
▁ودفن
▁ولط
▁العوض
"[
▁كتيب
▁وتجار
▁ونظرا
▁فروق
▁مفردات
▁لتجديد
▁الفطريات
▁الفاعلين
▁فجوة
▁جيوش
داليات
▁“ت
▁مدح
▁بقى
▁الإثيوبي
▁لا

▁أجله
▁الترتيبات
▁الكند
▁«في
▁ومنتج
▁الملك،
▁الالوان
▁وتصدير
▁فبراير/
‎,
▁أنشئت
▁عريق
اقوت
▁الفتاوى
▁استماع
▁القرشي
▁وتدخل
▁علاجها
lix
▁هوليوود
▁سِ
لی
▁اللاسلكية
▁التقلب
▁الصالحين
▁الكونجرس
▁محو
▁أجرتها
▁سواري
▁بسلام
▁موضوع

▁يغلب
▁الاستعمارية
▁الإجرامية
▁المصنوع
▁وقلب
▁تتألف
▁حلاقة
▁ومحطات
▁كالش
▁تفويض
▁تابعنا
▁الحاصلة
▁يشترك
يود
▁ويريد
▁للتحالف
▁(9)
▁الثاني.
▁صفراء
تاز
َّمَ
▁الخوارز
▁اشارة
▁التشكيلي
▁بذكرى
▁جيري
▁الساعة.
▁«الد
▁تنامي
▁كثيفة
▁04,
▁المضاربة
▁بابن
▁والتعب
▁الدموع
▁الأذى
▁كأول
▁فريضة
▁الإقتصادي
▁المجتمع.
▁قصوى
▁الذكريات
▁المضغوط
▁يطمح
▁ترفيهية
▁وفوائد
ردوغان
▁صحته
▁عريض
▁شبهة
▁محصول
▁ذهبي
▁الفرار
▁الجثة
نشاق
▁وبيانات
emb
▁الممنوحة
▁البرهان
▁وحرق
▁ممتع
▁ينسب
▁حضره
للد
hal
▁وتعب
▁والأخبار
ible
ke
▁الأردنيين
▁أساسيا
▁الأزهار
▁الماشية
▁خسرت
▁المعدية
▁نؤكد
▁اقتناء
use
▁المقاهي
▁"S
اللام
▁حضوره
▁المكي
▁أوروبا.

ories
▁المتضررين
▁وتوحيد
opt
▁المقبل

▁صامت
▁ينظرون
▁الداكنة
▁التكتي
▁يشتغل
▁للتدخل
▁البلغ
١٠
}.

راش
▁الرياض.
▁لمصالح
▁الأمازيغية
▁العشرين،
▁والتعلم
▁الإرهابية،
▁سيظهر
▁لإعلان
▁لقتل
▁ترف
▁جيه
▁صبغ
▁والنمو
▁نصرالله
▁قوق
موند
▁القديم،
▁رابعا
▁القادم.

▁co.
▁جانبا
▁واحصل
▁مستوياته
▁لعمر
▁الفينيل
روقات
▁Mot
▁نطالب
▁حسن،
ائها،
▁حزينة
وويف
▁بالأق
لمم
▁غرامات
▁داخلها
▁Ult
▁طلبا
▁الساحلي
▁يتمنى
▁حواجز
▁يبني
▁المجاري
▁غب
▁المعلومات.
جدة
▁يتواصل
▁لكثرة
▁والأمير
▁المساكن
▁المليار
▁جسور
▁والنقد
▁01,
و15
▁بيعه
اف،
▁أرق
▁ولجنة
▁أشهر.

▁"تم
▁عايز
▁الأعم
▁عاشوراء
▁لأسواق
للبيع
▁المغتربين
▁«ش
orth
▁تمهيد
▁وكلاهما
▁الأي
▁2008،
▁أثير
جبة
▁تتذكر
▁تعين
عرج
▁يغني
▁اليوم..
▁لمستقبل
ولم
▁الأيتام
▁المفاجأة
▁المفكر
▁الرصد
▁والبنك
